#version: 0.2
Ġ t
Ġ a
i n
h e
r e
o n
e r
Ġt he
Ġ s
a t
Ġ o
Ġ c
n d
Ġ w
e s
i t
e n
in g
o r
o u
Ġ p
i s
Ġ f
Ġ b
a l
a n
Ġt o
Ġa nd
e d
Ġ m
Ġ in
a r
Ġo f
Ġ d
i c
i on
l e
o m
a s
Ġ h
en t
Ġt h
Ġ y
Ġ e
i l
â Ģ
r o
Ġ re
Ġy ou
v e
c t
s t
Ġ l
Ġ n
e t
Ġ g
l y
Ġ is
Ġf or
i d
Ġ T
u r
c e
u t
o t
Ġb e
u s
Ġ on
i m
i g
at ion
o w
a y
Ġ I
o l
Ġ S
r a
it h
c h
er s
Ġ A
âĢ Ļ
Ġs t
Ġ C
Ġth at
e l
Ġw ith
a m
i r
Ġp ro
v er
Ġ it
u l
a d
es s
Ġa l
Ġa n
Ġa s
Ġc on
i f
Ġ he
Ġa re
Ġyou r
u n
m ent
s e
Ġo r
il l
Ġ M
Ġc om
at e
k e
g e
Ġw h
Ġ P
p p
a b
Ġe x
t er
Ġ B
Ġw e
it y
es t
Ġh a
i ve
he r
u re
o o
or t
Ġc an
o re
Ġ v
Ġ W
ĠT he
q u
i v
a c
ig h
e ct
i es
Ġd e
Ġn e
r om
an t
is t
Ġs u
Ġ D
Ġa t
Ġs e
Ġ H
u st
a in
o p
Ġ F
i al
l d
ar t
Ġ us
o c
Ġ r
e m
Ġ R
t h
Ġc h
o s
a nd
Ġf rom
u m
Ġha ve
Ġs h
n t
Ġ E
Ġ en
igh t
Ġ L
p er
Ġ âĢ
Ġ le
re s
Ġth is
Ġp l
Ġn ot
Ġw ill
Ġb y
p e
Ġ u
u d
Ġ G
r i
ar d
ion s
id e
ou r
om e
ou t
al l
Ġa d
p t
k ing
Ġ N
o d
in e
Ġw or
Ġw as
Ġ 2
Ġcom p
Ġ O
o st
a re
Ġ 1
Ġa b
Ġal l
r ou
ab le
Ġm a
Ġ (
a ge
f f
Ġthe ir
g h
i z
i p
c c
an ce
Ġin t
t her
as t
Ġ im
T he
a g
e re
al ly
or m
ou ld
ic e
Ġ j
i e
el l
a ct
Ġh as
Ġw he
d u
p l
Ġd o
Ġcon t
Ġo ur
i re
e ar
Ġin c
ig n
Ġm ore
âĢ Ŀ
k s
an s
Ġ k
ation s
at ed
o g
ou s
r y
Ġo ut
s o
Ġt e
i b
ic h
Ġ U
in d
ĠT h
f orm
im e
Ġc l
Ġa pp
Ġthe y
a il
on g
ver y
en ce
Ġre s
Ġm e
on e
Ġof f
ul t
Ġ un
ac k
Ġu p
it e
r u
Ġs o
Ġm an
Ġb ut
ĠI n
e p
Ġal so
i ke
Ġf e
oo d
re at
0 0
er v
Ġ J
Ġim p
ve l
ic al
a ce
Ġs p
it ion
as e
i le
Ġp er
Ġ Y
Ġwh ich
ĠâĢ ľ
Ġab out
am e
Ġon e
a ch
Ġ qu
i a
Ġs a
Ġo ther
l l
Ġan y
Ġp art
re e
Ġe v
ent s
Ġd is
or s
Ġwh o
ou nt
Ġa cc
Ġpro v
Ġt ime
res s
Ġt ra
ar y
Ġg o
Ġne ed
Ġp re
a p
ay s
u e
Ġl ike
e nd
ar k
Ġne w
as s
ĠI t
ĠS t
ct ion
Ġ2 0
a v
Ġit s
Ġthe m
Ġcom m
b er
n ow
Ġt a
ing s
' s
l p
Ġe m
Ġ K
an c
Ġhe lp
en s
Ġre c
or d
Ġs pe
ĠTh is
u b
Ġt r
nd er
Ġa r
Ġex per
Ġh is
Ġs ome
ment s
Ġo ver
n e
Ġ V
il d
Ġs c
u al
o v
Ġ ro
oo k
Ġd es
l ud
Ġg et
ic k
o se
Ġp e
o y
Ġy ear
Ġm y
Ġwor k
Ġin d
Ġad d
Ġint o
re d
at er
o ve
Ġm ay
Ġwhe n
Ġ if
rou gh
if ic
l ow
il ity
ic es
Ġthe re
ĠC h
it ies
Ġa g
o b
Ġh ow
Ġs erv
c k
t ing
Ġp r
pp ort
Ġcon s
n ing
on d
Ġinc lud
is h
Ġbe en
en c
Ġpro du
at ing
Ġb et
Ġk now
f ul
Ġma ke
an g
Ġwh at
i ence
i ous
c ess
Ġbe c
ĠW e
op le
w n
Ġthe se
Ġth an
l ic
Ġc ol
in ess
on s
if f
Ġus e
t s
a k
ou nd
is e
or y
at es
a us
Ġhe r
o in
t e
ter n
ure s
ou gh
Ġth rough
le ct
Ġj ust
Ġa ct
Ġin v
Ġe ff
Ġu nder
c ial
l es
Ġpe ople
Ġre g
Ġa m
ra m
ur ing
us iness
ir st
Ġs y
ow n
Ġb u
Ġm ost
Ġre l
ĠâĢ ĵ
l ine
ers on
Ġe very
ol d
Ġpl ay
Ġw ell
Ġre p
Ġd iff
Ġ 3
he n
Ġn o
ul ar
Ġwe re
f ter
al th
r ic
Ġ ke
j ect
ra ct
t ain
Ġw ould
ot h
Ġon ly
f t
ro w
p ect
it s
ust om
ib le
rou nd
Ġas s
Ġh ad
Ġsu ch
b s
he d
am p
Ġp os
Ġb usiness
w e
ĠY ou
an ge
al s
i an
aus e
vel op
Ġin form
Ġh igh
ark et
Ġat t
Ġc o
Ġb l
e f
Ġf irst
st em
Ġre qu
ol og
Ġre m
h ip
if e
Ġprov id
Ġde c
r it
Ġp h
g et
an y
ie w
ad e
Ġw ant
Ġa c
ent ial
Ġse e
Ġin s
e c
as ed
i ent
at ive
ch n
Ġ ent
Ġwhe re
Ġse c
Ġp erson
il y
Ġdes ign
Ġtr ans
Ġt w
Ġs m
Ġman y
in k
Ġ ra
Ġf in
Ġl oc
m er
w ard
re n
al ity
is s
ow er
a w
Ġsh ould
Ġc ustom
et h
Ġin st
I n
ation al
x t
s s
e g
Ġprodu ct
Ġw ay
ur n
Ġb est
p h
Ġg u
Ġf l
Ġb ack
er m
Ġad v
ĠH e
Ġev en
at a
Ġ |
Ġst r
Ġsu pport
Ġsa id
Ġs he
Ġdiff ere
el f
Ġst ud
Ġs et
f ore
Ġr ight
Ġa v
Ġde velop
Ġo wn
ic s
Ġo pt
Ġpro cess
on t
c es
T h
Ġf ind
Ġc re
Ġm arket
e w
Ġc as
Ġinform ation
t en
g an
en er
d ay
Ġsy stem
iz e
ĠP ro
id ent
Ġyear s
Ġc ould
Ġs ign
o ol
he s
y s
Ġdis c
Ġst art
ion al
om m
Ġwor ld
Ġexper ience
Ġg ood
Ġhe alth
Ġ20 2
ri b
Ġta ke
Ġv is
Ġen s
Ġpro f
Ġl ong
iv ers
Ġtw o
Ġte chn
u nd
t y
Ġcomm un
Ġle ad
Ġm ed
iv es
ĠI f
i ed
u es
Ġh ome
a ir
Ġa fter
Ġoff er
Ġg am
Ġd et
n ess
ol ut
Ġg reat
. âĢĿ
Ġm od
Ġs k
t ed
Ġ very
u ch
Ġv ar
ar ch
Ġimp ort
Ġc are
Ġs im
ĠW h
u p
Ġex t
Ġc ar
Ġ 5
b le
Ġb r
Ġd el
Ġte am
Ġex p
i qu
e ver
Ġwh ile
it ed
l ed
Ġcomp le
Ġpro g
in es
Ġin ter
oc k
Ġp res
Ġs ur
st and
ĠU n
l ing
Ġm on
Ġon line
et y
at h
Ġ 4
Ġdiffere nt
Ġl ife
n er
Ġd ata
Ġth ose
iz ed
ol low
Ġc he
Ġc le
Ġha nd
it al
ar m
Ġthe n
Ġe as
Ġf am
Ġar t
Ġall ow
Ġa ut
c om
ag es
Ġd own
Ġn ow
or k
Ġ -
v en
W h
Ġre f
Ġm in
Ġd on
Ġbe fore
âĢ ľ
Ġbec ause
ot her
W e
Ġprov ide
u ally
Ġt y
Ġ20 1
Ġsh ow
Ġe ach
Ġus ed
n g
Ġp ur
Ġp ol
c ed
Ġn um
Ġd ay
v ing
g y
Ġm ain
Ġbe ing
t le
iv ing
) .
Ġv al
a ke
ce pt
ere d
d er
Ġre ad
ĠA nd
Ġeff ect
Ġm ade
Ġm uch
Ġdo es
ar n
k es
Ġsu b
Ġc ur
Ġe nd
l ess
Ġrequ ire
Ġfe at
Ġm em
Ġf ree
Ġfor m
Ġinclud ing
Ġp ay
at ch
ra nd
Ġb oth
ire ct
i o
ĠA s
Ġserv ices
Ġacc ess
Ġapp ro
ab ility
Ġf ollow
ic t
i x
Ġl ook
Ġf un
Ġd r
we en
Ġ ed
ur al
i enc
ĠF or
Ġin f
Ġre t
Ġo p
Ġ &
ĠThe y
Ġimport ant
Ġpart ic
i er
ĠR e
in s
Ġre al
Ġhe re
Ġav ail
el s
id er
ul l
d ition
Ġag ain
Ġus ing
Ġg l
p le
as on
Ġcon f
olog y
ort s
Ġc ount
p s
oo king
Ġ "
ect ion
Ġ1 9
e e
Ġbet ween
Ġke ep
Ġc all
Ġch ar
v iew
pl oy
ĠA d
as h
ant s
Ġto o
n ce
Ġinv est
Ġsa f
at her
al e
Ġg ame
o ver
, âĢĿ
Ġa round
Ġres ult
u c
Ġp ub
Ġspe c
Ġg ener
Ġinc re
in o
Ġprog ram
iv id
Ġor gan
Ġpro t
Ġres p
Ġ $
Ġpl an
ri end
Ġwith out
w are
Ġpos s
Ġcomp any
Ġs oc
cc ess
en ef
ic ally
Ġbu ild
ch ool
Ġen g
Ġpl ace
Ġpro ject
Ġper form
Ġd uring
Th is
Ġg row
Ġh im
w ay
ou se
Ġc ost
ro ss
Ġde f
Ġis s
Ġex pl
Ġch ild
Ġc our
et s
in ing
ĠH ow
ĠS h
Ġcont in
Ġwe bs
Ġs l
Ġma king
w ays
Ġto p
an k
c er
ĠA l
en g
le ase
Ġavail able
Ġst and
Ġp rom
Ġserv ice
im es
a ve
Ġfe el
Ġimp ro
re ad
ru ct
v es
in ce
Ġunder stand
Ġw ater
v ed
Ġd id
ere st
Ġpro per
a z
Ġadd ition
) ,
i ents
Ġprof ess
Ġl ar
Ġp at
age ment
Ġf act
Ġwith in
ir on
ĠA n
p r
oin t
b ers
Ġperson al
if y
od y
Ġo b
Ġind ust
Ġm ust
Ġs er
v ent
Ġp ot
' t
e x
Ġwe e
g g
Ġb o
ivid ual
re nt
Ġs om
Ġc reat
. .
Ġp ower
Ġo per
ar s
Ġc or
o ad
Ġb enef
l and
Ġst ate
one y
Ġl ast
ĠC l
Ġs ame
ist s
Ġl ot
iqu e
Ġle vel
ĠP l
Ġf ound
en se
Ġneed s
r ation
Ġl it
Ġs it
ĠE x
ĠD e
Ġ 6
ou n
Ġm ight
Ġfe w
m s
rib ut
Ġc er
Ġp ract
Ġind ividual
Ġre ce
p os
Ġn at
pe nd
i el
Ġd ist
00 0
Ġre st
Ġ ide
I f
oc us
ĠB ut
ĠW ith
Ġst ill
Ġint erest
Ġle g
v iron
Ġ est
Ġ ve
j oy
Ġbet ter
Ġsm all
Ġop en
a ut
Ġof ten
ĠN ew
Ġbe l
Ġspe cial
ill s
c l
Ġl ist
Ġcre ate
us s
Ġp ass
Ġcon n
Ġt est
I t
ro l
Ġa ff
Ġproduct s
Ġmon th
it ive
are d
c on
ar ly
is ion
Ġin tern
Ġsu ccess
s elf
ĠThe se
Ġoff ers
ate ly
Ġha pp
Ġcom e
Ġapp lic
Ġc ent
Ġgo ing
ard s
Ġd irect
Ġal ways
Ġor der
Ġens ure
Ġacc ount
it ions
Ġfam ily
r al
ort h
Ġg ra
ĠC om
Ġp op
Ġm us
ĠA r
Ġs ure
Ġqu ality
Ġqu est
a h
Ġwebs ite
Ġnum ber
Ġem ploy
Ġre ally
Ġr un
iz ation
Ġf il
ur ity
ĠThe re
os s
Ġre se
Ġp ost
ĠI nd
Ġth ings
Ġl ove
Ġ1 0
at form
amp le
Ġl aw
pport un
Ġth ough
Ġspec ific
Ġr is
Ġth ink
a pt
anc es
Ġab le
f ect
ater ial
Ġact iv
Ġde m
Ġe qu
Ġto ol
Ġstr ate
i ety
Ġs olut
Ġsu pp
u g
d e
Ġf ac
ight s
Ġf ocus
Ġen viron
iel d
th ing
t o
Ġen joy
Ġre du
Ġth ree
er ing
Ġc ap
pp ing
re am
Ġm at
ne y
Ġ 7
Ġo pportun
ĠS o
o or
in ed
is hed
t on
Ġb re
Ġloc al
Ġme et
Ġpot ential
re en
ĠâĢ ĺ
i or
Ġw in
Ġty p
Ġm oney
t he
ent ly
ie ve
ĠT o
f ort
Ġg rou
iv en
Ġpro ble
o ot
e ad
Ġcont ent
Ġ ess
eth ing
Ġgam es
Ġcons ider
Ġsoc ial
is m
p or
Ġv ide
Ġb rand
mer ic
Ġ Q
Ġke y
Ġinclud e
Ġcommun ity
Ġt reat
Ġsign ific
Ġpl atform
Ġde v
Ġe le
g er
Ġch all
Ġpub lic
Ġl ooking
Ġen h
Ġb ig
it ing
anc ial
Ġt ry
al k
ent ion
p ort
ut ure
ot e
Ġwor king
Ġs ay
Ġm aterial
v ers
âĢ Ķ
i ver
Ġf ull
Ġne xt
Ġle t
i um
Ġcl ass
Ġdet ail
Ġf riend
Ġan other
Ġcur rent
Ġsom ething
Ġindust ry
ot s
Ġ 8
Ġg ive
Ġm et
in ation
Ġs chool
Ġcon st
Ġp ut
a king
Ġvar ious
Ġh um
ib ility
ĠS c
if ied
Ġd ays
Ġf ood
b e
oo se
Ġfeat ures
our s
Ġch ang
ĠB l
and s
Wh at
m e
Ġl ess
Ġenviron ment
Ġe l
enc y
Ġm ult
ic le
l ish
Ġun ique
iss ion
ĠA meric
Ġbe h
ag ing
Ġto day
ivers ity
m ed
il ities
Ġeas y
ĠS p
ain s
m an
Ġare a
Ġc r
a x
Ġb ro
o ice
Ġper fect
Ġt erm
ver n
A s
or ies
Ġdevelop ment
a u
Ġac ross
Ġst ep
Ġso ft
ĠT e
Ġw om
Ġl ight
is ed
Ġh ard
Ġ ident
Ġsignific ant
w ork
Ġhe ad
Ġle arn
ĠO n
Ġrep ort
le t
Ġh ist
c ent
em s
Ġch ange
ĠC on
he re
Ġcustom ers
o f
Ġeffect ive
Ġa ir
r ies
Ġw rit
ill ion
Ġbec ome
Ġ es
Ġ 9
Ġs ite
Ġ Z
Ġe lect
Ġs al
h or
Y ou
Ġlit tle
H ow
y le
Ġgo vern
Ġf uture
Ġagain st
Ġs ince
Ġen er
Ġg r
2 0
Ġimp act
Ġcle an
ĠI s
in al
Ġrese arch
Ġan al
Ġstud ents
Ġr ange
ir d
at or
ĠT r
or n
Ġl im
ur ther
Ġinv ol
Ġc ase
at s
Ġd ig
Ġimpro ve
ĠS e
ĠA ll
Ġt re
ĠO ur
Ġm ov
Ġev ent
pe cial
Ġqu ick
Ġb ased
ĠB e
ĠHow ever
o h
Ġposs ible
is ing
Ġopt ions
Ġv iew
Ġcomp an
Ġem ail
Ġt ru
ĠY our
ĠS he
eth od
oc i
Ġex pect
ur y
Ġf und
Ġfin ancial
Ġpartic ular
n ers
ar ing
Ġd i
ord ing
Ġtechn ology
Ġcomple te
Ġexper ienc
Ġwh y
f act
as ter
ure d
Ġse ver
Ġsp ace
get her
in t
Ġto gether
Ġj ob
o k
ward s
er n
Ġcont rol
Ġed uc
n ov
r on
Ġlar ge
Ġconn ect
Ġl ive
ĠA t
S t
Ġm ove
Ġcas ino
ĠâĢ Ķ
le ction
Ġcom es
Ġb as
ic ation
Ġess ential
Ġme ans
Ġma kes
Ġprovid es
our ces
p art
Ġadd ress
g in
Ġb ody
c ing
Ġm ind
Ġc ult
ĠU S
Ġbu y
ent al
Ġp ain
us h
em ber
ac y
ire d
Ġcont act
Ġchild ren
Ġpres ent
Ġn et
Ġne ver
Ġprot ect
re t
a im
Ġcomp et
ĠR es
ĠC ol
Ġcustom er
it ut
ĠW hen
ĠC omm
Ġcer tain
Ġsever al
Ġan n
f or
Ġiss ues
Ġener gy
b r
Ġresp ons
ore d
Ġo ld
ra p
iz ing
Ġvis it
Ġcom b
Ġal ong
od e
r ist
Ġt urn
Ġa way
Ġman agement
an n
con om
Ġcomm it
Ġeff ic
Ġperform ance
Ġche ck
iv ed
Ġd ra
Ġsec ond
Ġpur ch
Ġrel ations
l i
Ġh ig
Ġbe aut
Ġm ethod
Ġprofess ional
o id
ĠB y
E R
Ġmem bers
Ġm ar
pt ion
Ġvide o
ab or
ĠM an
m b
Ġre view
Ġen c
omm end
d ing
ip s
F or
Ġfollow ing
Ġa ud
Ġha ving
u ro
Ġcompan ies
Ġsec urity
Ġcour se
du ct
Ġwee k
Ġro om
a pe
or ing
ar ning
as ing
Ġj our
Ġus ers
Ġstr ong
ĠP h
Ġother s
Ġp ri
a f
op e
are nt
ff ic
Ġs w
Ġs ol
Ġo cc
Ġt imes
s ide
um p
anc ed
Ġv ers
t il
pp ed
Ġf r
m in
Ġb ook
ou th
g ed
m it
Ġp ast
in a
Ġas k
ĠL e
ĠA pp
ab ly
ĠE n
Ġret urn
f er
ĠS u
Ġn ame
ĠO r
if t
Ġchall eng
Ġex ample
W hen
a ff
oo ks
Ġt em
Ġs ing
ĠTh at
Ġplay ers
i k
ac es
Ġa ch
led ge
Ġ2 00
Ġbr ing
Ġwor ks
Ġp ar
Ġrec ommend
j or
Ġk ind
Ġpr iv
Ġp a
Ġcount ry
Ġg ot
Ġn on
Ġmain tain
Ġph ot
og n
âĢ ¦
im ate
b o
Ġent er
Ġval ue
Ġmed ia
as es
ĠC an
ra ph
ĠS erv
ce ll
Ġpop ular
Ġcomm on
Ġex c
Ġd ue
Ġrelations hip
Ġsh are
on us
Ġdesign ed
Ġbenef its
Ġf ore
s el
Ġgrou p
Ġc red
Ġro le
Ġcon d
c y
Ġcom fort
id es
Ġh ouse
Ġme an
i od
av or
Ġresult s
read y
Ġsh ort
os p
Ġne cess
ĠIn st
Ġknow n
Ġst ay
ob al
Ġcon cer
p ro
Ġd am
Ġpol ic
Ġl ow
Ġtra vel
in c
Ġprovid ing
Ġinst all
Ġde al
Ġam ount
Ġp oint
Ġare as
id s
ĠWh at
ur ance
Ġar r
Ġco ver
Ġh old
s ing
Ġris k
it c
Ġc amp
Ġnat ural
Ġl ine
l oad
Ġsystem s
ĠF r
pecial ly
Ġdig ital
Ġe conom
Ġstrate g
c le
Ġwe b
ĠP r
v ious
Ġinf l
Ġse ason
Ġf urther
Ġgrow th
Ġsaf e
Ġint eg
Ġl a
at ic
ro p
Ġcons um
Ġass ist
b y
Ġs ide
ĠT ra
ar r
e es
Ġre le
Ġph ys
Ġfun ction
Ġma jor
Ġpre p
our ce
Ġf our
Ġc ra
ell ing
ĠC ont
Ġal ready
Ġappro ach
Ġcol l
on es
Ġch oose
g ing
k en
is c
Ġta x
res h
Ġallow s
Ġtool s
Ġc ut
Ġtra ining
er y
Ġwhe ther
ob ile
Ġgovern ment
Ġrec ord
ul ation
Ġus er
Ġm om
Ġ i
ro om
Ġhe art
Ġoff ic
Ġc rit
oc u
g es
ĠCom p
ĠC ent
Ġc ru
Ġproper ty
Ġwom en
ĠE ng
id ence
Ġget ting
Ġhum an
Ġdisc uss
Ġth ing
d s
a i
Ġchar act
le ment
Ġe y
res ent
ir t
Ġmus ic
t ers
5 0
Ġsoft ware
le x
n am
it es
Ġp ack
Ġin nov
Ġf re
an e
Ġam ong
Ġbuild ing
Ġt ri
I N
Ġpartic ip
Ġbe gin
Ġty pe
Ġmarket ing
Ġindividual s
Ġcont ribut
Ġun til
p ly
pl ace
ir m
Ġpre vent
Ġst ory
Ġin it
n ot
Ġme as
The re
n s
ens ive
Ġp ress
Ġse arch
Ġaut om
i ate
Ġsolut ions
er t
Ġquest ions
Ġsk ills
Ġes pecially
Ġw ide
Ġs ays
' re
Ġpr ice
Ġp ort
ĠCh rist
i res
Ġan t
Ġe ver
Ġest ab
Ġincre ase
Ġf it
Ġ1 2
Ġup d
Ġen ough
Ġor ig
Ġse lect
c ome
Ġp age
Ġenh ance
dition al
Ġexper t
ot t
u ck
Ġapp ear
Ġm en
ful ly
Ġaut hor
1 0
Ġh ours
Ġc e
Ġc al
Ġsaf ety
Ġknow ledge
Ġact ually
is es
ou ra
Ġf ield
ill ed
Ġma ch
Ġcl aim
pl ay
Ġnew s
ific ation
at ure
ĠUn iversity
is ter
est s
Ġb onus
Ġleg al
Ġd one
ĠM ed
Ġbusiness es
ĠG od
Ġc ity
Ġle arning
T o
Ġsim ple
ric t
ip le
ro ll
ĠA I
Ġst ore
i ans
at ors
Ġper iod
u fact
Ġrequire d
Ġcle ar
Ġon ce
Ġre ason
Ġw ays
Ġp ie
Ġyou ng
og raph
Ġreg ard
Ġcl ients
Ġde pend
E S
c rib
Ġm il
Ġm ot
Ġyour self
Ġstud y
l ished
Ġext ra
ĠA m
A T
Ġcond itions
Ġactiv ities
Ġ3 0
ar get
Ġhelp s
Ġcl ose
O N
Ġpri or
Ġe arly
Ġsk in
Ġle ft
ra in
s w
ie f
ic ult
Ġev ents
Ġm ess
le y
er r
he ther
il t
un e
Ġhist ory
Ġevery thing
en e
om es
os ed
ĠN o
Ġch oice
ĠI m
Ġa ge
x im
t ime
Ġmonth s
Ġd ocu
m ost
ĠE uro
ic ated
Ġ1 8
Ġtr ust
Ġf ar
Ġs elf
iv ity
Ġdo ing
Ġ ut
Ġcol lect
g o
Ġj oin
c ri
ĠA ss
Ġmin ut
A n
Ġm illion
Ġta king
Ġt al
cl us
Ġdoes n
Ġl at
1 9
Ġreg ular
ur s
b ling
Ġc ard
ro du
Ġcall ed
al f
c hes
a pp
O ur
Ġsit u
Ġh y
ru ction
Ġl oss
ĠD o
on y
Ġstart ed
Ġbe low
e al
Ġinclud es
ĠW or
Ġsu per
it her
ĠF l
ow s
Ġvar iety
u ed
ĠM ar
ag ed
Ġtreat ment
ĠO ne
Ġv ol
Ġw ind
if ul
sel ves
Ġs at
Ġrece ive
Ġsu m
Ġf ace
Ġens uring
Ġopt im
t t
Ġrec ogn
ver t
Ġ1 00
Ġem b
Ġf ul
Ġmaterial s
Ġ202 4
Ġdet erm
id d
g le
Ġh ot
ĠC o
Ġb at
ou ch
Ġre ach
Ġve h
Ġopportun ity
Ġl og
Ġab ility
Ġw r
Ġfriend s
Ġaddition al
Ġproble m
i able
ĠS y
s h
ab les
l er
en ing
Ġb al
Ġd ed
Ġass oci
Ġn ight
Ġchang es
Ġp lease
Ġcru cial
Ġprovid ed
ir c
Ġl and
Ġpos ition
un ch
Ġdiff icult
Ġjour ney
Ġle ast
Ġopt ion
m ber
Ġevery one
Ġunderstand ing
er al
us e
Ġto t
ĠC ar
Ġmed ical
Ġst yle
Ġsu st
Ġhig her
Ġnecess ary
ib r
Ġw a
Ġsing le
Ġcreat ing
c hed
Ġmin im
Ġcost s
Ġcontin ue
Ġ X
Ġdetail s
Ġapplic ation
Ġsim ply
Ġy et
w w
. "
C h
A R
Ġl iving
Ġthrough out
ĠUn ited
Ġneed ed
ang u
am es
nd s
Ġc ou
ruct ure
Ġlike ly
her s
Ġs ound
r ate
ren g
Ġsust ain
Ġreg ul
Ġex cell
Ġt arget
Ġ1 5
il ar
Ġex ist
ĠR ep
ap s
Ġman ufact
Ġte xt
Ġent ire
Ġtyp es
Ġav oid
Ġeng ine
ĠEuro pe
ĠG u
Ġex am
Ġde ep
ĠD es
hen s
Ġsome one
u x
Ġw on
e y
Ġquick ly
b ased
ĠD r
Ġcomple x
Ġrequire ments
Ġprom ot
Ġres ources
Ġit ems
f ace
b ack
ol l
Ġa ction
Ġst aff
ĠAmeric an
Ġg iven
Ġrep resent
Ġb ar
Ġs ize
iv al
Ġopportun ities
Ġgl obal
olut ion
Ġaff ect
Ġf low
Ġo il
p ar
er g
W ith
Ġp oin
Ġab ove
Ġmod ern
ag er
ĠM y
Ġb it
Ġcont ract
Ġim m
z e
Ġbeaut iful
ĠWh ile
Ġchalleng es
Ġc aus
ail y
re ct
th ough
Ġread y
Ġeduc ation
Ġproble ms
Ġs le
j ust
Ġlead ing
Ġover all
l ight
Ġlead ers
Ġsal es
Ġoffer ing
ac ks
ul es
ir l
Ġproject s
Ġc y
ĠR eg
Ġan sw
A N
ĠA ust
Ġm obile
ec ut
Ġpart ners
Ġexpl ore
Ġadd ed
ĠIn tern
ip ment
Ġcred it
er c
ere nce
Ġbre ak
Ġf ive
Ġterm s
E O
Ġ z
ĠN e
Ġgu id
Ġdid n
Ġsu gg
Ġach ieve
Ġh ost
ĠS ec
at ory
Ġrem ain
Ġthough t
ĠH ere
Ġs ens
Ġl ater
ĠA fter
O R
in king
Ġl ay
Ġsm o
Ġac cept
anc ing
Ġse en
as k
Ġmod el
ĠM in
ĠC he
Ġdel iver
ne w
Ġfam il
Ġt our
it or
ĠS ome
Ġst reng
n ed
Ġtra ditional
Ġf avor
Ġth ird
Ġwho le
Ġmult iple
end ed
Ġbel ieve
p ut
av ing
Ġus ually
Ġdec ision
Ġinter act
ov ed
ast ic
Ġprodu ction
3 0
h ing
Ġsolut ion
Ġlevel s
Ġt ell
Ġeas ily
Ġf oot
ĠM ay
Ġl if
ic ro
Ġc apt
Ġart icle
Ġdo g
g est
Ġp arent
Ġp ers
.. .
Ġapp ly
Ġst e
Ġsec ure
Ġins urance
Ġatt ention
ist ic
Ġs ect
ĠF rom
i et
Ġc ame
Ġoff ice
Ġw atch
Ġspe nd
Ġcomp ut
Ġc ause
Ġquest ion
Ġag ree
Ġf all
au gh
st er
Ġadv ant
Ġa im
ĠF e
Ġde b
Ġhow ever
Ġcharact er
re me
b ook
Ġinfl u
Ġf ast
w h
c o
Ġcol or
Ġne g
id ay
Ġma g
Ġfor ward
Ġper cent
at ives
Ġ 0
Ġredu ce
Ġpract ice
is ions
Ġ Â
Ġst at
b all
iz es
i very
Ġce le
ĠC ons
Ġlat est
Ġenc oura
o x
Ġlong er
ist ration
Ġne ar
Ġpol it
ĠP re
ĠP art
Ġs ense
al u
ĠE m
Ġtoo k
Ġinvest ment
Ġmat ter
ĠA g
Ġm iss
Ġd ate
w or
r ing
em ic
Ġwe ight
Ġprofess ion
ys is
Ġiss ue
Ġpos itive
Ġf resh
Ġser ies
he ad
ress ion
Ġins ide
Ġoffic ial
Ġre d
Ġres pect
oo gle
Ġimp lement
Ġl o
at t
Ġacc ording
ou d
i pping
Ġcoll abor
Ġplay ing
Ġtrans form
Ġpro b
Ġf ail
Ġminut es
Ġv ia
Ġbl ack
ĠHe alth
Ġsub ject
Ġt ouch
u ff
Ġc ell
Ġnet work
ri ed
er ous
Ġ [
Ġintern ational
v ant
op s
ive ly
Ġb ud
Ġta kes
h old
Ġt able
re et
Ġin j
Ġide a
it able
Ġins p
Ġph one
Ġpolic y
Ġab s
Ġcre ated
Ġanal y
E D
Ġl ink
Ġc irc
ir ing
Ġpay ment
n ces
ĠSt ate
re hens
ĠW hether
ienc y
Ġpurch ase
g ra
Ġob ject
A S
Ġprogram s
Ġw orth
Ġsp orts
Ġha ir
in ks
Ġphys ical
Ġt alk
I D
Ġl angu
O n
ĠQ u
Ġcare er
ed s
el t
in os
Ġgo als
Ġse x
Ġeffic ient
Ġpre vious
m ing
ĠA f
en ed
Ġ .
Ġcas es
le ge
Ġdown load
c are
Ġg ain
Ġcont ain
Ġres id
ir it
Ġrec ent
s c
Ġd est
Ġcons ist
Ġe t
ur ch
Ġsim ilar
Ġpriv ate
Ġl ives
ver age
ic les
Ġfr ont
Ġm atch
I T
it ch
. ,
Ġatt ract
Ġcan not
ĠG l
a ign
Ġis n
Ġd om
Ġe ither
Ġtra ck
Ġg en
an ks
en n
Ġfeat ure
Ġta ken
p ose
Ġw ond
ĠM e
o on
Ġg round
or por
Ġr out
Ġre v
ĠC al
Ġc ry
Ġ2 4
Ġde pos
Ġpart y
Ġstrate gy
ĠP res
Ġpr im
Ġst ress
Ġsit es
Ġl ower
ĠP er
Ġsh o
ĠN ational
Ġ1 1
i ol
a ur
Ġcons ult
Ġim med
Ġemploy ees
Ġr ate
ill ing
ar l
c ast
I S
ĠN ot
ove red
Ġbeh ind
olog ical
Ġgam bling
Ġintern et
âĢ ĵ
Ġh ope
ro wn
H e
he t
ub lic
r ated
Ġgu ide
Ġd aily
Ġs un
um b
ar ant
ĠA ct
Ġdam age
Ġem ot
Ġequ ipment
ac hes
Ġexperienc es
Ġcon vers
ivers e
Ġso on
re w
Ġpre c
Ġl ic
Ġas pect
ĠC O
Ġro ad
Ġnat ure
Ġse nd
O ne
ĠS outh
Ġst ra
ĠU K
Ġc oun
E N
Ġto wards
op h
Ġf ire
is on
Ġs ent
Ġloc ation
ac ed
Ġmom ent
u ge
um e
Ġdirect ly
er ve
Ġgener al
Ġdr ive
Ġcount ries
op y
Ġright s
et imes
Ġal most
S o
Ġan im
y ond
air s
Ġorgan iz
in ary
A t
Ġw el
Ġpoin ts
Ġexcell ent
Ġout side
/ /
Ġh ol
Ġhigh ly
Ġass ess
Ġstrateg ies
ĠC ity
w ise
Ġfin al
Ġp ick
ĠJ oh
ĠAust ral
Ġfact ors
ĠA b
Ġrel ated
Ġcon dition
er a
Ġany thing
Ġ5 0
o le
rehens ive
Ġex cept
ic ate
r ast
A C
Ġint rodu
Ġacc ur
Ġr ather
Ġtru e
Ġcom ing
Ġpat ients
ĠSt ates
Ġident ify
i ation
Ġdev ice
w here
B ut
an a
ĠH is
A l
p ri
s y
ĠD ep
Ġapplic ations
r s
ĠF in
av ig
ĠC as
Ġle ave
g round
Ġd ou
ĠA cc
Ġwh ite
Ġrequ est
Ġse em
Ġh on
Ġl ands
re c
Ġfe ed
t ies
Ġsat is
o ber
ru g
Ġref lect
Ġ202 3
Ġa ware
ad a
ĠG oogle
as ons
Ġqu al
Ġbeh av
Ġbu ilt
Ġplan ning
Ġf ram
pl es
ĠWor ld
ach ing
Ġm or
Ġup on
on st
I C
A d
Ġorgan ization
h ib
Ġmem ber
Ġsuccess ful
Ġw ent
Ġs ell
dition ally
A nd
y l
Ġst ream
Ġpl ans
Ġind e
Ġincre asing
A L
Ġp le
Ġs ess
Ġb i
Ġqu ite
Ġto ld
ten ance
Ġthem selves
Ġcamp aign
: //
Ġ '
ĠS m
Ġp an
Ġth r
Ġdev ices
Ġm ass
il le
Ġsc he
Ġfil m
c king
ĠB u
Ġstand ard
Ġsugg est
Ġshow s
Ġwrit ing
Ġhealth y
c ks
Ġcomm er
ĠA ut
Ġdis e
ĠI nt
Ġdem and
or g
un g
ĠP ol
Ġrece ived
Ġtry ing
ĠSt ud
Ġe arn
or age
Ġdel ivery
Ġbl ood
Ġt it
Ġstep s
Ġgo al
s u
ak es
ĠC ount
ĠIn c
Ġinvol ved
Ġ1 4
Ġex act
Ġcas h
Ġp o
ĠP e
Ġdra w
ĠR ec
Ġallow ing
Ġpa per
Ġp ict
Ġbl og
Ġut il
Ġal tern
, "
l ike
Ġhe av
ĠS chool
Ġc and
Ġn orm
Ġman age
Ġch ance
f riend
E x
Ġb ase
Ġ ill
Ġcer t
he st
Ġcult ure
Ġmethod s
Ġma xim
ter m
ic ations
Ġpre m
1 2
Ġdef in
Ġon es
Ġad min
Ġprot ection
Ġparticular ly
w ord
Ġcon ven
Ġs we
Ġh alf
Ġor d
iqu es
Ġs ix
Ġbud get
art h
Ġtyp ically
Ġorig inal
ĠN orth
p re
pp er
Ġw all
Ġsub st
he l
ĠM ore
Ġad just
Ġaud ience
Ġcommun ication
ĠB r
c ape
Ġbo x
Ġel se
Ġv ac
Ġp ath
Ġpract ices
ĠH igh
Ġsu bs
P ro
Ġrun ning
ear ch
om s
ĠServ ices
Ġcol lection
ĠO ff
Ġcele br
ad es
Ġsupp ly
Ġbenef it
Ġtot al
Ġc at
Ġcrit ical
Ġb le
em pt
stand ing
Ġprofession als
Ġcurrent ly
qu ality
Ġb ed
h ood
ĠD on
Ġpl ant
Ġgam ing
Ġide al
ĠT H
Ġprog ress
Ġanal ysis
ĠInd ia
ce ed
Ġbe yond
Ġpro ced
Ġestab lish
it ation
R E
Ġlim ited
Ġcon duct
Ġwor ds
Ã ©
Ġex erc
Ġ1 6
Ġ ur
Ġb ank
ĠAf ric
Ġd y
ter y
ish ing
Ġde g
Ġbro ad
Ġm ix
id ed
Ġeff ort
Ġful ly
Ġhand s
Ġdocu ment
Ġeffect s
Ġsc reen
Ġn ational
ĠU s
Ġide as
ĠJ ust
Ġc ode
am s
on se
h a
es e
Ġcommer cial
Ġcomp rehensive
Ġf ig
Ġco ol
ĠN et
cri ption
Ġpart s
Ġsa ve
Ġl ab
Ġs il
Ġask ed
ens ion
Ġregard ing
olog ies
Ġpower ful
Ġassoci ated
Ġb ad
ĠY ork
Ġany one
Ġits elf
Ġgrow ing
Ġcl os
Wh ile
Ġsitu ation
Ġcl ick
Ġplatform s
ag n
Ġfre qu
Ġcour t
Ġinclud ed
Ġf lex
Ġsm art
Ġ ult
Ġexperienc ed
u el
Ġf a
v est
Ġveh icle
ide red
Ġ2 5
' ll
for ce
Ġcommit ment
Ġpart ner
Ġbet ting
Ġmeet ing
Ġcas inos
Ġmach ine
Ġhe ld
Ġst op
Ġvers ion
Ġgu arant
o very
oo st
ĠT w
Ġwee ks
Ġde p
Ġplay er
Ġc ook
Ġn ut
re g
al y
Ġw alk
y ear
Ġlangu age
Ġh arm
m y
Ġar ch
ĠP ar
ar ies
Ġet c
Ġval u
Ġex ecut
Ġdis play
ĠB o
Ġcl ient
Ġ ing
ab ilities
Ġv iol
ra w
Ġ /
Ġw arm
Ġg iving
Ġs ource
Ġd ur
Ġg ives
Ġexp ress
Ġr ates
Ġwant ed
Ġsle ep
Ġhapp y
Ġspe ak
p ite
Ġde ath
om ing
Ġ19 9
Ġeconom ic
Ġag o
Ġrespons ible
Ġcomp on
Ġt ips
Ġw ood
Ġ202 2
al es
Ġg irl
Ġconst ruction
rap y
Ġcor rect
Ġtrans port
Ġra d
Ġd ream
Ġt ast
Ġo pp
Ġstud ent
Ġdist ribut
Ġtem per
Ġob tain
Ġrequ ires
Ġexpert ise
re l
Ġ202 0
Ġsp irit
rou p
Ġext reme
ĠPl ay
t ings
Ġnot e
Ġn avig
Ġh tt
Ġadv anced
n a
Ġc am
et er
Ġ ver
Ġactiv ity
Ġd ry
ĠBl ack
Ġfavor ite
Ġgrou ps
ĠAr t
e k
Ġbo ard
Ġt ail
Ġo bs
Ġpat tern
Ġser ious
n al
Ġpie ce
ud e
Ġens ures
Ġprob ably
ĠB usiness
en ge
O S
' ve
Ġpre fer
c il
ch an
ib ly
Ġhelp ing
ĠM arket
Ġh it
Ġe p
id ge
Ġsl ot
ate g
Ġmean ing
Ġded icated
Ġeas ier
ĠS oc
Ġf air
B y
av es
Ġcons idered
Ġpress ure
ĠS w
az ing
ed eral
g ram
o ices
A ll
ĠH er
bo ard
Ġcon cept
ant ly
ĠServ ice
Ġpur pose
Ġinst itut
Ġorganiz ations
Ġey e
l im
ĠD irect
Ġeffic iency
Ġout d
Ġappro pri
Ġsh all
Ġdec isions
ash ion
w ide
k y
ĠE d
Ġmain tenance
Ġse par
ere nces
Ġpre d
Ġown ers
Ġbl ock
Ġinvest ig
ĠA re
Ġr ound
Ġincre ased
Ġeff orts
il es
Ġeffective ly
Ġadv ice
Ġs ection
Ġconn ection
ac hed
Ġaff ord
Ġcomfort able
ĠPres ident
Ġk ids
Ġre ve
Ġf irm
Ġstand ards
Ġw ar
ĠN ow
Ġhe at
S h
Ġst ru
Ġd iv
Ġ1 3
Ġwork ed
Ġoper ations
Ġpr ices
Ġteam s
Ġrec ently
Ġnot hing
Ġsmo oth
Ġrem ember
Ġreg ion
Ġad apt
Ġth reat
1 1
ous ly
Ġdepos it
Ġexp and
id ing
Ġre nt
Ġb ur
ve y
ĠP ark
Ġg reen
Ġdes crib
Ġre lease
Ġs n
Ġcontin u
v al
Ġstreng th
Ġst orage
Ġv irt
ist ics
ĠTe chn
ict ion
Ġs low
ar b
Ġbal ance
ct ions
ir th
Ġspe ed
ĠM ost
Ġhist or
Ġexpect ed
ĠCent er
Ġparent s
ĠComm un
il s
ĠA ir
Ġtechn iques
Ġad vert
Ġinit ial
Ġf ix
Ġm ention
Ġset ting
Ġim age
f ree
Ġ202 1
ĠJ an
Ġtrans act
Ġloc ated
ĠA c
Ġ1 7
Ġcomplete ly
Ġfl oor
ĠPro f
Ġser ve
Ġinst ead
Ġev alu
u le
Ġdevelop ed
ĠK e
er ia
ĠAmeric a
Ġgo es
Ġresp onse
ĠU se
ic ip
Ġu nd
Ġcou ple
oo sing
Ġw al
Ġst y
Ġins ights
Ġsum mer
Ġst ri
se qu
ĠR uss
Ġcomput er
Ġus es
Ġac qu
Ġread ing
ĠL et
ens es
Ġrel iable
m ission
Ġd iverse
Ġd rug
sy ch
Ġprocess es
it ary
Ġexist ing
Ġdisc over
ĠR ed
Ġele ments
Ġpre t
Ġh uge
enc es
Ġdiffere nce
f l
Ġfamil ies
ĠD ay
Ġdo or
Ġto wn
Ġcommun ities
Ġf ile
idd le
Ġm ental
Ġst age
Ġelect ric
ru it
Ġstart ing
Ġg old
Ġf arm
ĠTr ans
Ġro b
Ġre pl
Ġf ight
Ġatt end
al ing
Ġem p
Ġch at
Ġresp ond
Ġcar ry
ĠM on
ĠG e
Ġtrans fer
Ġpolit ical
ent y
Ġdo ct
i pped
Ġpe ace
1 5
Ġansw er
Ġbec ame
Ġexper ts
ar i
Ġrele vant
as ks
ĠCas ino
u ary
m a
ch ange
Ġclean ing
Ġimport ance
Ġmod els
ĠG ener
Ġb ag
ĠIn s
Ġl ed
hip s
Ġpat ient
Ġv ict
C om
ĠV al
âĢĿ .
Ġsy m
ĠJ u
Ġsp ot
O U
pr ise
Ġcent er
i ately
Ġfor mer
Ġact ive
g ar
Ġ4 0
ĠCh ina
Ġinde pend
ron ic
The se
ov ers
m on
m ore
Ġsh ared
o ke
ĠE l
ar ily
i pe
mb ol
Ġwond er
Ġbe gan
ĠM c
Ġinc ome
Ġsur round
d om
Ġgra du
itc hen
Ġvalu able
ĠW est
Ġs us
Ġb us
Ġl ost
Ġre place
Ġd ark
ĠO ct
Ġc ross
Ġh osp
Ġst ates
ff ee
ĠS im
a ks
Ġr ich
Ġpro pos
im in
ell ig
Ġf ra
Ġrelationship s
Ġs ong
Ġrel ax
Ġg ard
ĠG roup
Ġb oost
A fter
ic ing
Ġdem onst
Ġcon c
Ġexpl ain
ĠC our
ab y
Ġl ate
Ġb all
Ġj ud
Ġp et
ĠJoh n
Ġchar ge
ĠH ouse
art ment
du le
Ġsee king
ĠR em
E C
Ġpre f
Ġadvant age
Ġb ra
Ġvis ual
Ġmov ing
c ul
ĠP lease
Ġapp rec
it ect
Ġro ll
d en
ut h
ĠW ill
Ġr ules
Ġpa id
Ġre asons
ra ft
ĠU p
ar ter
Ġstra ight
friend ly
re st
Ġt im
anc y
Ġsa w
ĠAss oci
igh b
Ġoff ered
form ation
Ġs qu
ĠDes ign
a res
Ġing red
r ight
Ġest ate
ĠIntern ational
Ġt en
Ġatt empt
Ġnum erous
Ġpr in
Ġp en
ĠM any
ĠL aw
Ġcap ital
ĠT V
ite ly
Ġpl aces
Ġtru ly
over n
Ġbeaut y
Ġpass ion
Ġadv ance
Ġst ories
ist ry
A M
Ġ x
Ġim ages
Ġse lection
Ġwe ar
Ġsu ff
ove mber
Ġinit i
Ġde part
Ġsignificant ly
Ġapp eal
h am
ĠDe velop
ĠC ustom
Ġwrit ten
Ġhealth care
Ġfeel ing
ac ity
Ġinterest ed
Ġimmed iately
Ġadv ent
Ġh or
ic a
Ġa verage
Ġh ous
o ff
ĠD is
Ġsom etimes
Ġth inking
Ġenter tain
rough t
z y
Ġey es
Ġmess age
Ġhand le
Ġt ur
ĠO f
Ġcry pt
up s
Ġl ooks
ĠM us
Ġinnov ative
Ġex clus
Ġad ult
ly ing
Ġc ards
Ġappropri ate
d ed
Ġc ateg
Ġm other
Ġconcer ns
Ġm is
ec ause
Ġtechn ical
Ġal ign
ĠC le
' m
Ġrep ut
s et
ĠC oun
Ġf ab
Ġfund s
oy al
Ġte ac
âĢ ¢
Ġocc ur
Ġtra de
Ġcreat ive
6 0
ĠCount y
her n
ĠF ree
enc ies
e xt
Ġb ott
Ġcl in
Ġsy mbol
Ġcor por
ĠOn line
Ġse ems
h aps
Ġstru gg
Ġwebs ites
Ġl oad
ĠF ace
O T
ar c
Ġam azing
Ġlim it
Ġad op
Ġinter view
Ġpr inc
Ġchall enge
Ġdi et
Ġvis ion
Ġb row
E T
Ġgreat er
ĠEurope an
du c
oc ol
Ġreport ed
ĠP a
ib er
oun ced
Ġrem ains
C l
ar a
Ġme chan
ĠM r
Ġtest ing
i ability
Ġsect or
et ic
eng th
Ġn ation
ĠE very
Ġb reat
Ġst ock
v is
Ġrest aur
ap an
Ġb ooks
Ġm ount
Ġl ux
Ġnot ice
Ġa head
ĠEx per
Ġbas ic
Ġdr iving
Ġsustain able
2 5
Ġdise ase
Ġdy nam
Ġa part
Ġst ructure
h ouse
Ġmanufact ure
ĠG erm
n es
Ġtra ffic
ef ore
ĠB et
Ġreview s
ĠM arch
ang ing
P h
ĠO ut
I s
Ġwom an
Ġenvironment al
itut e
Ġc opy
Ġf at
Ġte le
Ġch ann
Ġacc om
Ġpro s
Ġinst ruct
oc ks
Ġstate ment
Ġdeterm ine
Ġw ild
ĠB rit
com ing
ven ue
Ġprodu ce
g u
ell ow
Ġf ans
Ġris ks
Ġ201 9
ĠDep artment
Ġg as
ĠO nce
ĠAd ditionally
r ial
ĠA v
ĠSe pt
Ġpret ty
Ġsh ipping
Ġexact ly
ĠPro gram
d own
Ġev idence
Ġh omes
Ġcand id
od es
am less
Ġsur face
ĠF irst
am ent
ĠSy stem
r ay
Ġsp read
Ġhig hest
Ġwor d
Ġocc as
Ġtechn ologies
Ġne ighb
ĠD el
Ġgl ass
go ing
ru pt
i pp
Ġm ark
Wh y
ip l
ou l
Ġinnov ation
ag ue
Ġexc iting
n ame
ĠG et
Ġrep air
us ed
D o
Ġapp l
U S
if orn
Ġprim ary
l ig
pr il
Ġinc red
ĠThe n
i ar
Ġs old
Ġmeas ures
Ġpres ence
ĠE ach
Ġmeas ure
o e
d es
Ġf elt
an king
ĠEng lish
Ġpub lished
Ġrem ov
ĠS l
ff ect
ce l
Ġadd ing
Ġcult ural
und red
Ġwork ers
Ġg ift
Ġwr ong
Ġlar ger
s es
ĠN ovember
ĠThe ir
w ood
IN G
ub e
ĠK ing
ĠP ay
Ġwe ather
Ġf ashion
Ġth ous
od ay
ash ing
as c
ĠB ro
ast s
ĠCan ada
m as
ograph y
Ġ #
b an
Ġpart ies
ify ing
ĠComp any
Ġche m
Ġa ward
Ġde ad
Ġt er
Ġcontin ues
ough t
Ġinc orpor
Ġmor ning
Ġval ues
z z
Ġdevelop ing
ĠA ug
ĠO ver
Ġhapp en
um m
Ġcomp ared
ore s
Ġw ish
iv il
ain t
ĠJ une
Ġkeep ing
c he
ĠAustral ia
ra el
Ġst ruct
Ġassist ance
iforn ia
Ġcl imate
ce mber
H ere
Ġbel ie
ĠMan agement
b on
n ect
Ġinform ed
Ġcertain ly
en ior
ress ive
ic on
I P
Ġsub mit
Ġfind ing
Ġt ick
A P
olut e
an ch
Ġf ine
Ġach ie
Ġret ail
Ġprovid er
ic ks
Ġhtt ps
Ġlands cape
Ġsl ots
Ġinterest ing
b it
Ġhe ar
Ġl oved
Ġtri p
Ġsupp l
Ġplay ed
por ary
Ġproper ties
Ġw ed
Ġit em
ord er
Ġk itchen
ĠB ar
Ġmove ment
p en
ond on
om en
us ion
Ġother wise
Y our
ur t
Ġim ag
ak er
ac ing
Ġse amless
Ġestab lished
Ġback ground
ĠH ome
ph as
r ig
Ġrep orts
ĠM od
ĠS at
Ġf urn
Ġv ary
i ance
be ing
ative ly
V ID
i ant
Ġdec ided
Ġdefin itely
Ġnum bers
ĠÂ £
ĠB est
U n
ĠJ apan
arl ier
i ra
at ically
in ct
Ġro of
Ġget s
Ġm ission
Ġm id
Ġt asks
Ġcompet itive
Ġtr ial
am m
Ġrem ove
am ed
Ġp ool
Ġcl ub
Ġext ensive
Ġm er
pect ive
ke y
Ġb rought
Ġl ines
Ġb illion
Ġbas is
Ġmarket s
Ġac ad
ĠD av
ĠD ata
ĠE ven
r is
h us
Ġm aster
un ning
ĠI T
Ġlo an
li ance
am a
Ġcommit ted
ĠOct ober
Ġaspect s
Ġsc ient
Ġhigh light
ol f
1 8
Ġpolic ies
ĠA N
Ġschool s
ra ce
Ġfe es
er ies
ic ious
Ġstat us
Ġem erg
Ġsee k
2 4
ĠP at
or ough
Ġstud ies
Ġl ack
Ġdeg ree
Ġlaw s
Ġbegin ning
Ġdepend ing
te e
I ON
ĠG o
Ġbehav ior
Ġa w
Ġprovid ers
ĠS an
Ġim pl
he nt
Ġgener ally
ĠSt e
Ġuse ful
Ġs ources
ĠC are
Ġb irth
Ġdesign s
Ġleaders hip
Ġpol ice
Ġ err
Ġs ale
rast ructure
Ġinstall ation
ĠG overn
oc al
Ġwa it
Ġco ffee
R e
Ġh undred
Ġv ital
Ġcol ors
ĠCal ifornia
it ors
ĠJu ly
Ġact ions
M y
Ġ2 1
Ġwr ite
Ġsh ape
Ġn ice
il ing
Ġcap acity
ut e
ĠFace book
ĠA pril
M S
Ġ201 8
Ġprom ote
ĠInd ian
iven ess
Ġprocess ing
Ġb ath
ĠM ake
Ġsay ing
Ġexerc ise
Ġ ,
iss ions
ĠTr ump
Ġpie ces
os ure
Ġv ibr
Ġrele ased
Ġsol id
Ġsc ience
un t
Ġra p
erson al
Ġapp s
N o
Ġinteg r
pt oms
now n
Ġres ist
i am
Ġdec or
ĠU nder
Ġp sych
Ġphot os
Ġwel come
Ġpract ical
ĠW ind
Ġregul ations
Ġsche dule
Ġclass ic
Ġf ost
Ġd ress
Ġte nd
ĠSept ember
f it
Ġingred ients
. )
Ġsc en
im ent
Ġextreme ly
Ġal one
Ġe th
ĠRe ad
am in
ic y
Ġpl us
Ġsoc iety
i os
Ġp ages
end er
Ġsu itable
Ġtre nds
ĠI N
ĠDe cember
Ġann ounced
Ġfab ric
Ġbrand s
ĠW ar
Ġp ow
ĠG r
ĠL ear
ĠPl an
os ing
ĠS k
oth ing
o om
Ġv oice
it iz
E L
Ġbec omes
ĠL ondon
Ġble nd
e ed
d raw
Ġallow ed
Ġeng agement
Ġnorm al
ĠJan uary
el ines
Ġpl ants
u k
b ur
Ġmaintain ing
Ġre ality
ib ilities
Ġwas te
Ġch oices
Ġ :
1 4
Ġd ang
Ġlar gest
er o
ĠIs rael
ĠA ng
Ġdetail ed
ur ies
Ġinvol ves
omm od
ĠC or
The y
Ġcomb ination
ific ations
Ġconf idence
ĠA P
ĠS EO
hus i
at ures
Ġem phas
Ġoutd oor
ĠIt s
Ġbec oming
Ġm icro
Ġref er
ĠAl so
ex ample
ĠW ork
Ġform s
ren ch
Ġaltern ative
Ġdocu ments
Ġf ear
Ġmil itary
ĠV is
Ġent husi
Ġvide os
Ġmy self
wor ks
P l
Ġarch itect
8 0
Ġsa v
es us
Ġfe et
b l
ĠL a
ffic ient
Ġstrateg ic
Ġem er
Ġcomple ted
Ġcover age
R O
il it
ĠE duc
Th at
Ġfocus ed
Ġfin ish
Ġeng age
ĠP al
Ġ ir
re ed
Ġc ore
un ction
it ure
Ġfor ce
ir us
it ude
it ter
Ġh our
Ġp ok
Ġla unch
ic ine
Ġcol d
az on
Ġsp ent
ĠW ell
Ġf em
Ġcompon ents
ĠB ra
ve re
pos es
a ult
ĠP ort
is ation
se c
o ly
ro id
Ġd oll
Ġinflu ence
Ġredu cing
Ġtal ent
ĠProf ess
Ġeconom y
Ġt ask
1 6
P S
Ġre act
Ġshow c
ĠRes earch
Ġare n
ĠCour t
Ġd ating
Ġguid ance
id a
Ġs ort
Ġhelp ed
Ġsh op
Ġb rain
Ġatt ack
es ter
a j
b u
it oring
Ġk n
ag ram
Ġbut ton
Ġwant s
Ġencoura ge
b and
ic ed
el ess
ĠD em
Ġv ot
Ġupd ates
al ed
Ġhe ard
Ġc overed
Ġ6 0
ri ver
Ġvirt ual
I L
Ġg e
How ever
Ġind ic
het ic
n y
b ody
Ġemot ional
Ġne arly
Ġint ellig
ren cy
Ġfeed back
in y
erv ed
as ure
erv ation
ĠAug ust
Ġthere fore
Ġbr ings
A D
m ar
tern al
Ġset tings
Ġra ce
Ġb aby
Ġsh aring
ĠS ur
Ġo d
ĠIn ter
Ġrecommend ed
l ast
Ġev ol
ĠO ther
Ġaccess ible
g en
y ing
Ġe c
al t
Ġgra ph
Ġl ength
Ġclaim s
Ġcan cer
Ġsur v
Ġal le
is l
Ġlead er
Ġpur poses
ĠG old
f ol
ĠCoun cil
Ġass ets
Ġsign s
Ġtemper ature
d y
Ġh ab
Ġconsum ers
Ġchalleng ing
ic king
Ġd ro
ĠE v
Ġcontin ued
ĠNew s
Ġsh own
Ġsym ptoms
Ġch oosing
ist r
Ġcontribut e
Ġp ush
Ġf ederal
Ġtra ding
Ġfac ilities
Ġf ant
Ġe arlier
Ġheav y
ar ge
Ġwas n
Ġ2 2
Ġrem ind
r im
est yle
Ġann ual
ĠM ich
ĠChrist mas
rou d
Ġvisit ors
Ġcompet ition
ail s
Ġswe et
Ġfl u
Ġturn ed
ĠT y
ĠFr iday
P lease
Ġorig in
Ġf ather
or row
ist ered
ri ef
Ġsl ight
ĠS pe
ĠDirect or
1 3
ĠH ar
Ġex hib
Ġinf rastructure
Ġg ave
Ġe at
ienc es
N ow
Ġsess ion
ĠJ esus
Ġt rou
ĠF ound
oc r
ĠAn y
Ġb and
Ġwin ning
Ġhim self
Ġcom ment
ph one
Ġview s
Ġcollabor ation
ĠS af
Ġins pect
es tern
Ġm ale
Ġresid ents
Ġacc ommod
l in
Ġprep ared
ibr ary
Ġcl oud
Ġinst ance
Ġagree ment
Ġ201 7
ate ver
Ġop in
Ġtast e
m at
or ation
out s
Ġproper ly
Ġthe rapy
r ont
Ġtra in
Ġprinc ip
ĠFe b
Ġjob s
Ġcaus ed
um s
Ġlit er
Ġown er
Ġsim pl
4 0
Ġfil es
r an
ð Ł
ĠTH E
ĠH ol
Ġext end
t ra
Ġdi agn
Ġcol lege
Ġeng aging
1 7
Ġrap id
Ġa f
o ist
Ġex change
s p
Ġact ual
in ner
Ġrel ig
d r
ines e
l ines
Ġf ill
Ġchang ing
as y
and emic
m m
Ġcent ral
Ġappear ance
Ġvers at
Ġparticip ants
ĠG reen
ĠCol lege
Ġl inks
l ife
ĠE ast
Ġ +
ĠCO VID
Ġgu ests
com es
Ġag ency
ou nce
Ġabs olute
Ġbonus es
ĠS ub
ch ol
Ġinterest s
Ġguarant ee
Ġcomp liance
Ġchang ed
Ġcirc um
Ġaut hent
Ġfund ing
v ision
ĠD ist
Ġinc l
Ġlead s
Ġsho pping
Ġpriv acy
Ġrespons ibility
E M
Ġinj ury
Ġwith draw
Ġconnect ed
Ġcr is
Ġveh icles
Ġspecific ally
ĠM icro
Ġoper ating
Ġrem ote
G et
ĠPh il
im ately
Ġposs ess
Ġprom pt
qu e
â Ĥ
it ness
ĠChe ck
âĢĿ ,
Ġant i
Ġprem ium
Ġtra d
Ġsupport ing
Ġcap abilities
Ġsatis f
S ome
ĠAfric a
Ġg ather
Ġw at
Ġfa ith
Ġsp aces
Ġ201 6
Ġwind ow
C C
Ġsh ap
ĠBo ard
ĠSu per
Ġaccount s
bo x
Ġval id
Ġk new
Ġident ity
e ch
Ġaccur ate
Ġb ul
Ġmov ie
Ġd at
Ġord ers
al d
Ġbl ue
Ġful f
ĠWe b
t ion
Ġpref erences
S T
Ġpict ure
Ġemploy ee
Ġfe e
Ġpl aced
f low
fact ion
am b
r ical
Ġman aging
ĠIn formation
Ġpl enty
C on
ĠS und
Ġgr ant
e v
ĠR el
ag ers
Ġf uel
c ious
Ġwed ding
Ġinvest ors
Ġcoun ter
Ġtit le
Ġwor ry
Ġsmall er
Ġmanufact uring
t ics
Ġun it
Ġconven ient
Ġmach ines
Ġcra ft
is hes
9 9
Ġgard en
oo per
Ġafford able
ic ial
un k
u gh
g n
Ġen able
Ġbig gest
p an
Ġh op
Ġpr int
arr ant
ĠAssoci ation
Ġg ar
Ġtrans l
v ille
Ġg rand
ĠApp le
g ment
Ġtail ored
Ġacc ident
Ġsex ual
Ġcut ting
Ġm ist
ĠM et
ger y
Ġmaxim um
ĠT ex
cri pt
Ġapp oint
Ġpay ments
Ġbuy ing
Ġtal king
ĠR et
Ġp roud
Ġfin ally
Ġtrans p
Ġdirect or
Ġopen ing
ul ate
Ġr ise
Ġsc hed
Ġon going
ĠDevelop ment
est ic
Â ®
Ġregular ly
Ġdou ble
Ġto ward
Ġp oor
ĠB el
Ġh ar
Ġserv ed
Ġdoct or
ĠP ost
Ġele v
Ġd en
Ġrec overy
Ġcomp l
ul a
s er
Ġan x
ww w
A cc
Ġwho se
Ġcour ses
ound s
ĠW ater
ĠP ower
Ġimpro ving
ire ction
clus ion
ĠS et
Ġconsum er
Ġpattern s
Ġv ill
Ġdec ide
? âĢĿ
Ġprof ile
Ġlot s
Ġgood s
Ġmet al
! !
Ġf an
em y
Ġrout ine
ĠSec urity
Ġeduc ational
un te
Ġcare fully
Ġf av
Ġsp ort
ru ary
Ġvibr ant
Ġcall s
Ġwin ter
Ġqu ant
y er
ild ing
ĠG reat
Ġass ign
land s
Ġper haps
Ġupd ate
ĠSoc ial
Ġup gra
Ġen ab
k nown
Ġpersonal ized
1 00
Ġbott om
Ġo vers
Ġthan ks
ĠOff ice
f ord
Ġgener ation
augh ter
ac king
Ġminim um
Ġb oy
Ġexcept ional
Ġchem ical
Ġimpro ved
ĠWh ite
A pp
or ge
Ġmention ed
Ġl ose
Ġnavig ate
Ġrecord s
Ġmot or
Ġs on
Ġcont roll
Ġal though
A b
Ġth orough
Ġsee ing
I m
2 2
Ġsu it
Ġpack age
Ġloc ations
pre ne
Ġfun ctions
Ġan c
Ġindepend ent
Ġoper ation
Ġatt or
Ġsc ale
ĠH y
Ġspend ing
Ġdec l
Ġadvert ising
Ġbat tery
Ġstand s
Ġfriend ly
Ġfore ign
Ġfig ure
Ġwee ke
Ġtr uth
Ġpop ulation
Ġd rop
Ġset s
ĠPro t
Ġold er
Ġconsider ing
ĠB ank
e per
Ġs elling
Ġdisc ount
ĠAd d
ond ay
ĠCh inese
Ġrest rict
ĠG am
ĠPro duct
Ġlook ed
ĠAm azon
Ġsh oot
ig ital
Ġb ill
un ately
re prene
Ġhelp ful
ĠPro v
Ġthous ands
ĠS ince
Ġle aving
ĠD isc
i j
ĠH el
Ġdou b
Ġmot iv
if ts
7 0
Ġemerg ency
Ġp andemic
Ġhot el
Ġmult i
p a
ak ers
Ġpres ident
Ġhol iday
ĠY ear
Ġbe g
Ġcharact ers
Ġintern al
Ġre venue
Ġcircum st
mer ce
Ġm iddle
c ap
ĠGener al
Ġprodu ced
Ġele g
Ġte aching
Ġ icon
ri er
c les
Ġla un
y m
Ġm ill
ĠSt reet
ĠB ecause
Ġmay be
ĠL ife
Ġfac ilit
Ġworld wide
se mb
B e
Ġse ven
ĠFl or
Ġc ivil
ĠSu pport
ĠT ime
ĠG ood
Ġlif estyle
ĠPe ople
m osp
Ġch urch
Ġsh ip
Ġbr ight
Ġhy d
ĠA nt
Ġcont ains
ĠC ap
Ġf aster
Ġsu gar
Ġc ast
Ġfollow ed
Ġprotect ed
F rom
Ġf ol
ĠG ra
ĠF rench
Ġacad emic
Ġf est
Ġc itiz
all s
ĠC B
Ġsc ene
Ġcorpor ate
ro te
Ġt ree
k er
ĠAt t
Ġtre nd
oh ol
ag s
ĠS ing
idd en
D A
Ġj oy
Ġst uff
um in
Ġj ack
cept ion
el ine
I M
Ġpro te
n el
Ġv ent
Ġa est
ĠM at
c ohol
ĠP C
t op
ĠC EO
so ft
Ġsur pr
Ġphot o
ĠEduc ation
Ġdynam ic
ĠO pt
Ġmon itoring
Ġf ish
rel ated
id ents
ul ated
D on
Ġh om
itc oin
ĠBrit ish
Ġsc ore
ic o
Ġadd s
os ition
b et
Ġch ain
Ġjour nal
um an
An other
ay er
ĠO F
ĠD ec
Ġlearn ed
ĠIn vest
Ġw ife
vent ion
f ield
Ġst ar
Ġart ists
Ġexpect ations
umm ies
Ġfor get
Ġte ch
Ġd river
ĠF am
Ġst unning
Ġsess ions
s on
Ġ201 5
Ġproced ures
Ġtri ed
id ential
Ġexp ensive
Ġc ab
ur day
ĠRep ublic
Ġadvant ages
Ġprior it
Ġro ck
Ġpl ays
p ot
Ġentertain ment
i ers
ĠComm ission
Ġfam ous
in ations
od ies
ĠE st
ĠCon f
Ġe ight
C ont
Ġp ark
ut y
Ġest im
Ġcam era
Ġexclus ive
Ġra re
ĠTex as
P A
Ġl ad
Ġtrans ition
p ass
ĠFeb ruary
Ġel imin
Ġe ase
Ġsatis faction
ĠM ain
A re
Ġon to
Ġcont ext
ĠPro ject
Ġm ort
Ġcre ation
ive red
ĠM or
ĠAl though
Ġhapp ens
ord in
Ġat mosp
L E
Ġlux ury
o es
Ġselect ed
r ition
Ġ2 3
Ġserv es
Ġb ound
B C
Ġroom s
Ġconsist ent
Ġneg ative
ual ity
Ġcell s
ĠC ur
Ġn ames
Ġp ul
Ġp al
Ġadv is
ĠInst itute
Ġprep are
o ors
ĠO pen
ĠSund ay
Ġadvent ure
z a
Ġb ond
h y
Ġinvol ve
os is
Ġte eth
u gg
ugh t
Ġve get
Ġleg isl
Ġwill ing
ĠW ed
Ġso le
ar ian
ĠM em
Ġfre ed
âĤ ¬
Ġmov ed
ic ians
ir ation
Ġent ry
Ġam b
Ġcent ury
Ġmajor ity
Ġwonder ful
S he
T S
Ġconf lic
ov es
Ġre pe
Ġman ager
Ġed ge
ĠT ake
Ġsec ret
b ed
Ġl abor
Ġanim als
Ġd irection
Ġpresent ed
Ġarr ange
2 00
Ġindust rial
Ġcal cul
Ġaware ness
b ing
ol es
ĠM ac
Ġcont em
ashing ton
a el
Ġste el
M ore
ĠL ead
D es
Ġun c
N ew
ĠTh rough
C O
Ġsupport s
E n
ĠKe ep
ĠW ord
Ġp air
Ġreput ation
Ġrec ip
Ġupd ated
O nce
Ġhosp ital
l ock
ing er
Ġre new
Ġdist inct
Ġproced ure
Ġthan k
Ġob lig
ĠSt art
ens ions
Ġsepar ate
- -
Ġw ine
2 3
ĠD et
ĠCl ick
Ġpass ed
U R
ĠS ol
Ġel ig
Ġpotential ly
5 00
ĠE lect
Ġinteg ration
ner gy
Ġfunction ality
Ġfamil iar
os en
ĠL eg
Ġautom atically
Ġ19 8
ĠP ublic
Ġflex ibility
Ġwa iting
Ġm ent
Ġart ist
Ġre ward
Ġw rote
Ġout comes
Ġl uck
Ġke pt
ĠRe al
Ġb orn
on om
Ġlet ter
Ġinst ru
le ts
Ġcle arly
p et
Ġcon v
ap ter
Ġm oist
Ġcircumst ances
Ġloc k
ĠCommun ity
Ġfurn iture
ĠM a
R ead
ro s
Ġle aves
ĠU k
Ġn amed
Ġman aged
Ġb ird
Ġep is
Ġres ource
Ġpl astic
Ġtransact ions
Ġfrequ ently
ĠWh y
Ġrob ust
I V
Ġa id
Ġfac ility
Ġreg istration
Ġconf irm
Ġf illed
Ġexp enses
Ġclass es
Ġcom ments
ĠInst agram
ĠM al
Ġinstruct ions
ĠT ur
ĠI P
ĠCl ub
A r
Ġs and
Ġprevious ly
Ġbring ing
Ġc row
Ġinv ent
C an
ĠF ore
ĠD uring
Ġpartners hip
Ġfl at
Ġcould n
Ġob vious
Ġexc ited
c raft
Ġindust ries
Ġfact or
Ġcomp lic
Ġfl av
Ġhapp ened
on a
ĠM onday
ĠRe view
Y es
ul ner
Ġgl ob
il ed
ĠIntern et
B A
Ġd ental
Ġth us
Ġdeb t
Ġst ick
Ġfound ation
Ġcon sequ
Ġconvers ation
Ġspec ies
are n
h ab
Ġwe alth
Ġsol ar
re es
Ġdel ivered
ĠI I
Ġint ended
Ġmem ory
ĠCl ass
ĠEng ine
ĠS T
ĠH ot
ĠCh ar
Ġcon cent
Ġdes ire
Ġe arth
ric ult
Ġcol le
Ġlist ed
p m
Ġex cess
Ġappl ied
ĠFound ation
Ġour selves
Ġbreat h
m aking
ĠI S
oc ation
Ġlic ens
L C
Ġadv oc
Ġserv ing
Ġthough ts
Ġsitu ations
D e
Ġen ables
ri age
Ġdet ect
Ġcomp ens
Ġcaus es
w in
Ġw arrant
ment al
Ġvict im
Ġfram ew
od cast
ĠS pr
oc king
Ġnot es
P R
ers e
Ġvac c
Ġno vel
St ep
Ġcar bon
Ġsk ill
Ġb ow
m p
Ġinstitut ions
Ġredu ced
Ġv it
ĠA C
ĠDav id
Ġdel ight
Ġh us
n et
ĠD ef
Ġpict ures
e qu
iv ate
ant ic
Ġat h
Ġfe els
Ġreg ister
Ġinter face
Ġdec ades
ur ally
ĠH all
Ġrese arc
Ġsur vey
i ors
Ġmess ages
Ġd ram
Ġra ised
Ġlist en
Ġfoot ball
Ġstore s
ĠW ashington
Ġcre am
ĠAnd roid
Ġan g
Ġadmin istration
Ġsp ect
ĠWind ows
ĠS ee
Ġs enior
ou nder
Ġcar s
ĠCh ild
Ġme ant
Ġaff il
ĠC ong
Ġdes pite
Ġl iqu
Ġenh ancing
) :
Ġch ances
b re
Ġstart s
Ġlic ense
Ġsupport ed
w ater
Ġ9 0
Ġc atch
or ial
ck now
Ġc ities
ra b
ĠJ ew
Ġst ated
Ġsp ins
ĠComm it
Ġqu arter
Ġdis app
Ġvol unte
om an
xim ately
Ġdest ination
Ġdog s
h i
Ġany where
Ġcor ner
Ġchar ges
ĠTechn ology
Ġart icles
Ġsw itch
Ġs izes
Acc ording
ĠL ord
Ġknow ing
Ġconnect ions
Ġ8 0
Ġst ake
Ġthem e
ang es
Ġworks h
Ġatmosp here
Ġal b
mit ted
ĠFlor ida
i xt
ĠGovern ment
Ġ2 6
Ġr at
Ġopen ed
ĠT oday
m es
Ġguid elines
ĠSat urday
Ġshow ing
Ġ2 8
Ġwe ak
Ġslight ly
ul ations
Ġ201 4
R A
Ġtra cking
ĠT O
Ġconven ience
ĠI D
ĠT op
ĠF ood
Ġch arm
y a
Ġre tain
Ġmom ents
l a
hold ers
Ġpol l
Ġpan el
Ġg one
ĠUS A
ĠOr gan
Ġlight ing
Ġwh atever
ov ing
Ġs pl
Ġse vere
Ġhistor ical
Ġfl avor
pect ed
Ġform at
ĠM aster
Ġha ven
ĠD an
Ġra in
Ġtot ally
ĠF orm
Ġshe l
Ġfield s
room s
Ġmonth ly
Ġsh ot
ĠTe am
ist an
Ġtr ig
Ġse a
ĠO b
ĠS un
ar ation
ĠâĢ ¦
Ġflex ible
Ġhous ing
ĠCh urch
Ġweeke nd
Ġmon itor
Ġgirl s
Ġdes k
Ġref und
ĠW in
Ġparticip ate
ffect ive
Ġimprove ment
os y
Ġengine ering
Ġintellig ence
om b
Ġent reprene
ĠS pecial
Ġv ulner
Ġaffect ed
Ġcomp ar
m en
Ġfood s
l ights
um n
Ġport fol
ro ad
Ġv ast
ĠS al
Ġres ol
st on
Ġman ner
Ġex ternal
Ġpost s
Ġcomb ined
Ġsubst ant
Ġr ule
Ġlay er
Ġdat ab
Ġt ight
Ġdec re
Ġ2 7
ĠGl obal
Ġtest s
U nder
ĠPa ul
Ġun w
ĠS en
Ġanx iety
p ress
ĠL ike
ĠP ersonal
Ġconst antly
Ġdisc l
Ġ ign
Ġyou th
urther more
Ġlaun ched
D r
Ġag encies
Ġmed ium
Ġbet s
ind ing
ĠSc ience
Ġreturn s
Ġro les
Ġsp ring
ri pt
ric s
ĠChrist ian
ĠTr ust
ul ed
Ġun its
Ġtreat ments
Ġmen u
amp ions
Ġsurround ing
Ġaccom pl
ĠB ig
Ġsur gery
Ġele ment
i ated
Ġknow s
act ive
p es
Ġgener ate
ĠM ag
Ġj ew
Ġsustain ability
T H
Ġto w
om et
Ġl oyal
Ġorgan ic
Ġc ooking
Ġprec ise
N ot
Ġ ice
y c
ĠL im
um ber
oo p
Ġeven ing
oc ur
ĠT est
Ġincreasing ly
Ġtop ic
Ġexpl oring
Ġoccas ion
Ġsty les
ĠR oad
g r
y n
Ġbel ong
Ġdo ors
ad o
Ġoper ate
r or
re te
ĠThere fore
Ġtre es
Ġcreat es
Ġpers pective
Ġe gg
Ġemploy ment
k a
m ail
Ġconf ident
Ġc art
O ver
ific ial
Ġreg istered
ot a
Ġdeliver ing
Ġfreed om
Ġapp e
Ġbat tle
Ġfin ished
Ġmat ters
ĠAcc ording
ĠS il
Ġre in
Ġelect ronic
Ġch osen
Ġd u
Ġtransport ation
Ġset tle
L et
ne ver
ĠB re
Ġst ation
t a
re ate
Ġhon est
Ġpro p
ĠT re
Ġun s
O L
Ġa cknow
Ġconf ig
Ġconf erence
Ġprof it
Ġsuccess fully
Ġaud io
ĠC ard
Ġapprec iate
Ġun f
Ġrecommend ations
u ine
Ġs oph
Ġpain t
ĠL ook
Ġspirit ual
Ġra ise
Ġj oint
Ġb an
Ġpl ug
Ġtop ics
I A
Ġdistribut ion
Ġe ating
Ġc up
Ġbro ther
Ġpay ing
Ġvol ume
ĠC am
Ġp ills
Ġrestaur ant
Ġtra il
Ġinj uries
Ġinflu enc
ick en
ĠR iver
Ġput ting
ĠCons ider
ĠCont act
Ġadult s
chol ars
ac c
Ġcreat ivity
Ġauthent ic
Ġde als
ĠS ign
Ġw itness
Ġassess ment
Ġclin ical
Ġneighb or
Ġb rief
as er
Ġhus band
ĠAfric an
Ġsav ings
Ġpromot ing
if ies
Ġde le
Ġdescrib ed
Ġdep th
Ġfant astic
Ġpok er
Ġinc ent
ĠAd v
Ġc oin
Ġc overs
ĠC amp
id ers
Ġm outh
â Ħ
ri p
we ight
Ġkeep s
Ġanim al
Ġrun s
Ġcris is
Ġincred ible
ues day
Ġst reet
ce ler
Ġcl ar
Ġser ver
Ġb ot
ĠD own
Ġbe ach
ĠU N
ĠJ e
ĠCon st
Ġperfect ly
Ġreturn ed
Ġhouse hold
urs day
Ġread ers
Ġpred ict
Ġfunction al
Ġag g
ĠSt and
ĠAng el
M e
m et
Ġpass word
ag o
Ġdepart ment
Ġrev olution
g age
ĠD igital
Ġhe aring
b al
Ġappro ved
ir ms
Ġsc r
Ġs now
Ġnet works
Ġres il
Ġdevelop ers
Ġdr ink
Ġele ction
Ġminim al
Ġneg ot
Ġdef end
Ġant icip
f ts
ĠE U
Ġal cohol
Ġpr icing
ĠS a
Ġcol our
ĠF ort
ant a
Ġcl osed
ĠR ef
lud ing
Ġso il
Ġreport ing
M any
Ġappear s
ĠM ad
Ġag ent
Ġmin or
ĠB ay
Ġann ounce
g or
ot ic
Ġr ide
ĠMed ia
Ġun less
S e
Ġde ploy
ĠR ob
6 5
ĠCh oose
Ġ er
Ġclose ly
Ġc ater
Ġcl im
Ġde eper
Ġbenef icial
Ġwind ows
ol ic
ĠA ccess
Ġw ww
Ġsh ift
Ġemp ower
Ġteac hers
E very
Ġdist ance
ĠInd ust
Ġf ruit
ra g
Ġbel ief
l ist
Ġsur f
ĠM ount
Ġintrodu ced
ĠS om
ĠM ex
Ġv en
Ġve ter
ĠPl us
Ġmod e
f ront
Ġevery day
ĠAc ad
ĠMin ister
Ġth ick
b d
re ens
ĠF und
Ġre ached
Ġse m
S A
olut ions
ult y
Ġcitiz ens
h and
Ġexam ples
it age
ig ration
Ġrece iving
Ġmil es
Ġconst ruct
ĠL ight
ĠCle an
ĠTw itter
I nt
Ġsp ons
Ġdel icious
Ġvar i
âĦ ¢
Ġexp ans
let te
ĠJ our
wh ile
Ġappro ximately
out hern
ĠY es
ĠAN D
Ġpre gn
nes day
Ġwal king
2 1
Ġinteg rated
ĠT erm
Ġgreat est
Ġenter prise
Ġrecogn ized
Ġaim s
ĠP et
ot o
Ġb urn
Ġinter ior
l or
Ġt err
ĠS ch
ĠHe ad
Ġimp ressive
Ġv s
Ġconcer n
f ast
Ġfit ness
Ġshow ed
ch ain
erv es
ar io
s pe
Ġperform ed
Ġbuild ings
Ġsp in
R es
g al
Ġinstall ed
Ġwatch ing
Ġanc ient
* *
Ġult imately
ĠK ey
Ġme al
Ġas king
Ġinsp ired
Ġ7 0
Ġtrust ed
Ġd ial
Ġfor ces
I G
Ġun ivers
and er
Ġefficient ly
ĠA M
Ġinvest ing
Ġresult ing
re y
ĠE nergy
Ġst o
Ġjoin ed
Ġfor t
ĠH ist
Ġsubstant ial
Ġst ret
n ight
ĠL ake
Ġsens itive
ĠCent ral
Ġro ot
z er
Ġincre ases
Ġfram e
Ġsw im
Ġ201 3
ar p
ĠE xt
Ġabsolute ly
ĠEx pl
Ġte a
Ġlo ans
Ġimmed iate
Ġhand ling
ĠM il
C H
ĠInst ead
Ġocc up
Ġper man
Ġhold s
Ġs an
Ġcon clusion
Ġdiscuss ion
ce an
ĠEn ter
ĠM art
et te
om a
Ġpro ceed
âĢ ĺ
Ġph il
Ġ- -
un ting
Ġoptim al
ĠMed ical
Ġf le
om in
Ġfac ing
Ġk id
Ġsoph ist
Ġar gu
Ġofficial s
p ond
Ġcook ies
Ġexp osure
ĠO ffic
Ġj ump
Ġbus y
Ġbrow ser
Ġdef ense
Ġprincip les
Ġavail ability
ĠS am
ĠB ook
T r
ĠU sing
Ġkind s
Ġnot ed
Ġrem ark
Ġp u
ĠM iss
ock et
Ġdes ired
Ġc ooper
Ġposs ibly
Ġcy cle
Ġte ach
wor king
Ġreplace ment
ĠWe bs
Ab out
w ell
i kes
Ġfin ance
ĠN at
ri an
ĠC y
ĠM ary
Ġgen uine
Ġauthor ity
ĠN ig
Ġsound s
S c
u it
Ġd ining
Ġpos itions
7 5
Ġsh ares
og a
al le
Ġevent ually
fort unately
ĠAustral ian
Ġlab el
l ook
ĠIs land
Ġrel ief
g ers
Ġl ights
Ġfav our
ĠSt ep
Ġcomp at
Ġsign ed
Ġchann els
Ġn arr
Ġro t
Ġadmin istr
A I
Ġf old
Ġdr ivers
ĠL ong
Ġover w
ĠMicro soft
ĠCommit tee
i at
Ġfem ale
Ġm ut
Ġpur su
Ġpack aging
Ġ201 2
ĠAcc ount
ĠEng land
Ġp ull
enef its
ĠC ost
ĠAn n
Ġm ere
Ġun iversity
Ġcampaign s
igh ter
Ġne ck
h an
m ark
osy stem
Ġproduct ivity
Ġcandid ates
Ġenviron ments
Ġportfol io
Ġ rom
ĠR ich
Ġident ified
Ġ2 9
Ġscient ific
Ġversat ile
Ġreg ional
Ġext ended
ill a
oun ter
ĠB ack
Ġst ability
Ġappoint ment
Ġmus cle
Ġrent al
as p
N A
Ġiniti atives
Ġcrypt ocur
ĠC ert
Ġfail ure
Ġs oul
r ating
Ġdur able
Ġinvest ments
Ġen force
ĠG ame
T ra
ĠRuss ia
Ġw ire
el come
Ġauthor ities
EN T
Ġg un
Ġ5 00
ic ian
Ġco ast
gor ith
ĠJ ames
et her
Ġenhance ment
Ġresid ential
Ġdepend s
ĠMarket ing
ad d
p at
ap ers
Ġth row
Ġcapt ure
Ġs ac
Ġsk illed
Ġg ear
Ġregul atory
S u
Ġmed icine
Ġch air
Ġcomm ission
Ġtem pl
al a
m ade
ord ers
Ġp un
ĠOn ly
Ġh idden
ĠP en
ir gin
Ġtechn ique
Ġcr im
C A
Ġhe ight
ĠCan ad
D F
Ġwall s
Ġteac her
Ġviol ence
Ġd im
Ġcont rast
ĠUn ion
Ġapplic able
Ġlim its
Ġhundred s
ĠM el
or ter
4 5
ĠT uesday
Ġresearc hers
Ġaccur acy
Ġprote in
à ¤
ĠMan ager
d ate
Ġfore st
T ube
ĠF ire
ĠTh ursday
Ġf asc
Ġsh ut
Ġsu d
Ġrem oved
ot al
z ing
and a
ĠW omen
Ġequ ipped
ro y
ĠL at
Ġar m
g l
Ġinf ect
Ġattor ney
Ġhold ing
os es
a it
Ġill ust
ĠSo ft
Ġalong side
Ġmiss ing
ĠRuss ian
w ith
Ġhe aling
Ġp ump
ind er
or a
Ġtransact ion
Ġdis h
ĠAs ia
am ic
Ġdem ands
ĠBl ue
Ġanaly tics
ĠL it
Ġimplement ation
Ġremov al
ĠO per
Ġconsum ption
Ġwh om
Ġwe ap
in i
ĠB efore
Ġdisc overed
ĠGerm any
ir med
Ġmass ive
Ġbeg ins
ĠP ri
Ġass et
Ġchann el
Ġu pl
B l
Ġcateg ory
Ġreason able
Ġenab ling
ort hern
i us
W hether
Ġst im
L e
ĠB itcoin
F T
Ġus age
Ġag ents
t hen
Ġqu iet
Ġwhe el
ĠCustom er
Ġrecogn ize
Ġg ender
Ġret ire
ri e
ĠFam ily
Ġresist ance
ĠL ab
Ġcontem porary
r ich
ĠM er
ars h
ĠC reat
ad s
Ġopin ion
Ġin put
Ġm al
ĠU l
Ġd aughter
z en
us ive
ĠS ite
ĠL ou
Ġd ance
Ġwould n
Ġst one
Ġj u
Ġsud den
Ġp ure
Ġcar ried
Ġbuy ers
Ġstand ing
ĠF il
Ġcommun icate
Ġrecogn ition
ĠI d
c ons
r um
ĠQ ue
ide o
ĠB en
id en
Ph one
crib e
ocol ate
Ġoper ational
ĠA lex
Ġframew ork
ĠExper ience
ĠPart y
Ġoverw hel
Ġn or
ĠT our
ĠA ff
ĠWed nesday
or able
ĠC all
Ġexc ite
Ġmag n
Ġg ummies
ĠSt rate
Ġkey word
Ġdur ability
Ġelect rical
Ġdoll ars
ent le
Ġspe aking
Ġfl ight
res ents
9 0
Ġph ase
w rit
Ġmost ly
Ġd er
Ġdeterm ined
Ġiss ued
ĠCong ress
ĠK ore
Ġr ub
um es
Ġprefer red
ĠV ol
Ġbig ger
ĠB oth
le ments
ĠK now
a e
Ġalb um
R eg
ĠT em
ĠW estern
Ġliqu id
Ġvis iting
ĠCh ief
ra ine
ĠO R
ĠBe ach
Ġend ed
Ġclos er
Ġcall ing
Ġelig ible
er ation
Ġse at
Ġath let
S P
Ġfra ud
Ġd ent
C he
Ġup coming
Ġtra ined
cer tain
et ime
Ġfil ter
ree k
li ers
Ġpurch asing
ou lette
ĠL ive
augh t
Ġdi am
k in
Ġch art
Ġfeel ings
Ġmar riage
Ġt ough
n ings
Ġl ik
Ġult imate
3 5
ĠG en
Ġp ill
ĠR est
Ġt ap
ow nt
ĠAr ch
Ġt on
ĠDist rict
O W
Ġf ell
Ġpo ly
ĠD ub
ab et
ĠDe v
Ġnut rition
Ġrel atively
or al
re qu
og rap
M ost
Ġqual ified
Ġl ibrary
Ġcrim inal
! âĢĿ
ĠM ark
Ġcomp rom
Ġprior ity
Ġmeet ings
Ġcompens ation
og ue
Ġ king
B efore
s hip
Ġc ere
ĠA ud
Ġminut e
Ġfix ed
h ow
Ġm it
Ġra nd
Ġprov en
Ġal gorith
u ce
ĠR ight
Ġec osystem
r d
ĠAd min
et t
ĠT or
ĠY OU
i en
Ġded ication
ĠLe ague
Ġcrypt o
ĠCol or
Ġemot ions
Ġis land
ĠG rand
Ġatt ribut
y ers
Ġcab in
less ly
Ġrep airs
Ġt un
ĠB ud
Ġre ly
I nd
Ġconduct ed
ĠP ract
Ġsuppl ies
Ġb ike
Ġve nd
Ġorgan is
u nder
Ġdrug s
Ġrep resents
ĠMich ael
ĠGerm an
ĠVal ley
ĠPro per
Ġneighbor hood
w orth
ra d
Ġdang erous
Ġt ack
ĠM use
Ġtyp ical
P T
Ġdom in
ĠNet work
ul ing
ĠAut hor
Ġur ban
ĠCont rol
ak ed
Ġabs or
ĠS er
ri ers
p erson
ĠK en
Ġdom ain
Ġdom estic
Ġh ire
ĠSt ar
S ince
Ġme ets
u ction
Ġatt acks
form ance
Ġrand om
ĠE arth
Ġfocus ing
Ġse qu
ne ys
Ġposs ibilities
Ġeng aged
Ġentire ly
le vel
i est
ĠFr ance
ĠYou Tube
Ġjust ice
r as
ĠA ward
Ġaccept ed
Ġcl othing
ĠO h
qu ir
Ġattract ive
Ġrec ipe
Ġgu ess
Ġcelebr ate
Ġfeat uring
Ġcommon ly
ĠG ames
Ġmembers hip
ag ues
Ġco ach
Ġenh anced
ĠDem ocr
g ent
Ġ3 5
Ġac celer
ĠCent re
Ġexcite ment
Ġm el
Ġmat ches
Ġsho es
Ġgu y
Ġposs ibility
Ġme at
Ġg rown
Ġma p
Ġreg ions
ĠF ollow
Ġod ds
B u
Ġdoub t
ĠM ot
ĠH am
Ġerr or
8 8
Ġk ill
Ġwide ly
Ġhost ing
Ġph arm
Ġcaus ing
Ġd iversity
Ġins ight
Ġestablish ment
Ġansw ers
ens ity
Ġdeal ing
Ġrestaur ants
F irst
c ont
Ġar rest
us hed
S p
ĠD iv
Ġinvestig ation
Ġp odcast
ress ed
Ġexecut ive
B et
b les
Ġcons ent
Ġrelig ious
an o
Ġconsult ation
et ary
Ġv ote
er ry
Ġmill ions
Ġp ip
ĠIn f
ĠH ave
ĠW ood
c ies
Ġ201 0
Ġv irus
Ġr ing
red it
Ġac id
Ġo x
Ġpurch ased
ĠFin ancial
p oint
Ġenh ances
Ġpromot ions
Ġfollow s
ĠB ur
Ġdiffere nces
Ġreve aled
ĠH uman
p ret
ĠB rand
Ġflow ers
Ġdel ay
Ġenjoy able
Ġsy n
ber g
Ġd ied
w ing
Ġpar am
Ġre b
P C
ĠG ard
ĠMus ic
Ġpropos ed
Ġb odies
ol a
Ġequ al
Ġexplain ed
k i
e en
ĠB al
Ġag ricult
Ġst re
ĠS um
Ġsc ript
Ġlink ed
Ġepis ode
Ġinteract ive
Ġtur ning
P ress
Ġarr ay
Ġr ig
Ġregard less
ĠLear n
Ġ3 1
Ġm ob
Ġsupp lement
Ġpain ting
Ġcompon ent
O M
ĠL og
semb ly
own ers
ĠM ass
Ġ19 7
F in
Ġag reed
Ġstay ing
Ġwe aring
Ġn ur
Ġtre ated
og ether
Ġref erence
Ġnew est
Ġrestrict ions
Ġreal ize
Ġcl ot
Ġtax es
ĠAmeric ans
Ġorgan ized
Ġcap able
Ġl ies
Ġmeaning ful
Ġconsider ation
Ġ @
Ġd inner
ĠW al
Ġamount s
Ġman ual
Ġma il
Ġmanufacture rs
ĠPre m
ĠE qu
Ġappe ared
. âĢĻ
ĠJ ack
Ġb ooking
Ġdatab ase
Ġ201 1
U p
Ġenjoy ed
ĠTh anks
ĠRep ort
Ġlast ing
v an
A B
Ġc ro
ĠC r
st one
l ong
Ġout come
for ward
Ġc op
Ġme als
Ġun ex
ry pt
Ġpro of
P r
ific ate
ĠB ill
vers e
Ġpar king
Ġst rict
c ol
Ġconcer ned
Ġprim arily
Ġachie ved
erv ing
Ġcomm and
Ġeffect iveness
Ġdist rict
D uring
âĢĻ .
' d
Ġs ides
Ġcollect ed
Ġhard ware
am ing
Ġgu est
Ġre wards
c ific
oss ible
S C
ĠSh ow
Ġmil k
Ġsqu are
ang er
os h
Ġbas k
Ġt ables
Ġtru ck
Ġsong s
Ġsecond s
Ġ202 5
Ġstate ments
ĠAt l
Ġmov ies
Ġphot ograph
ĠC at
Ġcert ified
Ġad s
Ġcent re
ĠEx ecut
G B
Ġhigh lights
ĠJapan ese
ĠCB D
Ġout put
S E
Ġbro ken
Ġgu ys
Ġbe at
ur d
uc le
ĠF ind
ĠCon nect
Ġvis ibility
ĠWebs ite
Ġimm ers
Ġmanufacture r
Ġst able
ĠC ode
ĠFr anc
b ut
Ġed itor
Ġappro aches
Ġinsp iration
ĠEm ploy
ĠCar ol
Ġc ul
C T
al ian
Ġcan n
Ġremain ing
j ack
in ent
Ġ ille
Ġche ap
ic ul
am ental
ĠH osp
Ġaut o
J ust
Ġintegr ity
eg u
rom e
Ġc odes
Ġstruct ures
ĠE conom
ĠP ress
sec ut
Ġselect ing
ĠM ax
ist ant
Ġar g
ĠM ult
Ġm and
M P
end ing
wh at
A G
Ġint ric
Ġf irms
lud ed
Ġinteract ions
az ine
Ġnat urally
I F
Ġrout e
aren cy
Ġcontinu ous
ĠT om
Ġsearch ing
Ġspecial ized
ed ge
ĠApp lic
Ġcateg ories
Ġaccess ories
el lect
Ġinc ident
ot ton
ic he
ĠSec ret
Ġt iss
iv ating
Ġtarget ed
ĠB i
part y
ĠM ont
ĠCanad ian
Ġemail s
ĠB as
ĠIns urance
Ġmag ic
L ast
os oph
Ġsit ting
Ġcrit eria
Ġout standing
Ġobject ives
Ġperson ality
last name
ing u
Ġtext ure
Ġcamp us
ĠGu ide
ĠQu est
Ġinvol ving
Ġsu c
ad ing
Ġqu ot
Ġman agers
ĠCont ent
Ġdam aged
Ġconflic t
Ġtransform ation
Ġun able
Ġa p
ĠR ober
Ġdef ined
Ġdise ases
let ter
Ġsm ile
Ġwork place
Ġenthusi asts
Ġincred ibly
ĠF est
Ġab use
ar row
Ġv an
ĠL ove
Ġcr ime
Ġutil ize
Ġb anks
Ġcare ful
Ġl osing
ĠB at
Ġ era
ony m
cl ass
Ġenjoy ing
Ġtick ets
Ġprogram me
Ġarchitect ure
O r
Ġprep aration
Ġdeep ly
ic it
Ġad m
Ġlaw yer
Ġfor g
ĠW ild
Ġle ather
O C
ow ered
ord s
Ġbath room
Ġtit les
Ġhosp it
Ġcandid ate
Ġtick et
Ġmot ion
Ġbo at
Ġpros pect
ĠA rab
Ġ4 5
Ġg olf
os m
Ġcoun sel
se e
ĠH and
Ġrequ ests
Ġthe rap
Ġhor se
Ġact ively
Ġwhe never
Ġpres ents
os it
Ġconc rete
ur ation
Ġart ificial
Ġres olution
Ġoptim ize
oin ted
ail able
ĠTh ank
ĠCl in
Ġautom ation
P re
ĠV ict
Ġapply ing
Ġpost ed
ĠW here
Ġmer ch
Ġcas ual
ĠL ocal
Ġpub lish
Ġrad io
Ġplan ned
ĠL ink
Ġmoist ure
Ġnut ri
A m
T e
Ġp ed
ĠH ill
ĠR ock
Ġconsequ ences
d ep
b i
Ġd ates
Ġres on
Ġm old
ur ious
R ec
Ġthe r
n o
ĠSoc iety
Ġbag s
Ġexper iment
Ġredu ction
Ġa st
Al though
Ġpopular ity
ĠSaf ety
Ġst ain
Ġob st
Ġexcell ence
all ed
Ġg entle
F i
Ġseem ed
Ġsa ving
Ġext ract
ge nd
Ġplan et
ĠAb out
nov ation
v ity
ĠTw o
ĠMuse um
ĠSp orts
Ġsty lish
Ġchar ged
Ġg all
Ġcharacter istics
2 6
Ġenc ounter
ĠProfess ional
ĠV irgin
Ġh iring
Ġfac ed
ĠSu pp
Ġfocus es
Ġto oth
ub s
Ġsus p
Ġf o
Ġsugg ests
res pond
U N
ĠP an
Ġco ordin
ĠTh om
ĠEn viron
Ġrapid ly
Ġstrugg le
Ġz ero
Ġrel iability
um ps
Ġtell s
Ġwrit er
Ġple asure
Ġsk y
Ġcon ver
Ġstream ing
Ġlicens ed
p ie
el ry
is her
Ġsal t
Ġthreat s
ar ks
ĠD i
Ġturn s
ĠR E
pend ing
ĠP ack
p ons
Ġl ived
Ġmem ories
it a
Ġsol ve
ĠDo es
Ġhapp ening
Ġfail ed
Ġint ent
Ġconf irmed
Ġless ons
is k
Ġspe ech
Ġl iability
Ġicon ic
Ġmort gage
u a
ed y
Ġag es
ĠA D
Ġexp ression
Ġleg it
c her
Ġn orth
Ġill ness
Ġconst ant
Ġobject s
Ġn ative
Ġi Phone
Ġhe ating
st e
Ġcommun ications
Ġdream s
Ġpresent ation
ĠS olutions
Ġ Ã
Ġ iron
Ġhous es
w ear
Ġ ðŁ
Ġpur s
Ġsp r
Ġprec ision
dr iven
Ġb old
Ġab ilities
Ġloss es
Ġaddress ing
ep ing
S S
Ġp il
Ġk it
ĠAn other
af e
Ġexpans ion
pro of
Ġs outh
ĠAcad emy
Ġlist ening
ĠP rom
Ġpr ide
M A
Ġcur rency
Ġhab it
ĠPol icy
Ġstud io
Ġt act
Ġst ars
ĠC ond
ĠC orpor
end ar
Ġgain ed
am ples
Ġport ion
pro fit
Ġsu fficient
Ġgu ard
Ġk ick
Ġb low
3 3
Ġt ear
Ġtest ed
p act
ĠWh o
Ġle ver
Ġsafe ly
Ġperson ally
ĠV eg
Ġprot ocol
Ġsuper ior
Ġfr ust
i i
Ġp in
ĠI r
Ġk illed
en ch
vent ional
ĠCol l
ĠL ist
now ned
an i
ĠRe v
l ined
t able
Ġs cholars
ĠCh ic
F L
Ġimprove ments
ĠRem ember
Ġfund amental
Ġhistor ic
i king
ĠMore over
z es
Ġno ise
Ġstreng then
ĠR ad
st ep
Ġexpress ed
Ġform al
Ġd ie
ĠL ast
ĠSc ott
Ġearn ed
Ġclot hes
2 7
Ġg ro
Ġdis s
ĠT im
Ġemb race
Ġf if
Ġfirst name
av y
Ġhum ans
ĠTra ining
Ġend s
R em
ĠB er
ree ment
ĠUk raine
Ġiniti ative
Ġdis pos
ig r
Ġdis put
ang ed
Ġappro val
Ġachie ving
Ġw id
Ġm ood
Ġaest hetic
ĠL os
Ġnear by
ĠAn aly
Ġb act
in ating
Ġfl ood
Ġsil ver
l ers
ter ies
2 8
Ġinteract ion
Ġt ab
Ġmar ried
C ons
ĠC ra
ĠT ax
ĠEn s
Ġsubs cription
Ġg ifts
Ġst orm
Ġdec ade
ĠP ass
Ġdiscuss ed
Ġf ly
Ġal t
ĠAs k
Ġ3 00
Ġun like
we et
Ġunex pected
Q u
T C
it ar
h ors
Ġcustom ized
Ġfig ures
Ġinvent ory
Ġr ough
AT ION
Ġch ief
Ġc bd
Ġst ored
ĠT imes
Ġpercent age
ial s
Ġinst ant
in er
ot he
Ġbut ter
Ġmus ical
Ġent r
" .
ĠF ederal
Ġspecial ist
br id
% .
Ġjud ge
I R
Ġar ts
ĠO ld
Ġconvers ations
Ġutil izing
Ġmaxim ize
Ġf ro
ĠCons ult
Ġsuc ceed
en a
Ġsum m
Ġn ine
Ġin ner
ath y
Ġperman ent
Ġbal anced
Ġtour nam
Ġperform ing
Ġex ceed
L A
ir ty
ac hel
ĠP M
Ġun certain
Ġvers ions
Ġle nd
ig an
Ġfor ced
Ġprom ise
Ġoffic er
ĠL t
Ġf ellow
Ġper m
Ġdis rupt
Ġfeat ured
ri a
Ġact s
ĠPro cess
Ġd ust
Ġcent ers
Ġfil ms
Ġstrong er
Ġsect ors
Ġcompl ain
b ration
Ġb ought
il st
Ġc aught
Ġelectric ity
wh ich
Ġremark able
Ġrefer red
Ġwell ness
Ġbro wn
Ġbelie ved
Ġal ike
Ġexperienc ing
Ġinf o
Ġtrou ble
e ah
i ary
Ġset up
Ġimplement ing
Ġimp ossible
ut s
ĠS ales
Ġdr iven
Ġgr ass
Ġown ed
l s
Ġr id
Ġthem es
ĠC R
Ġch icken
C E
az z
Ġinc hes
Ġris ing
as ant
ust ain
Ġcontribut ions
ograph ic
ren ce
Ġsur prise
ĠM ill
Ġrecord ed
Ġlog o
ĠSt ore
Ġmit ig
Ġint ense
ĠSm ith
ĠB rown
Ġm ir
ĠC up
Ġvict ory
ĠA T
ĠIt alian
an ish
Ġd ownt
ĠReg ular
ĠE nd
ur ning
Ġcomple ment
Ġgraph ics
Ġe ar
Ġhe ro
Ġf ishing
Ġmount ain
ĠW atch
Ġwas h
Ġlegisl ation
o kes
E ven
O P
Ġobtain ed
Ġem issions
Ġext ent
Ġpen al
m akers
Ġt ank
Ġb anking
ĠExecut ive
Ġt ou
Ġsp ark
Ġbeh alf
k ay
et o
Ġunder t
ĠP R
Ġthe ory
Ġprocess ed
Ġsaf egu
ĠAr ts
ĠC D
ab is
ĠT own
if ting
Ġjoin ing
Ġretire ment
r id
Ġerr ors
ĠS eries
ĠA L
ĠTh ose
Ġfol ks
ĠL and
Ġf its
ĠJ ud
Ġconcept s
Ġredu ces
ĠI re
Ġconsist ently
Ġweek ly
u is
us ing
ay ing
Ġta ught
ĠSh op
Ġpr ison
ĠRe qu
Ġemer ging
ĠS and
or ous
ĠGe orge
Ġf ru
Ġlands cap
Ġevalu ation
Ġvis ible
v a
Ġcre w
ent ed
Ġprotect ing
ign ed
oura ge
Ġb orrow
y e
Ġperiod s
Ġas p
O D
W here
ĠMex ico
Ġwor se
Ġd ive
Ġcor respond
pr ises
Ġsignific ance
Ġrec over
Ġfact s
L ear
Ġcons cious
ĠPar is
ĠN or
es ides
P e
ec urity
Ġarr ived
ĠTra vel
ĠC ult
Ġimpact s
Ġmed ication
ĠLear ning
Ġoffic ers
Ġprodu cing
Ġhab its
Ġbe ar
Ġstret ch
Ġdes cription
Ġsymbol s
com merce
Ġsub sequ
Ġparticip ation
el ing
Ġtemper atures
Ġinter pret
ĠSm art
M an
st ream
Ġreflect s
Ġpassion ate
Ġent ered
Ġr anking
Ġemploy er
ĠJour nal
Ġarr ive
k ers
ĠHel p
Ġ19 6
Ġcorrect ly
ell er
abet es
ĠA R
B S
Ġy es
Ġrequire ment
Ġaltern atives
p o
Ġevalu ate
Ġcontrol s
ĠN Y
ĠV er
ick et
Ġy ield
m al
Ġad equ
Ġsend ing
ĠP ot
Ġstake holders
id ays
u ct
Ð µ
Ġunder st
um a
ing ly
Ġdesign er
Ġst ead
Ġcy ber
2 9
im al
Ġha z
ĠQ uality
Ġdeg rees
bur g
Ġbask et
ĠW all
he red
Ġind icate
y ou
ĠCh at
ĠL in
ellect ual
n ic
os ite
Ġcrit ic
ur is
Ġstraight forward
Ġre ject
Ġsh arp
Ġtra dition
Ġrec ruit
Ġis ol
Ġst ages
ĠNe xt
Ġrec yc
s ite
ĠM en
Ġpass eng
Ġfound ed
ĠL o
ĠM obile
Ġsuff ering
Ġacc ord
ĠAut om
Ġvill age
eal and
Ġtele vision
ĠN OT
Ġl unch
Ġresil ience
Ġch ocolate
Ġdis hes
Ġfin ancing
Ġb ills
Ġt ut
ĠAngel es
ere nt
Ġyoung er
ĠF urthermore
Ġmus e
Wh o
Ġter rit
Ġgame play
7 7
ĠM ach
y an
app y
anc er
c an
Ġin ject
Ġs ample
Ġsche me
ot y
Ġreach ing
Ġoffer ings
ĠCh air
Ġtw ice
ĠL ED
Ġre nowned
Ġemb ra
f unction
ĠI ran
Ġflav ors
ĠM iddle
Ġimag ine
r ates
Ġass um
ĠChic ago
ĠCl oud
Ġcal m
U T
er ts
is ms
Ġ200 8
ĠD en
Ġle ts
Ġes c
ĠR oyal
ĠT ool
al se
Ġmain ly
Ġsched uled
Ġleg acy
ple te
v in
Ġloyal ty
Ġt ro
Ġfor th
ĠDes pite
Ġfavour ite
Ġu pper
Ġdiscuss ions
Ġher self
ist ers
Ġpack ages
Ġ200 9
Ġr ating
or ce
Ġb read
Ġequ ity
ĠLou is
m ans
Ġcert ification
ob by
Ġher itage
Ġgra b
Ġenforce ment
ĠChild ren
Ġsc al
t r
Ġt one
Ġper mit
e le
ph ones
F ree
Ġsupp liers
Ġw et
Ġpro ve
Ġref resh
Ġupl oad
ast ers
Ġbl ess
Ġestim ated
ĠSt r
Ġcrow d
ar at
ĠO N
ĠIre land
ĠO l
ĠGe org
Ġille gal
ĠLt d
Ġpurch ases
Ġcra fts
D isc
Ġowners hip
Ġspl it
C omm
Ġinter f
Ġmix ed
ers ey
ul ating
Ġfulf ill
Ġwarrant y
ut ter
Ġmov es
Ġoff ices
Ġra w
ĠN on
tern oon
ĠL LC
iz er
Ġprin ting
E ach
Ġg rew
ĠProt ection
ru ption
Ġgener ated
Ġp ace
Ġ *
int age
Ġfost ering
Ġhon or
ĠIs l
f ting
rent ly
gy pt
Ġaddition ally
Ġpriorit ize
Ġbr ush
Ġsur ge
Ġsp ots
ĠZ ealand
Ġacqu is
Ġint u
Under standing
ig en
Ġ â
ð Ŀ
Ġtransp arency
itut ion
ĠDown load
Ġe co
Ġqu ote
aw ay
ĠF ull
ĠP ak
Ġfight ing
ĠUs er
ren cies
O ther
on ge
g s
Ġf er
W or
a o
Ã ¡
Ġb order
K e
Ġautom ated
Ġbre aking
Ġaud iences
ĠS qu
ĠAg reement
ac he
F e
c ers
Ġaccompl ish
Ġvac ation
Ġsole ly
ĠTerm s
h ost
Ġexpl ains
Ġcontract s
Ġus ual
Ġpan els
Ġseamless ly
ĠB iden
Ġfore cast
Ġbot tle
S ee
re al
ĠV ideo
v y
Ġcolle agues
Ġd uty
Ġmark ed
ĠIm pro
e ffective
Ġche ese
u ing
Ġr iver
Ġphil osoph
ĠSec ond
Ġbre ast
Ġshowc ase
ĠD ou
Ġdocument ation
ĠPl ace
cript ions
Ġcomplic ated
ĠI ll
ĠSp anish
Ġentreprene urs
in em
st ate
Ġdec ent
âĢĻ ,
Ġl apt
ĠJoh ns
Ġanaly ze
ĠT reat
Ġfind ings
Ġsign al
9 5
Ġs ight
Ġcons ists
Ġte en
ĠD iff
es ome
ur a
Ġveget ables
ĠEn h
umb ing
ĠBu ilding
P er
se m
Ġbre ed
Ġun lock
T oday
T P
er ate
Ġsur ve
Ġess ence
M E
in ity
Ġcry st
Ġdraw ing
ĠWe ek
Ġg ap
ĠB onus
ĠSoft ware
Ġhome owners
Ġdam ages
ĠS n
Ġdemonst rate
ĠR ights
F A
Ġr ank
ĠE V
H S
S pe
Ġhe s
Ġche cking
Ġy ellow
Ġgreat ly
ĠH aw
Ġsc an
ĠP eter
ĠInt eg
Ġor al
Ġlangu ages
ĠSystem s
ro gen
at o
Ġtechn ological
ucle ar
ion e
Ġemploy ers
ĠT ru
Ġsophist icated
oc ated
ĠFest ival
v as
D S
Ġbox es
Ġjew elry
ic ted
ac ific
Ġcontroll ed
at re
ct or
Ġth in
Ġc ock
Ġaddress es
Ġrec ording
Ġbelie ves
Ġgener ations
Ġharm ful
ĠN ov
Ġc aut
Ġexerc ises
ĠSp ace
u ous
Ġexp osed
ĠH R
Ġcele bration
Ġcontinu ing
Ġprep aring
Ġmar ks
Ġintrodu ce
ĠWord Press
ĠPol ice
ĠB ang
ĠE mb
Ġbroad er
An y
Ġover come
Ġcraft ed
Ġg od
Ġeleg ant
Ġw ins
Ġcommit tee
ĠIt aly
Ġupgra de
Ġfarm ers
Ġem pt
Ġw ag
Ġappeal ing
ĠPh ot
Ġent ering
Ġw ider
Ġcomp are
Ġsy nt
Ġbr idge
T A
ĠFr ank
ĠCo ast
Ġn arrow
Ġfour th
w est
ter ior
g a
Ġfost er
Ġgra de
Ġsc ope
p age
Ġpl ate
Ġtr ick
Ġcomb at
Ġmus cles
Ġp hen
l aw
Ġphot ography
iet ies
Ġdesign ers
Ġsurf aces
ĠO il
Ġimm une
Ġ Ð
Ġent it
ul s
ĠAs ian
Ġph r
Ġminim ize
Ġidentify ing
Ġblock chain
P N
Ġnorm ally
Ġs our
isc o
Ġdest roy
Ġar ms
ĠW ay
Ġtime ly
4 4
Ġt elling
Ġr oulette
Ġcover ing
Ġmove ments
Ġa wards
Ġfrequ ent
ot ive
Ġext ension
Ġdef ault
Ġbirth day
Ġslow ly
ul um
Ġprof ound
Ġprevent ing
Ġbed room
as m
Ġre form
Ġim per
B est
Ġglob e
Ġeng ines
ce nd
Ġair port
Ġs ister
Ġh all
ĠG row
ixt ure
ĠF ed
ĠAg ency
Ġmat t
Ġserious ly
x ic
Ġterr or
u ke
Ġfacilit ate
Ġtem porary
Ġbound aries
ĠR o
ĠH aving
Ġintrodu ction
ĠVict or
Ġdevelop ments
it ate
Ġed ition
Ġsuggest ed
Ġprogram ming
ĠD og
Ġthr ive
ĠUnder standing
Ġ2 000
as tern
Ġaim ed
pa per
ĠE gypt
Ġlimit ations
ers hip
Ġcomp ass
Ġpre v
Ġalle ged
s le
Ġfl our
d o
it t
ĠS uch
ĠJ oin
Ġaf ternoon
ond s
Ġconvers ion
Ġsatisf ied
Ġs ought
Ġstre ets
ĠF arm
lud e
ĠSe lect
Ġen roll
is dom
Ġchar ging
Ġaccount ing
wor ld
Ġexpl oration
Ġnecess arily
Ġapp arent
Ġp ra
Ġh ook
Ġrespons ibilities
ĠT ry
Ġl oves
Ġtarget s
Ġexpand ing
inc luding
ĠF OR
Ġnot iced
Ġmiss ed
ur b
ĠHot el
Ġg ate
Ġadop tion
m arket
ĠS S
Ġmin i
P art
Ġevol ving
Ġsh ops
Ġra il
ol it
g i
Ġmed ications
Ġinde ed
Ġpoll ut
Ġact ing
Ġreput able
ĠC redit
the less
Ġperform ances
Ġchemical s
ĠCarol ina
ly wood
ĠG al
Al so
Ġsect ions
Ġaffil iate
Ġform ed
mans hip
ĠWor ks
Ġobject ive
ĠOffic er
ess ion
Ġeleg ance
Ġatt ached
or se
g ic
Ġdis p
en ess
Ġpow der
Ġsupp osed
Ġhtt p
pp ers
Ġincorpor ate
ap ore
c omm
ĠSh ould
Ġacc um
Ġt iny
Ġimplement ed
ol ves
Ġinsp ire
Ġf ib
Ġk ne
ra id
Ġdis pl
ĠOr der
ĠS up
Ġind oor
Ġencoura ged
Ġcontribut ing
Ġex ch
Ġal ter
st s
ĠC ook
Ġdescrib e
Ġev olution
Ġeth ical
Ġorgan isation
Ġocc urs
Ġdr inking
RE E
ĠC ross
m ony
U se
Ġdig est
a ver
Ġt ip
w o
Ġco aching
Ġsuggest ions
Ġpers ons
Ġpass ing
Ġvictim s
Ġsto pped
Ġwin ner
olog ist
ĠHosp ital
Ġsh ower
ir cle
ĠPr ime
Ġresol ve
ra ction
Ġp iv
ber ry
Ġch ronic
Ġsubmit ted
Ġcompet itors
al ysis
Ġinfl ation
Ġinfl amm
uris d
j a
b orn
z il
W elcome
S im
Ġm ild
Ġwork flow
Ġs ick
Ġrespons es
ut ch
F ollow
ld er
Ġconcer ning
Ġn one
Ġorigin ally
Ġtw ist
mer cial
In st
Ġbreak fast
Ġw arn
st ery
Ġcomb ine
Ġinitial ly
ed ia
ĠKing dom
Ġ ...
ĠV iew
Ġfair ly
Ġdra in
Ġp ets
Ġwork force
Ġcomb ines
ov en
Ġsp oke
Ġnarr ative
ĠVirgin ia
Ġfac es
Ġgradu ate
ĠE nt
ant ed
Ġc able
i pt
ĠD I
Ġinstitut ion
Ġout s
Che ck
ĠA S
Ġpro hib
Ġcomp ly
Ġegg s
Ġt ag
Ġse gment
Ġper mission
Ġpolit ics
ĠHist ory
ĠJ oe
Ġinf ection
ĠF air
Ġlif etime
Ġ =
Ġprof its
Ġexcept ion
Ġes cape
ĠPak istan
ĠCh ampions
Ġtransp arent
atch ing
Ġprin ted
ĠDub ai
Ġreal m
Ġmist akes
ord inary
k ins
Ġmere ly
y ard
ĠC reate
Ġne ut
ult s
Ġfac ulty
Ġd a
Ġpurs ue
on ic
ell a
Ġaccord ance
Ġlay out
Ġdra g
Ġi OS
ĠY et
du ate
enn is
ĠA ri
ly mp
Ġreve al
Ġpl acing
Ġco at
Ġr anging
Ġenter prises
os c
5 5
Ġacknow led
Ġch apter
Ġdr inks
Ġinspect ion
ĠM o
Ġh orm
Ġsh ock
Ġperson nel
Th ank
ra pe
Ġdoct ors
ĠI de
ic an
ist ent
l ooking
iv als
Ġle verage
ĠInst all
Ġnews letter
Ġple ased
Ġstrugg ling
Ġparticip ating
Ġmem orable
Ġphot ograp
Ġlarge ly
Ġz one
Ġaward ed
Ġcal endar
Ġsafegu ard
he m
Ġd ys
ĠF uture
Ġfasc inating
Ġs in
ĠL ow
Ġprov ision
Ġpr ay
ĠEngine ering
ĠNe ed
ul f
Ġoper ators
Ġtravel ing
R S
Ġvulner able
Ġc her
az a
ha ust
ĠJust ice
ĠSp irit
Ġaccess ibility
ĠS U
Ġexp ort
J oin
Ġbuy er
Ad ditionally
Ġpe ak
Ġorganis ations
ut ies
Ġfr anch
Ġstri ke
Ġfew er
Ġincl usive
Ġy oga
Ġind ex
Ġdis m
ur ities
ĠF ac
ĠTh us
ĠB ox
Ġsu its
Ġdep ression
Ġaut hors
Ġt all
Ġinv ited
Ġconnect ing
Ġl ift
Ġr ural
ĠC P
Ex per
b or
Ġd ivid
Ġset t
ag on
Ġvis its
Ġse eds
ĠM id
Ġw ra
Ġdel ivers
Ġrest ore
3 4
ĠTe le
Ġcarry ing
th rough
Â °
Ġlove ly
Ġcooper ation
Ġlux urious
Ġc otton
ĠH ard
Ġpartners hips
Ġstr ive
Ġatt ach
ors hip
it i
Ġmass age
Ġbird s
Ġreal ized
a per
ĠComm on
ER S
H ave
C ustom
Ġdeal er
Ġcapt ivating
ĠF act
er as
ch arge
Cl ick
Ġart istic
Ġearn ings
Ġs ad
Ġclaim ed
Ġend less
Ġshoot ing
I I
ĠS earch
Ġcryptocur rency
W ell
ĠO m
Ġelev ate
Ġl ikes
ĠC ath
ĠT en
ĠCont in
Ġp m
ĠT it
Ġsupp lements
ĠJ ose
ĠEn joy
ĠC ast
ĠE ss
pr int
Ġdisplay ed
ĠW i
Ġcon vey
Ġclos ing
Ġd il
Ġf alse
Ġsa uce
ĠE r
Ġshap es
Ġleg s
Ġbehav i
ĠJ ob
H igh
Ġ âĤ¬
ogn itive
ĠSm all
Ġapart ment
ir al
ĠC H
Ġcomp r
Ġb id
ĠS P
ĠPart ners
ĠVeg as
Ġb ars
ĠBu ild
p ack
oo s
ĠSc ot
M ake
ĠM oney
h ire
aut hor
ĠWith out
ĠSe a
Ġbr ill
ĠCap ital
ĠYou ng
Ġlay ers
Ġcann abis
Ã ¢
el ly
Ġintric ate
Ġint ellectual
E W
Ġincorpor ating
Ġquant ity
Ġaf raid
Ġlist ing
Ġcomp elling
ĠR en
Ad d
ĠP DF
Des pite
ad ow
Ġs hed
Ġdef e
Ġfil ed
te ch
Ġoverwhel ming
ĠH D
ĠPh ys
Ġnew ly
Ġscient ists
Ġsign ature
od ing
Ġref ers
Ġbact eria
Ġhy per
Ġthorough ly
Ġvis a
Ġpromot ion
Ġr an
Ġbl ank
S m
Ġde ck
iz able
Ġro ots
3 2
ĠS ky
Ġtim eless
Ġpregn ancy
c m
Ġse ed
Ġall erg
ĠStud ents
amp ion
Ġal ive
Ġopin ions
ĠAv oid
ĠR oman
Ġshe et
Ġ4 8
Ġinst antly
Ġgu itar
Ġdi abetes
Ġdirect ed
ann ed
Ġhead s
ou red
Ġgovern ments
ĠSom etimes
gra de
p ower
Ġas ide
Ġgu ides
Ġb ench
Ġrepresent ation
Ġj urisd
Ġven ue
f all
th at
og en
ĠH arr
ĠM ade
ful ness
ĠTy pe
Ġclar ity
Ġtrans mission
3 6
F C
sc ale
es h
Ġprom ises
cy cle
g ency
Ġf ounder
Ġfin est
Ġrelax ation
Ġm ine
Ġcopy right
Ġr ice
Ġcon ventional
Ġelimin ate
Ġmet icul
Ġmatt ress
ĠSing apore
Ġspecial ists
Ġpri ze
ĠCh arl
ĠExpl ore
ĠMin istry
Ġwithdraw al
Ġtiss ue
Ġdra wn
o ch
Ġimp ression
U L
ĠS ar
rol og
Ġdef ine
Ġaccommod ate
Ġc oc
ĠE mer
Ġequ ally
Ġworksh op
ment ation
ĠN ever
Ġunder lying
uck y
A ut
ĠJohns on
ES T
r ations
Ġrecip es
ĠO lymp
Ġin quir
Ġremov ing
ĠLim ited
li ament
ail ing
Ġh ang
Ġrepe ated
em ed
Ġro w
Ġprom inent
Ġexist ence
anc he
Ġpick ed
ĠB ible
Ġexpl o
O f
io x
ra cy
le v
Ġh ur
Ġam en
K ey
an while
ĠS outhern
ĠProfess or
Ġfest ival
if orm
Ġto m
Ġv ess
ol ving
Ġwat ers
ast e
ĠNig eria
Ġsm ell
ĠThom as
Ġfact ory
Ġess ay
Ġbas ically
Ġdra ft
Ġworksh ops
Ġpublic ation
Ġ7 5
T V
Ġatt ended
ĠProduct s
Ġ1 50
Ġfollow ers
Ġshould n
Ġcontain er
ĠW rit
Ġ id
Ġrepl aced
Ġw ave
Ġkeyword s
bers ecurity
ES S
Ġm ac
Ġfore ver
lim ited
Ġoptim ization
Ġgar age
ĠB ow
Ġair craft
Ġt um
ĠF A
g ies
az e
Ġhard er
Ġstudy ing
ĠE p
ĠP ok
Th rough
Ġtra cks
ric ulum
i ams
re ction
Ġcomp act
R L
Ġautom atic
Ġre ar
ĠMe et
ĠSpr ing
Ġbe er
Ġsupport ive
Ġdeb ut
Ġver ify
R C
Ġincent ives
Ġdef ect
Ġcra ck
Ġcan cell
Ġcompat ible
Ġche cks
ov id
tain ing
Ġencoura ges
E E
Ġw ise
ĠB enefits
Ġlight weight
Ġgra ce
Ġsp ray
iet nam
Ġbroad cast
Ġdiscount s
Ġv ib
Ġha ck
Ġcomple tion
Ġwin nings
Ex pl
Ġhe l
Ġun us
Ġoblig ations
ĠGeorg ia
oo f
Ġwor st
Ġcool ing
ĠSecret ary
Ġ200 7
Ġint ention
ĠRober t
Ġacc idents
Ġencoura ging
Ġsa ved
ber t
ĠJ im
T ake
ial ly
an ing
Ġgrant ed
Ġal umin
Ġlet ters
Ġoper ates
Ġfru its
Ġpropos al
Ġsac r
Ġimmers ive
ĠP ut
ĠPr ice
Ġweap ons
ĠJew ish
Ġextra ordinary
Ġhas sle
Ġinteg rate
ĠL ibrary
Ġdev ot
ĠNat ural
Ġret urning
un a
ound ed
ate ful
Ġtest im
ĠT al
Ġsurpr ising
Ġun for
Ġsc reens
Ġth read
Ġo cean
Ġbl ocks
Ġcert ificate
Ġdeb ate
ir ts
ak en
s he
f e
R I
Ġcompar ison
ĠId ent
Ġopp on
A Y
Ġhealth ier
Ġhol idays
Ġm ur
C ol
Ġw are
ĠV an
Ġrequest ed
re ts
Ġprof iles
ĠLe vel
Ġund ers
Ġstr ing
g ical
Ġexpand ed
ĠC A
ag en
il arly
j i
Ġsmart phone
Ġoccas ions
b a
ĠAre a
Ġcomplex ity
g ener
ĠStud ies
l o
Ġf ing
in n
Ġdevelop er
3 8
Ġaw esome
Ġvis ited
ĠAdmin istration
ĠT er
ĠM ah
Ġbl ind
cess ary
Ġc ake
pie ce
un n
ian a
ĠM aterial
ĠSt at
Ġfind s
Ġ3 2
in ter
um er
a id
Ġwrit ers
Ġb one
ĠPl atform
st ers
ĠV e
Ġdifficult y
Ġst rain
Ġoil s
ce ived
ĠTe ch
et ers
Ġp apers
Ġh at
Ġnet working
Ġaest het
Ġg ym
Ġ >
ĠBra zil
Ġmet rics
Ġempt y
ĠP op
ĠM S
st ar
Ġn om
4 8
" ,
M C
ĠG all
in ated
Ġwag ering
Ġseason ed
Ġord ered
ĠConf erence
Ġrepresent ative
is er
Ġreact ion
Ġsudden ly
G u
Ġ3 6
Ġdet ection
ĠCh ris
ul pt
Ġcontain ed
Ġexcess ive
Ġunderst ood
ĠE asy
ole c
Ġw isdom
ĠH old
Ġequ ival
Ġdecre ase
ol id
Ġsurpr ised
Ġinv ite
B I
Ġswim ming
Ġguarant eed
Ġcompass ion
Ġacqu ire
Ġfrequ ency
ĠCh all
in ar
ĠS enior
Ġreg ulation
D P
Ġremain ed
it z
get table
Ġimpl ications
Ġal arm
Ġwild life
Ġex haust
St art
Ġph ones
Ġre els
Ġdiv orce
The n
ĠJ o
Ġathlet es
.. ..
Ġla id
Ġform ula
ĠAir port
! )
erv ice
Ġdel icate
re m
Ġsettle ment
Ġfall ing
Ġsubject s
ĠK h
i ating
ester day
Ġconf idential
Ġn ations
Ġexhib ition
ĠL ic
Ġobst ac
as hes
art ers
Ġn uclear
eg a
Ġc osm
In c
Ġaddress ed
ĠEns ure
Ġh urt
ĠMich igan
ĠMed icine
E A
Ġcount y
o il
Ġaffect s
Ġch ose
Ġsign ing
i ot
Ġcontribut ion
Ġheav ily
Ġse ats
ĠâĢ ¢
Ġview ing
ĠUs ers
Ġcollect ive
ult ane
Cont act
Ġwas hing
ĠQuest ions
ĠM rs
ĠH on
Ġd ash
Ġclass room
Ġtrig ger
ĠSc he
ĠA z
Ġra cing
Ġmaintain ed
Ġop ens
ust er
b ooks
iz ations
Ġa er
Ġdisc ip
Ġf illing
ĠSup reme
ac ious
us es
Ġappl ies
Ġserv ers
Ġdur ation
Ġe ager
Ġres c
M ay
ĠM ur
qu is
Ġle gend
Ġacquis ition
Ġland ing
Ġtack le
Ġd uties
Ġdefin ition
ĠJ ersey
oin ts
Ġinterview s
Ġbow l
Ġtal ks
ĠN ame
Ġgather ing
al i
ĠIndust ry
ĠVis it
b our
se ct
ab il
ĠF riend
Ġentit led
Ġhor iz
) ;
T M
Ġsuff er
u an
ĠPal est
Ġluck y
% ,
Ġnutri ents
ĠP ur
ĠV ill
Ġinj ured
du ction
ig ation
Ġindic ates
in ch
ĠG ar
id ity
Ġadvert ise
Ġrequ iring
Ġevery where
Ġhost ed
Ġtr im
Ġtri ps
ĠW he
ĠWh ich
Ġcere mony
Ġcoun cil
ĠP RO
Ġphen omen
ĠL as
ĠR a
Ġto ler
V is
Ġdesk top
Ġra ising
ĠR am
Ġ ?
Ġunivers ities
Ġhot els
Ġexam ine
Ġse asons
Ġab und
Ġcou ples
ĠN ight
Ġh un
i ac
ĠD C
Ġintu itive
Ġpack ed
ĠEx p
Ġlad y
ĠMart in
w an
itc hes
rodu ction
Ġwh ilst
ĠBe ing
un icip
the re
Ġheart s
p any
pp y
ost on
Ġdec line
Ġsuppl ier
Ġend e
om y
Ġlot tery
Ġpr ime
ĠHe art
Ġstrong ly
Ġut ility
ĠD am
Ġst uck
ĠS av
Ġl augh
ĠE vent
ĠMem bers
rape ut
Ġw ard
Ġbut t
ĠSen ate
onge vity
est ed
ĠAr my
ĠE s
Ġd ivers
Ġcollabor ative
Ġadd iction
G o
Ġagree ments
ĠLit tle
ell ed
Ġcomple ting
Ġrec re
Ġgold en
Ġtalk ed
Ġrom antic
Ġro se
Ġamen ities
Ġres ort
Ġn urt
4 9
ous es
Ġed iting
Ġcult ures
ĠAs h
on ed
Ġsub tle
Ġbo asts
b el
Ġalgorith ms
B ecause
Ġvent ure
Ã Ń
Ġspeak er
Ġlaw su
ĠSp ain
U s
Ġread er
ĠMus lim
ĠP acific
ĠEst ate
Ġbre aks
t ical
Ġroad s
zz le
Ġpsych ological
ĠFe atures
Ġattend ing
Ġsumm ary
Ġd irt
Ġadjust ments
Ġoccur red
L Y
Ġversat ility
Ġglob ally
ann el
ĠN orthern
Ġcl ock
mon th
Ġunfor gettable
it is
ĠH im
Ġw arning
ĠJ ul
Ġmob ility
ro g
ro vers
ĠV ietnam
ĠPer fect
F ind
ĠM ike
Ġfall s
irt ual
ivers ary
3 7
ĠA wards
t ail
Ġdr ives
Ġt ang
Ġelect ron
o ir
Ġdist ingu
3 9
m ond
Ġcol ours
Ġprevent ion
pect ives
Ġcut s
Fin ally
ĠDis ney
ĠS H
Ġhy brid
Lear n
ost er
Ġdesign ing
Ġassoci ation
ch ar
Ġcam eras
an es
Ġemot ion
av a
ĠUl t
Ġ ram
ĠPer formance
P al
R P
Ġrelig ion
Ġc ats
Ġass ume
Ġt ub
Ġadop ted
ĠGam bling
ĠS anta
our se
Ġrespect ive
Ġstat istics
Ġsubs id
Ġp ocket
ĠA ction
Ġopp osite
Ġl oose
ĠMay be
nd a
ĠL ee
Ġar ise
U sing
Ġscen es
as hed
crib ed
last ing
Ġf iber
Ġbar riers
m aker
ĠCol umb
Ġg re
Ġper f
Ġobs erved
Ġfl aw
Ġadequ ate
ĠSt ay
Ġprofess or
Ġvari ations
ĠL ine
Ġdiagn osis
b ar
Ġl ists
enc ing
ĠIm pact
Ġch a
ever al
ear ing
Ġdistribut ed
ĠS ustain
Ġv intage
ere n
Ġa rom
p orts
ĠB oy
ag ine
ĠOr ig
Ġb are
ric ted
Ġor ient
ow ers
Ġres idence
Ġaccur ately
Ġsus pect
ĠBu y
ĠMod ern
Ġdiv ision
ĠWill iams
Ġcl icking
igen ous
Ġprogress ive
ĠSu ccess
Ġpriv ile
Ġthous and
Ġlog in
Ġ vert
Ġsubst ance
Ġman if
Ġobvious ly
Ġliter ature
em ploy
Ġdis orders
ĠGam ing
le ep
Ġcustom ize
Ġacqu ired
ĠColor ado
Ġexpl an
ĠAut o
f its
Ġcons ervation
Ġtw enty
Ġst ations
ĠTh ough
ist ance
Ġdel ve
Ġke ys
Ġir rit
Ã ¼
ĠN umber
ĠJe ff
C L
S ec
ĠM P
3 00
T y
Ð ¾
ĠN ote
ĠFin ally
Ġ4 00
ort ion
Ġhapp iness
dep th
acks on
ĠFin ance
Ġest imate
Ġdisc overy
Ġover view
ĠFor ce
Ġdepos its
Ġshe ll
Ġvis ually
il ly
Ġspeak ers
Ġr u
ell o
ĠLeg al
Ġnur sing
it ivity
iz z
Ġwood en
ĠS ection
Ġin n
Ġcontinu ously
Ġtalent ed
Tr ans
or gan
Ġpow ers
N ote
ĠUn like
Ġcap ability
Ġarr ival
Ġdynam ics
Ġclub s
ĠC ab
Ġessential ly
ĠAd vis
Ġgener ous
ĠStand ard
Ġe rect
com pass
Ġlog istics
Ġimpro ves
Ġstruct ural
Ġboy s
Ġdis ability
Ġrenew able
L ooking
Ġemphas is
Ġk il
Ġgam ers
Ġpro active
Ġto ys
Ġexper im
al og
am ber
Ġver ification
Ġmind s
L ike
Ġinst ruction
Ġsome what
ig ious
ĠAP I
Ġl ib
Ġinstru ments
Ġh ub
Ġt rib
Ġl ie
Ġle ague
Ġlaw yers
or ry
Ġphilosoph y
i ates
4 7
Ġreal istic
ĠF un
so le
av en
A meric
Ġdro pped
Ġpract ition
Ġcul inary
Ġ200 6
Ġb es
C D
ic ity
ĠP ain
ĠComp an
ĠA p
oc racy
Ġlegit imate
Ġdifficult ies
Ġun known
C o
cl aim
T op
Ġengine ers
Ġo ven
y al
ĠGard en
Ġf ake
Ġfil ters
Ġto ile
Ġp itch
ad or
Ġsmo ke
Ġout fit
Ġprotect ive
sc reen
t es
ro ke
Ġreward ing
Ġvolunte ers
Ġview ers
Ġmechan ism
Ġrepresent ed
ĠK n
ĠUS B
Ġfloor ing
V E
h t
ob e
Ġcount less
Ġgr at
Ġestablish ing
S ign
Ġgr ateful
Ġdistinct ive
Ġse es
Ġvol at
ĠM att
Ġtest ament
Ġretail ers
ĠU r
Ġmin ing
Ġtrou bles
Ġconsult ing
g ments
Ġcontribut ed
Ġwalk ed
Ġpres erve
ĠL ad
ĠF oot
Ġlike wise
Ġass ured
Ġfl o
Ġex terior
Ġjud gment
ĠPlay ers
ĠM ess
Ġmy th
Ġcon vert
ian o
ĠD ream
Ar t
Ġf inger
ug s
Ġt or
Ġst ood
Ġch ips
Ġassist ant
Ġlever aging
Ġr ush
Ġchild hood
onym ous
ĠJ ones
Ġlapt op
i as
Ġnot able
Ġincl usion
Ġadministr ative
ro ph
ĠAg ain
ou p
Ġauthor ized
st yle
ut ical
Ġart work
d ers
Ġtrad itions
et ry
it ting
ĠKore a
Ġprompt ly
Ġdispl ays
ĠH en
Ġdisc om
Ġ( âĢľ
Ġhar vest
Ġinvolve ment
in ts
Ġcontract ors
Ġg ut
ari os
Ġgen etic
et he
ĠC N
3 1
Ġcontract or
ĠR ose
Ġhighlight ed
Ġtour ism
Ġg ains
ct ure
ĠB ul
Ġsle ek
Ġequival ent
Ġrepresent atives
z ona
Ġaccommod ation
Ġb aking
G ener
b acks
Ġt ension
Ġadvance ments
Ġm ixture
Ġmet ab
Ġemb ark
Ġl aser
Ġb ab
Ġg iant
i h
Ġcred its
Ġwor n
li ances
Ġs en
Ġcour ts
ĠPhil ipp
ĠM ic
Ġab road
ĠB oston
Ġs amples
Ġbo ards
Ġcompet e
ry ption
Ġshould er
Ġh oney
Ġthr ill
Ġspec ified
Ġflow er
Ġun iverse
i ations
Ġyour s
ĠC ON
ĠB h
Ġgovern ance
ĠProper ty
ĠV en
ĠE ll
ud es
Ġmechan ical
Ġse al
Ġl ens
ĠG irl
Ġcomp lim
Ġbel oved
ĠWill iam
E P
hy th
Ġdes erve
d em
Ġemploy ed
Ġarrange ments
Ġp ink
ay ment
Ġpromot es
Ġwant ing
Ġenc ount
Ġinter vention
Ġprec ious
Ġref uge
Ġbehavi our
ĠOh io
van ia
Ġr iding
ĠD ie
Ġtrad em
ĠCath olic
t aking
re p
ont o
Ġhop es
y gen
ad ium
ĠJ un
ĠIm m
d a
Ġimportant ly
ĠT ri
Ġbat t
ĠJ on
te en
ĠU t
enn y
ĠO k
Ġcost ly
iz za
Ġl ongevity
opy right
Ġc ognitive
Ġinflamm ation
ĠAdv anced
Ġun ne
Ġord inary
f ers
Rem ember
Ġvend ors
E d
at hered
angu age
ĠSe ason
Disc over
Ġke en
Ġstream line
Ġv ine
Ġd ad
oc ial
ĠV ice
Ġch ampions
Ġst ocks
Ġsaf er
Ġsim ultane
Ġhas n
br is
Ġw aves
B ook
Ġam id
ĠD aily
ĠL uc
Ġapp et
ĠP ub
4 6
Ġbat teries
ac on
Ġconsist ency
Ġknowledge able
ay lor
Ġr ust
Ġsecond ary
P M
ut er
Ġpiv otal
Ġn ob
Ġco zy
ĠTh ink
Ġcur riculum
ĠE th
Ġdiscom fort
u um
ĠF ar
Ġmatch ing
d isc
at in
ans as
Ġaccom pan
D is
Ġpl ot
Ġcol on
Ġun ion
Ġtom orrow
Ġpro secut
ĠD O
Ġf ur
ĠQu ick
Ġdang er
Ġcomput ers
ĠSh ipping
Ġm ask
Ġassign ed
Ġbelief s
E G
Ġachieve ments
Ġrece ipt
Ġacknow ledge
Pe ople
Ġtempl ates
Ġt ours
Ġact ors
ĠRepublic an
achel or
at i
AR T
Ġl oving
ĠCh ange
Ġsubsequ ent
Ġunus ual
Ġres ident
Ġtempl ate
A A
Ġwe igh
Ġprom ising
ĠF our
Ġamong st
Ġproduct ive
on av
Ġbu ck
E X
e pend
Ġmag azine
Ġconnect ivity
Ġpok ies
ĠAl ways
Ġprinc iple
le g
ĠIm port
Ġrat io
Ġdoll ar
ĠDI Y
Ġsign als
Ġ200 5
C S
r ite
Ġdys function
Ġcompl aint
Ġfranch ise
Ġst ays
Ġrel ating
Ġfl oors
Ġco al
Ġoper ator
Ġput s
Ġ19 5
Ġpr ayer
Ġadvent ures
worth y
ĠMount ain
Ġsuff ered
Ġexecut ion
ĠT able
ĠT ips
f rom
Ġblack jack
Ġelect ions
Ġh ole
Ġevery body
ĠAm ong
Ġcell ular
j u
Ġp orts
Ġcoin s
Ġfl ash
ĠSh are
Ġmarket place
Ġman ip
im p
Ġexp ense
ĠC ash
ay a
orm al
Ġtele phone
b ow
Ġcontain ing
Ġsc ulpt
z ed
Ġp ounds
ĠM ind
Ġsmooth ly
ĠQue en
ct u
Ġcan cel
Ġvirt ually
Ġo l
Ġemer ged
ĠInc re
Ġapprec iation
ĠF low
Ġhop ing
ĠH oly
Ġpub l
ĠL iving
ĠC S
R ep
w all
ĠSw ed
yl vania
ĠDr ive
Ġsal ary
c ure
Ġdemonst rated
it ative
ĠO p
Ġwarm th
Ġpush ing
Ġpul led
Ġpers pectives
on na
Ġres erve
Ġfle et
ok en
Ġsurv ive
Ġgradu ally
Ġsome where
Ġs ed
est one
ĠP sych
Ġsh ots
Ġannounce ment
Ġj un
Ġmuse um
Ġperm its
M r
Ġun iform
p owered
ĠGold en
On line
Ġstrength s
Ġliter ally
ad el
Ġf lying
Ġent ity
s en
Ġsh ipped
E m
V AC
ĠElect ric
Ġdel ays
ly n
ĠFranc isco
Ġbehav iors
âĢ ³
Ġutil ized
ĠRet urn
Ġrele ases
ĠAtt or
Ġemb ed
Ġspect ac
Ġvacc ine
Ġobs erv
Ġscen ario
ĠEx press
Ġen compass
h our
Ġc m
Ġrel ation
it arian
Ġident ification
Ġref rig
Ġne uro
Ġcons erv
Th anks
Ġbasket ball
ĠU V
Ġinfect ions
r ick
Ġentr ance
M ar
Ġcont rovers
Ġst om
Ġqual ify
ac ies
Ġconsider ations
Ġpl umbing
ab led
ĠSim ply
Ġinstall ing
ĠL i
Ġtrad ers
Ġact or
ĠMc C
Ġprot est
Ġthr illing
ĠF ather
Ġdis order
ĠSil ver
is ure
Ġprov isions
ĠUS D
Ġh am
Ġab and
ĠAuthor ity
ft en
Ġju ice
Ġb ust
spe cific
Ġw ake
Ġb ol
Ġcelebr ated
Ġlat ter
Ġrepresent ing
Ġqual ities
ĠLink ed
Ġautom otive
ĠM u
em ail
Ġval ued
Ġscen arios
Ġattempt s
ang ers
ĠTrans port
he mat
Ġl ip
c hers
Ġne ither
Ġd ipl
Ġrelax ed
onav irus
G l
ĠC ru
Ġhar ness
Ġfil ing
Ġd ual
Ġm ile
Ġtail or
Ġmechan isms
t elling
Ġaccept ance
Ġtarget ing
Ġple asant
d ney
Ġla wn
aw are
f ire
ĠP u
Ġret ention
ĠChar les
ĠJ ackson
Ġre hab
Ġpil ot
ace utical
Ġbro ker
rib le
Ġstri king
ĠL abor
Ġg ram
ĠT urn
Ġmin ister
vent ions
ĠPlan ning
ict ions
Ġdesign ated
Ġnavig ating
ment ed
Ġatt itude
Ġguarant ees
Ġmist ake
A v
od ge
a ul
Ġaffect ing
Ġremind er
s m
el i
ce eds
Ġpen is
ĠS on
Ã ³
Ġhol istic
Ġfl ag
Ġgr id
Ġentreprene ur
Ġexam ination
par alle
ĠM ember
or rect
iv acy
ann a
Ġshap ing
ential s
Ġback up
Ġt ired
Ġform ation
Ġlad ies
Ġv oc
H A
gh an
ĠBl u
Ġflu id
Ġaud it
ĠP age
Ġvolunte er
Ġy ard
Ġbr id
Ġmake up
ĠStud ent
Ġadv ised
Ġgl ad
bu ilding
ĠO wn
Ġstr ange
Ð °
orge ous
ak a
he ast
ĠInt ellig
ĠStud io
ĠApplic ation
ĠTh ree
Ġw est
i y
Ġp ig
m ind
Ġmed itation
ĠSt ock
ĠBe aut
ĠRes ources
Ġadv ise
St ud
Ġde bris
Ġwork out
Ġofficial ly
ĠD a
Ġvit amin
T ime
d ef
Ġdeterm ining
it u
Ġev il
ĠAri zona
ĠB all
Ġcy bersecurity
ĠEm ail
ĠUn fortunately
Ġpeace ful
Ġless on
ĠIr ish
Ġl overs
ĠR un
ĠV ar
iam i
Ġshowc asing
à ¸
ĠK ong
Ġo ught
ns ylvania
amp s
Ġdet er
Ġoutd oors
, âĢĻ
ĠIsrael i
ĠP S
ĠG reek
Ġlandscap es
Ġresult ed
Ġper mitted
Ġwhere ver
Ġnavig ation
ce ive
ĠWe ight
Ġrel ative
Ġphys ically
clus ive
Ġagricult ural
Ġprotocol s
Ġprodu ces
Ġche st
ĠAn alysis
ĠComp et
Ġgain ing
re ll
Ġcur ious
er als
Ġpoin ted
Ġneut ral
Ġrest oration
Ġsome body
Ġwork er
at ers
Ġloc ally
ĠM D
ĠPr ivate
Ġopp osition
Ġte x
paralle led
ĠM ethod
onom ic
over ty
Ġwel coming
L S
Ġgraph ic
Ġc rown
alu able
Ġex ists
C P
ĠT ik
ĠRich ard
ĠB a
ĠT ogether
Ġplace ment
Ġp up
Ġn ights
ĠE astern
Ġ6 5
m l
Ġavoid ing
ĠCont ract
ĠS elf
ĠS her
r un
Ġinsp iring
Ġwhere as
Ġterm in
ĠD NA
Ġsh ine
Ġres ume
Ġmount ains
W S
Ġcare ers
Ġadop t
Ġport able
Ġinv iting
Ġcra zy
Ġhospit als
Ġconst itut
Ġo w
Ġprospect s
Ġsc ores
Ġind icated
Ġtre m
Ġrespons ive
Ġpro port
erm an
r at
Ġapp liances
ĠC ase
Ġphotograph s
Ġexclus ively
ĠL y
ĠCom pl
Ġm ic
Ġn iche
Ġvot ers
ĠBe h
Ġas sembly
Ġta pe
ĠAl tern
A E
Ġfra gr
Ġevol ve
in yl
il a
ĠK im
e fficient
it er
6 6
iat ric
Ġcl oth
ĠDisc over
Ġdiv ide
l aim
ĠTra de
Ġpar ks
br idge
Ġent ities
ĠBet ter
Ġtrial s
Ġsu ite
Ġextend s
Ġsec ured
Ġh arsh
Ġpost ing
Ġbeautiful ly
Ġrelax ing
ĠAnd rew
Ġh its
0 1
ĠC ovid
Ġcomp osition
H aving
ĠDiv ision
ak h
ĠMan ufact
Ġrepe at
Ġhighlight ing
Ġun com
Ġdial ogue
c ut
od a
il ation
ĠRel ations
ĠD ue
Ġsecure ly
Ġharm on
ĠLat in
Ġy esterday
ĠWor king
ĠW H
Ġjack pot
d rop
sem ble
Ġloc ks
Ġmind set
ĠApp ro
p read
ĠR O
ĠF ast
Ġm olec
U D
Ġdeterm ination
Ġv ice
ĠCorpor ation
Ġtournam ent
Ġhand y
Ġaccording ly
rapeut ic
Ġc uis
p ing
un ity
ĠSum mer
M I
Ġreview ed
Ġprof itable
Ġ5 5
Ġdivid ed
Ġint imate
Ġbur den
Ġground s
Ġopp osed
Ġcont est
ĠPri or
Ġle af
Ġlet ting
ret ion
Pro f
h oot
Ġcapt ured
ĠAv ailable
Ġlow est
Ġle ak
ethe less
Ġinvest or
Ġant ib
min ute
Ġend ing
g iving
w ar
Ġam pl
ĠO x
Ġmor al
ut en
am ins
Ġsleep ing
Ġt ire
ra q
Ġwond ering
Ġbur ning
Ġag ing
Ġcal c
ĠC and
Ġp ione
Ġhead ing
h ou
Ġn urs
ch ing
ĠD rag
Ġmet ers
Ġargu ment
Ġterrit ory
ĠC ivil
he alth
Ġvar ied
ĠP oint
Ġobs erve
f oot
Ġcontribut es
an ning
Ġweak ness
Ġag ed
Ġinfluenc ed
Ġb io
fort able
a fter
Ġcent uries
C R
Ġhe ll
rim ination
ĠD ark
op er
Ġw ager
or ks
Ġj e
ĠR h
ou b
Ġsurv ival
Ġl ake
ĠF REE
ĠMost bet
ation ally
Ġpre st
Ġinnov ations
requ ently
Ġbreat hing
Ġchar ity
h ol
g ress
ĠF ocus
ĠE S
Ġcont ents
Ġdis aster
ĠOpt im
Ġto xic
ĠM A
8 5
M ed
Ġrub ber
Ġwire less
b ury
ĠE X
ĠCol lect
Ġstud ied
ors es
Ġcollect ions
Ġmut ual
Ġe lder
Ġspect rum
Ġi P
ĠCount ry
ĠFore st
gi ene
N ext
ro be
ides pread
ĠW alk
olog ists
Ġg ently
aw a
ĠGu ard
ĠDan iel
ĠH ou
Ġint ake
ĠPen nsylvania
w a
Ġreve als
b ell
Ġret reat
d oor
e as
ib l
ĠA G
Ġun paralleled
Ġabs ence
Ġconfig uration
Ġrecruit ment
Ġbr anch
Ġtechn icians
Ġsp a
Ġtreat ing
Ġcheck out
ap ing
Ġr um
Ġo kay
Ġp icking
Ġtravel ers
Ġoper ated
Ġmir ror
pl ed
Ġe arning
ĠSt ill
Ġsc rew
Ġconfirm ation
Ġscr atch
H is
ĠCond itions
Ġun p
own ed
Ġc ust
ĠV ers
Ġclin ic
Ġind ul
Ġwal let
Ġapp ointed
Ġbul k
Ġdisc ipl
ĠH ong
T ok
Ġc inem
bo ards
enc ed
Ġguid ed
Ġattor neys
Ġs ne
ĠH a
r ary
ĠAss ess
Ġint end
ĠExper t
ĠCompan ies
Ġrec on
ĠHarr is
Ġagg ressive
or ic
w as
Ġprior ities
Ġt att
Ġdism iss
O ut
Ġinvestig ate
Ġins ulation
ĠD ur
ĠH VAC
ĠO S
Ġinst ances
i ator
Ġmotiv ation
am il
Ġb oss
Ġh ide
Ġ199 0
Ġloc ate
P L
ic ide
Ġqu e
Ġconduct ing
C ur
c hest
Ġfo am
ĠEx cell
on ut
ĠO nt
is a
ad ed
ĠN ations
Ġany more
Ġbre ach
Ġed it
Ġcharm ing
ĠB ob
Ke ep
lud es
Ġport al
ĠOpt ions
R ed
Ġre nder
win ning
Ġl oud
iv ities
Ġseason al
Ġpres cription
Ġhost s
8 00
Ġgr ants
ĠF ield
in ery
Ġmess aging
o pping
Ġp ad
s ized
el a
ĠD id
Ġfl ights
ĠMach ine
N S
bour ne
Ġcar pet
Ġunne cessary
Ġor ange
Ġenc ryption
Ġinstru ment
Ġimm ense
Ġsell er
asc ular
Ġn ail
bre aking
Ġtut orial
ĠI ss
ud i
Ġref err
c a
Ġsatisf y
ĠIn novation
Ġcreat ors
Ġfac ial
ĠHol lywood
Ġwh oles
oc ate
A ss
Ã ¶
ous ing
ĠAnaly tics
p ace
Ġsmo king
Ġh unting
Ġaesthet ics
ĠR s
Ġwere n
Ġm m
Ġpow ered
Ġbrill iant
ant ing
ĠL ib
Ġcollabor ate
n at
Ġdiff er
arent s
Ġch ains
le te
Ġg reet
ath an
Ġn u
ĠR oom
Ġal ert
Ġh ate
ĠM s
ĠStud y
IT Y
ol is
Ch oosing
ĠF re
ear s
Ġmed ic
Ġcheck ed
T R
ot ten
Ġstruct ured
Ġplug in
ĠSy dney
Ġalign s
fl u
ĠU RL
Ġam end
ĠEx change
Ġse ar
Ġsol o
Ġhes itate
Ġst er
ĠA lp
ĠK ent
Ġrem ed
Ġindepend ence
ĠEnviron mental
âĢĿ )
Ġev ident
Ġdescrib es
h ome
Ġint rig
Ġestim ates
Ġg orgeous
T ER
Ġoblig ation
ig ue
Ġdim ensions
m atic
Ġtra uma
ĠF ox
Ġg athered
Ġmag ical
os a
Ġox ygen
ĠT oy
Ġann iversary
Ġstain less
Ġen orm
Ġeffort lessly
Ġpublic ly
Ġsurround ed
ĠTur key
Ġs outhern
Ġfunction ing
Ġw idespread
ĠMal ays
Ġmur der
Ġgro cer
Ġhol es
ĠP ers
re ach
um ing
al o
hold er
Ġdepart ments
w er
Ġcomput ing
Ġdist ract
Ġc ow
Ġstom ach
Ġn erv
ter ing
e ven
Ġcompan ion
Ġcomb ining
Ġanticip ated
ĠSt ory
Ġref lection
Ġenab led
c ur
Ġacc used
old s
Ġimp ress
ĠSte ve
ĠMed ic
st ract
Ġdo se
o king
Ġpromot ional
ĠPract ice
ĠC ro
Ġspecific ations
Ġcr ash
Ġbro ke
Ġwal ks
Ġdelight ful
air y
ĠPr inc
More over
ams ung
B ack
ing o
ram e
ĠBrit ain
v ol
Ġst ack
Ġdro ps
Ġro yal
Ġtransform ative
ĠN ut
ĠBl ock
ok ed
s uch
Ġass ault
Ġinteg ral
ĠG ive
Ġstart up
ĠI raq
Ġwith stand
AN T
Ġroll ing
O s
Ġcar rier
Ġpasseng ers
Ġsem i
ĠM iami
ac her
ish ment
Ġmin istry
F urthermore
ad vant
ĠCol lection
Ġbar rier
am i
ĠB ody
ĠDel ivery
ĠLin ux
ĠClean ing
Ġ200 4
Ġpollut ion
ĠB ed
Ġk m
Ġinv as
Ġpar ad
ĠEconom ic
ĠR om
Ġsubs crib
ĠL ux
ic ating
ater al
gra duate
ER E
Ġconv in
f a
Ġs ke
oh n
Ġb ull
Ġstead y
Ġobstac les
get s
Ġfun ny
Ġarrest ed
Ġalumin um
Ġr hyth
Ġadvoc ate
Ġlik ed
ro duct
Ġtransl ation
Ġtreat s
ĠTor onto
Ġ2 50
Ġe ast
ĠF ord
Ġassoci ate
ig ure
ĠS us
s elling
Ġad j
Ġelect ed
Ġattract ions
D own
_ _
Ġch ampion
ĠDon ald
as ures
Ġn ose
Ġwhe els
E ng
Ġprev ents
Ġprodu cer
Ġintegr ating
ĠI ce
Ġpref erence
Ġinv aluable
ĠB arb
rop ical
Ġscreen ing
arm a
ĠMod el
U M
Ġsh irt
Ġwor ried
Ġbrand ing
Ġcol umn
Ġt ied
Ġunc over
ĠOb ama
Ġembra cing
Ġbu ff
ask a
Ġqu eries
Ġp it
ĠA mb
ĠF all
ĠMon th
ĠConst ruction
Ġar my
ĠSaf e
in et
Ġrout es
Ġthere by
Ġprincip al
k ind
ĠPalest in
Ġle an
M s
ĠScot land
Ġt ons
Ġg aps
Ġun author
Ġbond s
ĠB ad
ĠR ub
Ġdest inations
Ġar bit
Ġmitig ate
ĠC apt
ul ent
| |
on ing
S et
ow ing
ĠRep air
Ġsun light
Ġsimultane ously
arr ing
ĠLinked In
Ġagricult ure
Ġsens ors
Ġbe aches
ĠCom b
Ġmotiv ated
Ġtable t
Ġex em
Ġpl ain
Ġrev olves
inc are
ord ination
Ġunderstand s
Ġdent ist
reat ing
b ot
Ġcar ing
Ġprecise ly
ĠS ir
S om
if ier
ik i
Ġdifferent ly
Ġread ily
Ġapplic ants
Ġincent ive
Ġsurround ings
E F
Ġpri zes
il itation
Ġtem pt
eg in
? "
u ana
re f
con nect
Ġtransform ed
ĠV it
ĠC over
ious ly
ĠC ut
ste in
R el
Ġcustom ization
ĠD y
iff s
ch o
ino is
Ġh anging
Ġshap ed
Ġb ub
Ġhy p
ro t
is p
ĠA ge
Ġlif es
ĠSt ation
Ġcryst al
Ġtra ils
Ġen rich
Ġview ed
se y
est y
Ġsw ift
ĠT aylor
ĠTool s
ĠC er
Ġin sect
he im
ĠD ate
ĠV PN
Ġrece ives
ĠJ ac
Ġdemand ing
N e
Ġen emy
Ġtim ing
Ġpregn ant
h op
Pl ay
an qu
ĠA st
Ġconcent ration
Ġfund ra
Ġclean er
if ted
ens us
Ġt ill
Ġtrans fers
Ġaut onom
Ġsle e
Ġint im
Ġintellig ent
form ing
Ġover look
Ġpro pri
Ġimm igration
Ġround s
Ġquot es
Ġdes ires
F r
Ġdram a
ĠC irc
un ate
ĠS ize
EC T
Ġsp ouse
ul ous
Ġbuild s
iox id
ĠJose ph
P P
Ġleg ally
ĠG h
ĠDemocr atic
Ġconcer t
Ġsp okes
Ġ âĢĻ
ord an
Ġpublish ing
Ġann ually
4 2
the w
ĠP y
Ġform ats
i ov
Ġ3 3
Ġfin ances
Ġbel t
m issions
ĠF L
ar ry
Ġso ap
ĠO d
Ġmy ster
anc hes
in st
ĠSt an
ĠK at
Ġp overty
Ġgrow s
Ġwat ches
ĠP A
Ġc ourage
Ġwat ched
Ġfor um
ĠAd vent
rop ri
igr ants
ĠSl ot
Â ·
Ġvers us
elf are
is an
Ġdram atic
Ġh iking
ĠH ub
Ġdisc retion
o T
Ġinvest ed
Ġfoot print
N G
Ġlab els
GB T
ĠInvest ment
w al
ap se
Ġun cle
Ġsk i
c ard
ĠSt aff
Ġcompat ibility
ĠD om
Ġachieve ment
it ual
Ġf u
Ġre verse
Ġra c
ĠA h
Ġobtain ing
ĠDel hi
p ired
O h
Ġroof ing
4 00
Ġst em
ĠH or
in f
Ġage nda
ĠBro ad
B O
ĠR ay
Ġsent ence
Ġg low
ĠE T
Ġtransfer red
Ġrare ly
Ġconsider able
othe rapy
act er
Ġmar ine
h tt
ĠB ased
T wo
ĠE arly
Ġh ung
Ġres erved
Ġreact ions
ĠB ol
Ġany time
ĠN ature
Ġoptim izing
V iew
ĠH un
Ġdis abilities
0 5
Ġparam eters
ĠStrate gy
Ġc ircle
ĠH ope
ĠCom mercial
g ain
M od
Ġv oices
ĠAss istant
ent h
E V
Ġcelebr ating
not ch
Ġche aper
Ġb unch
ĠD ental
Ġb ite
Ġrepl acing
Ġgard ens
Ġsold iers
Ġcor n
Ġtrem end
Ġmult ip
AN D
eli hood
ĠP ick
Ġcons olid
ffic iency
ast ing
Ġdec iding
ĠFil m
Ġl iber
Ġcrafts manship
Ġte nder
ĠTh ings
Ġsh orter
ĠN FL
ĠCreat ive
Ġw ishes
Ġmod ify
Ġp ushed
mar ks
ab eth
ap le
ij uana
Ġdeath s
Ġsec uring
Ġassess ments
act ion
H D
ĠAttor ney
F l
Ġh ood
Ġl iable
Ġle ase
hes ive
Ġjurisd iction
Ġcook ie
Ġ1 000
ins on
Ġwor ship
Ġcontact s
Ġhit ting
Ġbe ans
Ġ200 3
Ġarchitect ural
ĠO cean
Ġnerv ous
B enefits
il er
Ġw rap
Ġconsum e
Ġult ra
Ġun t
Ġgener ating
Ġuncertain ty
re ne
Ġsp ell
Ġfin ishing
unicip al
Ġmon etary
Ġcontain ers
Ġplan e
ĠPr im
Ġcris p
Ġst ir
Ġdirect ions
Ġanaly zing
Ġ3 8
ĠS D
Ġsh ield
Ġingred ient
Ġ1 20
ĠV irtual
ur dy
Ġmod ule
Ġstory telling
Ġche f
ĠOnt ario
r us
Ġcomplim ent
Ġvert ical
Ġv ig
ress ing
Ġaccess ing
Ġp ic
a ug
Ġimag ination
Ġd ies
Ġcollect ing
Ġexpl os
Ġg rip
iv ation
ax y
Ġsw ing
Ġbackground s
Ġhand led
Ġtransform ing
Ġtact ics
ĠHou ston
Ġfa ult
Ġdele te
il ty
ĠV ent
vious ly
ic iency
Ġther mal
m ates
20 24
Ġback ed
Ġdecl ared
Ġh arb
P ost
ist ed
le nd
Ġadv erse
Ġas ks
o en
ĠPr in
Ġdil ig
ĠM oon
Ġover night
Ġlik elihood
ĠSh ort
ĠP o
L P
Ġadjust able
ĠF a
Ġvot ing
Ġfif th
ĠL ot
Ġm oon
ĠC ore
G A
Ġsh ade
Ġad mit
Ġ3 7
ĠD u
Ġwin ners
Ġpros per
Ġan gle
Ġcomplain ts
Ġh ip
Ġrest ricted
ĠSp ot
Ġcolor ful
Ġunders c
ĠDiff erent
Ġsp acious
Ġprodu cers
Ġdele g
Ġrefresh ing
W ill
iv ated
Ġorgan ize
Ġweap on
Ġevol ved
Ġb ass
Ġfeed ing
em ies
Ġmar g
Ġin ch
ĠH air
Ġspe eds
Ġcut e
ĠPart icip
ĠPart ner
ol ly
AT E
ost ic
h ave
t w
Ġp ose
Ġfarm ing
Ġr ib
itc hed
ĠPrem ium
ock ets
ph ia
o ons
Ġarrange ment
ist ical
B ased
Ġmeasure ment
Ġconc luded
ĠD iam
at tle
H er
Ġaccompan ied
Ġmerch and
Ġcomplic ations
Ġn orthern
p ots
ob b
Ġenjoy s
ĠS M
Ġcalcul ated
Ġsubst ances
Ġsc ar
ĠE ffect
Ġdon ation
Ġhuman ity
ĠB C
Ġb ene
pl ant
Ġsens or
ĠPre p
Ġdiscuss ing
Ġthe rapeutic
Ġentertain ing
ĠP ast
ĠH ig
Ġinc ur
B oth
ĠArch itect
Ġp ays
Ġpat ience
og s
Ġany way
ĠSte el
Ġregul ated
Ġrefrig er
Ġtru cks
ed ing
ĠL A
Ġheav en
Ġalle v
st op
ĠV IP
ĠInd ones
Ġsell ers
Ġs orts
ann y
Ġelse where
Ġdiet ary
ĠSqu are
ex p
bur gh
Ġdelight ed
Ġd ess
Ġpros pective
ĠIll inois
ig er
Ġload s
ap ed
ar ity
Ġa qu
ĠKore an
ĠUn ivers
Ġprotect s
re ated
red ict
Ġalgorith m
Ġbre w
ĠProt ect
ĠBr idge
ĠB ase
Over all
ĠIntellig ence
Ġvar ieties
Ġ3 4
Ġmanif est
ĠAd am
Ġl y
Ġvac uum
i ro
ri or
c or
ĠPer haps
ĠL ind
ĠM other
ĠInt erest
ĠPh D
adel phia
Ġto ken
Ġbu nd
Ġrecip ient
ĠAff airs
k o
the ning
ĠMot or
Ġst ops
Ġt ie
c ling
th is
Ġpop ulations
fl ix
Ġreg ards
Ġrob ot
ĠInd epend
ĠN ick
Ġcryptocur rencies
ch anging
Ġle isure
G ood
Ġappet ite
ĠC rypt
ĠB on
Ġsp ir
Ġacc red
ĠWh ats
Ġenvironment ally
Ġrespect ively
con f
Ġ19 80
he rent
Ġste am
ribut e
it zer
Ġphys ician
ĠTik Tok
ru b
He alth
Ġce iling
Ġtoile t
Ġsu ited
Ġcuis ine
Ġrat ings
ĠT ai
Ġdepend ent
Cons ider
anche ster
b ound
Ġt ar
Ġcar ries
Ġunivers al
Ġb ands
Ġex cel
Ġunlike ly
us hes
Ġrem em
t age
Ġprov ed
Ġlawsu it
Ġg um
i ology
Ġhe al
ĠL oss
Ġper ception
ĠP oly
Ġattribut es
ĠB B
isc al
od ium
Ġk illing
Ġed ges
i aries
Ġm igration
Ġpath s
Ġhy giene
Ġg em
Ġbott les
av ed
I B
Ġwrit es
Ġresist ant
Ġconstruct ed
Ġat tain
Ġy ards
Ġm ath
Ġad mitted
rou s
ain e
ri x
Ġrecyc ling
ĠVill age
hes is
Ġp or
ar on
Ġsc ored
Ġmy stery
Ġhaz ard
] .
b est
ĠA k
Ġres erves
Ġpe er
if er
C le
ĠL u
ure au
Ġdead line
ĠYOU R
Ġspe aks
bre ak
D C
b ro
ĠEvery one
Ġpe ers
cept ions
Ġexpl icit
Ġcater ing
Ġbegin ners
ĠP ra
Ġvar ies
ĠSc iences
ĠThe rapy
Ġma ps
ple ment
Ġp est
Ġsee ks
Ġexplore s
ĠM ove
b oy
ĠG olf
Ġcondition ing
Ġenorm ous
Ġfabric s
Ġbutt ons
Ġto mat
Ġen l
ĠG P
Ġfram es
Ġy e
Ġsec rets
Ġrein for
p ire
Ġt ies
Ġmeasure ments
ant h
Ġindic ators
form ed
el ve
Ġaim ing
M on
O ff
V C
eg ree
Ġvary ing
ugg ed
Ġflu ctu
Ġappoint ments
ast ed
Ġ9 5
Ġtour ist
Ġp ipe
osp el
Com merce
ĠA B
Ġin ev
ĠO K
Ġw ax
ĠC ooper
ill ance
Ġmanufact ured
Ġvit amins
ur ches
Ġam ple
Ġfund ed
iv a
Ġoff ensive
ĠK it
Ġfulf illing
Ġsupport ers
Ġcr imes
Ġinc idents
Ġun limited
Ġdiscip line
l ink
Ġref erences
Ġpain ted
Ġrespond ed
ail and
Ġeth nic
Ġpro long
Ġinflu ences
Ġovers eas
Ġcomplex ities
av al
Ġsure ly
ond er
Ġdownt own
Ġpass es
r ong
ĠS C
Ġcon j
Ġrec ru
Ġdon ations
ĠBud d
ĠC a
board ing
ĠHaw ai
Ġex it
ĠL GBT
k ens
Ġcra fting
O K
ĠB and
Ġkn ife
Ġw age
ard less
c ase
Ġalle g
ĠDe ad
Ġdirect ors
Ġdisput e
ĠColumb ia
p ay
H el
Ġapprec iated
Ġmeas ured
Ġsus pend
Ġarg ue
Ġexch anges
Ġwell being
Ġbab ies
Ġshort ly
ĠR yan
ĠTh ird
p ically
Ġfore front
im um
all as
ĠR od
Ġerect ile
Ġbe ef
Ġmin erals
che ck
Ġbr ick
Ġsing er
Q L
N et
ist ing
sh ore
or ient
Ġant ioxid
Ġa x
our ing
ĠProm ot
Ġsuppl ied
Ġgot ten
r in
el le
ĠR aj
Ġr uling
Ġsur gical
Ġdem o
ĠO ak
iz abeth
T ech
Ġempower ing
on ly
b ra
Ġcop ies
ĠC L
Ġl iver
Ġh orses
Ġalign ment
ĠPort ug
4 1
F S
R et
bu ild
Ġcal ories
ĠGrow th
7 8
ĠGl ass
Ġrough ly
ĠCommun ication
oub ted
IV E
Ġreflect ing
Ġre ception
G E
Ġfem in
ĠM ix
Ġconf ront
Ġcirc uit
ĠGovern or
Ġb iod
Ġsl ip
Ġfl ags
Ġstrugg les
reg on
ĠPr ivacy
ia h
Ġhospit ality
ĠF lex
Ġengine er
c alled
ow een
Ġur gent
ĠD ocu
Ġsy nd
ĠK ids
row ing
Ġbo ot
ios ity
Ġmeas uring
Do es
Ġanal ys
ĠW ales
ĠCour se
op t
Ġint ensity
Ã ¤
Ġspecial ize
Ġglass es
ĠTreat ment
ĠS amsung
ĠV ery
at able
Ġneed ing
Ġware house
Ġw estern
ĠReg ional
ĠDie go
Ġint ers
Ġdev ast
Ġsched ules
Ġgra in
Ġorganiz ational
Ġse ating
ĠSt one
Ġrec all
Ġpay roll
ĠH ost
b ec
Ġt ennis
d ays
we ek
ĠR on
Ġcle ans
Ġra ces
Ġprin ts
Americ an
ĠS A
it o
Ġindepend ently
Ġhead qu
W H
l ining
ĠD ar
Ġ200 2
ĠK ar
ĠCR M
st ore
ils on
Ġtable ts
p ool
Ġtast es
f ish
Ġfast est
Ġbrow se
w ich
Ġmult ipl
be an
Ġa uction
am ination
D ata
ĠAsk ed
ĠAnn ual
le ading
Ġphr ase
oubted ly
Ġad mission
Ġdeploy ment
ĠD J
Ġauthentic ity
ĠN ur
art s
C B
s is
ĠâĢ Ŀ
Ġprest igious
ry ing
Ġneg lect
Ġbo ots
ĠEvery thing
Ġward robe
Ġtour ists
ĠFollow ing
ĠM aking
tain s
g reg
it ations
are r
Ġco aches
ĠPay ment
Ġfin ishes
Ġf ence
ĠNig er
nes ota
Ġcred ibility
ĠK y
Ġth inks
se ason
Ġa ids
IT H
Ġrecommend ation
Ġfing ers
Ġpresent ing
Ġveter an
ĠTe xt
Ġspectac ular
Ġgall ery
Ġf ed
Ġintrodu cing
ĠSol ar
Ġdisc rimination
Ġt ags
Ġc ush
ĠS em
Ġsk incare
us al
ĠC hen
ĠV eter
ĠN O
Ġsurve ys
ĠInd ividual
Ġtrail er
Ġcor onavirus
Ġsh ips
Ġdem ocracy
ĠO pportun
ĠEn c
Ġl ung
rain ts
4 3
et ch
ĠE ric
Ġb eds
Ġland l
Ġst urdy
Ġkn ock
Ġven ues
ĠC ancer
at oes
ĠT R
ĠN FT
Ġden ied
ĠN ic
ĠYou th
Ġfro zen
Ġprem ier
Ġcomprom ise
ĠS ab
Ġepis odes
ĠC T
Ġcan vas
A ct
Ġconflic ts
Ġpursu ing
ĠCle ar
ĠS port
Ġr itual
Ġoptim ized
D I
Ġle aks
Ġch ip
Ġsing ing
Ġst ones
In vest
ĠReview s
Ġdispos al
âĢ¦ .
Ġinc orrect
ĠB ell
Ġhead ed
Ġshel ter
ĠMedic are
P ay
Ġcomp os
Ġtr anqu
Ġintern ationally
Ġ9 9
Ġdis advant
Ġcl ip
Ġdes per
Ġbreak down
or i
Ġgam ble
Ġl oop
ud d
o a
Ġfat igue
Ġsat ell
ĠO s
Ġconsult ant
Ġsatisf ying
Ġexplan ation
g ame
Ġsched uling
Ġreflect ed
Ġe uro
ig s
ĠM ail
ĠAust in
Ġe ars
Ġunauthor ized
Ġcur ve
Ġaccount ability
Ġcustom s
ĠN AS
Ġgen re
ĠVictor ia
D ay
ild ren
Ġimpact ed
C all
ĠPr ince
Wh ich
ĠCar l
IG H
ĠDe ep
ĠM agn
Ġranking s
am ine
ĠDef ense
Ġun pre
in du
ĠRad io
ol i
Ġle mon
Ġde emed
Ġpen et
Ġfer til
Ġb ones
cons cious
Ġbas ics
Ġmod ified
Ġbr anches
um bers
Ġpe pper
Ġmod erate
ĠA y
ik a
Ġmat ure
Ġpar alle
ĠPhil adelphia
a ud
Ġre im
Ġve gan
Ġneg lig
Ġtrans it
Ġtown s
ĠCert ified
ĠH appy
Ġg ad
Ġshe ets
Ġsport ing
end ers
ĠS ound
il ton
ĠVal ue
ry st
Ġre ven
p aced
z ens
Ġkne e
Ġold est
Ġport ray
ple x
ele br
r ange
am ily
ĠM oh
ĠWith in
ĠColl abor
p ur
Ġt iles
Ġin hib
uc ks
ĠH as
S W
o z
ĠPay Pal
Ġcaut ion
ĠAs sembly
ira ble
th od
ĠP H
Ġbreath taking
Ġres et
Ġcharacter ized
Com p
ĠOrgan ization
ĠChe m
am el
ĠJ er
Ġthe ft
Ġansw ered
ĠDemocr ats
ol en
Ġ200 1
Ġg el
ow ed
m ith
Ġch airs
Ġbrother s
Ġto y
Ġbe ll
ĠN ation
ĠR isk
Ġre nov
ĠIsl am
h igh
Ġcorpor ations
Ġoccasion ally
Ġagg reg
Ġassign ment
ric ts
Ġcreat ures
Ġende av
ĠAn th
om atic
Ġasp ir
Ġpursu it
ĠMain tenance
ĠAll iance
Ġcook ed
s ervice
Ġworld s
Ġvend or
! "
Ġstream s
Ġref ine
ĠFore ign
Ġpre ced
ound ing
ĠAl ong
ĠWin ter
Ġnur se
in ction
und ry
ut es
Ġpublic ations
a ire
ĠB E
Ġsimpl icity
Ġend orse
Ġident ical
OR E
ĠMel bourne
un es
Ġr anges
Ġphotograp her
Ġgrat itude
Ġc ups
Ġtal ents
Ġqual ifications
ĠT an
ĠC orn
ĠJ ordan
Ġt we
ĠG ro
ĠF ab
ĠPrem ier
ĠP erson
Ġrein force
J ohn
Ġattend ees
Ġport ra
P s
Ġstru ck
Ġalign ed
ĠBel ow
Ġresc ue
6 7
Ġr ings
Ġ19 70
ĠRes pons
Ġcomb inations
Ġrecyc led
Ġpain ful
ain ed
Ġrad ical
Ġsophist ication
ĠUk rain
Ġesc al
Ġd ump
int erest
Ġan ch
Ġmand atory
ĠT ree
Ġstart ups
oun ge
Ġdiam ond
Ġlearn ers
Ġre aches
Ġad here
ĠSt orage
Ġmusic ians
ĠCult ure
ĠClass ic
ĠBe yond
Ġnation wide
Ġpres idential
ĠAtl anta
Ġout lined
ĠVis a
Ġcoast al
ĠJ r
B el
ĠL ew
ĠC F
Ġas semb
Ġgu ilty
ĠEv ents
ast y
ĠTur k
ĠA venue
on ia
elt a
Ġg ay
Ġfre el
Ġcirc ulation
ĠEd itor
ru p
ĠTh ailand
ĠArt icle
ab lish
D id
c al
ĠD rug
ĠLead ership
ul ates
ĠM anchester
Ġb ree
ver ages
Ġtr icks
b ered
Ġbene ath
1 50
Ġmoment um
Ä ģ
writ ing
f in
Ġdeal ers
Ġposition ing
Ġlic enses
ĠTra ck
ĠD utch
P D
Ġma j
ĠE sc
Ġcontin ually
Ġelect ro
Ġsh ifts
Ġc rop
Ġfant asy
Ġdestroy ed
he ll
Ġmerchand ise
ail ed
Ġdem ocr
ĠBre ak
Ġsubs cribe
Ġaccompl ished
Ġsh ades
ag raph
Ġw ines
Ġco ating
ĠApp ly
ĠAN Y
ĠSub s
ĠO regon
ĠS ER
ĠU AE
Ġvolat ility
Ġthr illed
he nd
Ġc ord
Ġbase ball
ĠUp d
Ġenjoy ment
Ġcorrespond ing
Ġreg ime
ĠJ ess
ĠSar ah
M ain
Ġher bs
Ġmar ijuana
6 00
Ġhand les
Ġcru ise
Ġn est
ĠG ummies
res istant
Ġadvis or
Ġtre asure
ĠB ot
Ġnot ify
ĠFr ont
Ġbi ological
Ġst abil
cl osure
Ġinquir ies
Ġol ive
r ine
ĠIns pect
Ġp izza
Ġpres erving
ĠEnviron ment
Ġcamp ing
Ġwid th
Ġthought ful
Ġv inyl
Ġrec ur
Ġvol umes
Ġt u
Ġpay out
Ġcosm etic
mind ed
ĠS ide
Ġt ort
ĠMin nesota
ab s
Ġinc om
Ġorder ing
Ġsp are
Ġaff airs
Ġelectron ics
Ġviol ation
Ġsub mission
ĠCl ient
Ġsequ ence
ĠB ern
Ġpain tings
Ġ ic
Ġbra ce
A c
Ġdig it
R ef
r ors
f irst
Ġen ch
ĠS aint
ig e
Ġcur ated
Expl ore
ĠL ess
Ġinterpret ation
Ġun ve
Ġexp ed
Ġp acking
Ġsn acks
Ġpenal ties
Ġcapt uring
c ar
ĠNet her
Follow ing
Ġfoot age
Ġabsor b
st ic
Ġ4 2
Ġlist ings
ĠH u
Ġtem por
ĠBro ther
tr ans
ĠDe pending
Ġvisit or
Ġsn ap
Ġmeticul ously
ĠCl imate
Ġpre val
Ġstay ed
Ġsett led
Ġc ig
are t
Ġpartic les
Ġexecut e
ĠBro ok
Ġlabor atory
ĠL anguage
M M
Ġre ct
ĠG ree
Ġnot ification
Ġpip es
er ted
t ered
Ġre de
ĠRep resent
Ġl ibr
ĠV ision
Ġsoc cer
Ġd os
im a
ĠIndust rial
Ġpenal ty
ent er
Ġminim izing
D R
ĠSt yle
Ġpossess ion
P res
ĠBl og
ĠAf ghan
Ġn it
ĠF red
ĠHy d
is ers
Ġf ut
ĠS ave
Ġdevot ed
Ġdest ruction
Ġunder go
ps on
Ġgar lic
ug ar
ĠPar liament
ivid ually
Ġimp ressed
6 8
Ġharm ony
Ġ6 00
Ġdemonst rates
Ġlaunch ing
ĠC reek
Down load
m od
Ġtrust worthy
Ġpract icing
ĠAL L
Ġl ighter
Ġspecial ty
Ġincorpor ated
Ġins ure
Ġgener ator
g ov
ĠM ust
Ġaccom pany
ĠAr m
F F
Ġbu g
Ġdraw s
or ious
ener y
ĠI V
F requently
Ġind irect
ĠIsl amic
Ġ( @
Ġdel iber
ĠHar ry
at ar
Ġ3 9
Ġnews paper
ĠSt ream
isc ons
Ġapp le
Ġmod ules
et ts
ĠV R
he art
ĠTechn ologies
Ġupgra des
ĠP L
Ġattempt ing
are st
ĠHealth care
our cing
P ub
ĠCustom ers
iscons in
x y
ĠRes erve
Ġhe nce
ĠB esides
Ġadvoc acy
Ġhe ights
Ġpresent ations
Ġco pper
Ġco ordination
ĠPa per
Ġlifes pan
ard ing
ow a
ĠM om
Ġproceed ings
Ġthr iving
Ġfest ive
Ġnot ifications
Ġ3 60
Ġconnect s
Ġin k
Ġstra w
ced ented
ĠS ex
Ġstri p
Ġdef ensive
ĠS ale
Ġmat hemat
ĠNet flix
ach us
ĠTechn ical
E mb
6 4
ĠHall oween
ĠTra il
Ġelig ibility
es y
Ġspecial izes
Ġgr asp
ĠH ills
ĠCh apter
ĠSy m
Ġder ived
ĠE ve
Ġcap s
ĠS E
eto oth
ĠD allas
Ġmechan ics
C ar
f ocus
p res
Ġin her
Ġar med
ĠPol it
ĠDe b
Ġdisput es
Ġtex ts
ĠE N
Ġsustain ed
Ġsubst itute
unn els
Ġpress ing
Ġman ually
Ġtestim on
ĠCom plete
Ġguid ing
Ġh al
Ġsing les
Ġz ones
ĠY eah
Ġevalu ating
Ġg ene
Ġsubscrib ers
com ed
Ġconf usion
d am
pro f
Ġprom ised
Ġcar go
Ġcr icket
ĠP urch
Ġprogram mes
Ġnut s
Ġd iving
Ġg al
Ġoff line
Ġsynt hetic
ĠR oof
Ġinter ventions
ĠPl ant
Ġund oubtedly
ĠAtl antic
Ġd amp
Ġuncom fortable
um ph
aw ays
Ġapparent ly
Ġmetab ol
Ġw elfare
Ġg est
Ġorgan izing
Ġt ube
tain ment
Ġrespect ed
H ome
Ġlicens ing
Ġl in
Ġparam ount
Ġsa ves
Ġmar king
Ġshowc ases
ĠA qu
Ġcon ce
Ġsepar ately
Ġse min
ĠProv ide
C reate
E l
Ġnon profit
Ġdiv ine
Ġor g
acc arat
Ġlend ers
ĠB ah
ĠChair man
Ġsitu ated
IC E
AL L
off s
Ġlegend ary
Ġfree ly
ol k
Ġsusp ension
Ġload ing
ĠP it
ĠC ell
ĠSl ots
ĠFor um
Ġsens itivity
Ġtherap ist
ĠImpro ve
Ġrel ate
ĠD ays
Ġma kers
Ġcom edy
ĠL if
ixt ures
Ġpharm aceutical
op es
Ġdis ag
ĠW il
Ġdistribut e
Ġsp oken
Ġcur iosity
ĠFA Q
ĠMalays ia
Ġg ri
Ġmaintain s
Ġcont amin
Ġexhib it
Be ing
ĠN ear
ĠDou ble
ĠEnh ance
Ġadvance ment
ĠPhilipp ines
at ches
ĠE ver
ap h
Ġend uring
ist a
Ġbet t
Ġnegot iations
ĠDet ails
Ġnutrition al
ot es
Ġan ger
Ġball s
Ġout lets
ĠR os
ĠWhats App
D el
ĠC ome
Ġinform ative
e lect
Ġpropos als
Ġhousehold s
C al
s ur
Ġtremend ous
Ġper pet
Ġneighb ors
ret t
Ġvess els
af ood
Ġsmart phones
Ġout er
ĠSpe ed
Ġt ong
Ġf iction
ĠHen ry
Ġunw anted
Ġjack et
Ġrep ly
Ġref ined
Ġpay outs
ĠSk in
achus etts
Ġre ass
Ġvot es
ak i
Ġrepl ica
C are
Ġveter ans
qu ire
Ġcreat or
oen ix
ĠK ind
Ġc oding
Ġaccept ing
Ġmain stream
Ġh ired
9 8
Ġtem ple
Ġparticip ated
Ġinspect ions
Ġd ried
ĠChrist ians
ĠM uch
ĠJ am
Ġ8 00
Ġmach inery
int end
ĠSa udi
Ġlock ed
im s
ur u
Ġdiscl osure
Ġacceler ate
b led
ĠT a
se x
ĠM ission
ĠB an
at ter
ang le
Ġp atch
ĠCo ffee
Ġsl ide
au x
P ersonal
ĠUn it
à ¥
ĠThe atre
Ġfit ting
l ades
h u
Ġprem ises
ĠP ath
pl aces
Ġen emies
M O
Ġeduc ate
ĠGr ant
Ġ vel
Ġinstitut ional
ĠStr ong
ĠPr int
Ġex quis
ang el
Ġnot ing
Ġform ing
Ġrhyth m
ĠCommun ications
Ġscholars hip
W ant
ĠL arge
Ġmet als
Ġsho e
p in
Ch rist
ic hes
Ġdes criptions
v ard
Ġmod es
im m
Ġst amp
Ġcompet ing
Ġprote ins
Ġto kens
Ġaccess ed
ĠG ift
Ġcomp osed
ĠOff er
Ġking dom
ĠNether lands
Ġposition ed
Ġpip eline
a ired
ĠJ enn
l ay
et ed
ĠMa jor
Ġr ated
w ill
ĠR and
Ġattract ing
Ġseem ingly
Ġpet ition
Ġflow s
Ġdo zens
ke eping
ĠF DA
ile y
Ġinstall ations
Ġblog s
ĠR ome
0 8
Ġg onna
Ġcred entials
Ġg room
ĠII I
ĠMat thew
Bl ack
ĠKe vin
a S
im ens
ĠS ant
ĠSc ient
Ġclim b
h ot
Ġdash board
ick ed
eng er
ĠE c
the y
ĠR og
ĠD V
S ocial
Ġref used
ĠW ilson
U I
is hers
Ġviol ent
Ġbrow sing
ĠF resh
Ġt ent
ĠD un
Ġembed ded
ĠC raft
Ġtournam ents
Ġo m
M in
H L
Ġind ividually
ĠOver all
Ġelimin ating
Ġre vers
Ġel ite
Ġfail s
Ġn our
Ġmix ing
Ġrig orous
2 50
I ES
ðĿ Ĳ
ass ment
ĠT es
oc key
Ġsurve illance
ass es
Ġunpre cedented
ĠM ov
add le
ĠM and
Ġver ified
ĠT rib
ĠTem ple
9 7
S ub
le e
ĠDav is
Exper ience
L a
Ġsol ving
Ġep ic
sh ire
Ġwh is
Ġle nder
Ġign ore
ĠMag azine
d on
Ġdefe at
ĠiP ad
Ġclaim ing
employ ment
ur able
ĠG aza
Ġrom ance
Ġt ropical
ĠEnter prise
ĠGall ery
ï ¸
ĠC ub
Ġper ceived
% )
ish op
Ġfear s
ar ound
Ġvol unt
Ġprov ince
ĠMin i
ĠC rit
ĠB ru
Ġlab our
Ġmin eral
Ġpat ent
ĠMar c
ĠPh arm
Ġsome how
omet ric
Ġte nds
Ġaccept able
Ġback l
Ġanticip ate
r idge
Ġbur st
Ġd ict
Ġint r
Ġch urches
e z
ĠI C
ĠB rian
ĠR out
ing e
ĠF ashion
Ġoff ense
oid s
v ance
ĠMary land
Ġcomprom ising
Ġwe ird
ag a
ir atory
vis or
W E
Ġbe ings
Ġcustom izable
ĠHer itage
ĠN C
Ġsc oring
row s
Ġg ross
IL L
spe ed
ĠC ou
ĠD ise
Ġac ids
Ġresil ient
ific ates
Ġcy cling
Ġloc als
ĠFoot ball
Ġregard ed
Ġcabin et
ĠN avy
Ġst eal
Ġse gments
ell ery
li est
ath on
ĠEmer gency
ab ad
Ġpat io
v o
Ġfold er
Th ose
Ġpractition ers
ĠF urther
Ġh unt
il i
ier ce
Ġ( $
ĠI B
Ġbeg un
Ġsen iors
ĠW isconsin
orient ed
ph y
ul ator
ĠS ource
ĠAd just
ov a
Ġret rie
Ã ¨
Ġblock ed
ĠB aby
ĠF inal
Ġattend ance
Ġinf ring
. '
Ġann oy
Ġs its
Ġany body
ĠS ix
Ġanc est
Ġcoc onut
ĠC ool
Ġdecor ative
Ġfost ers
Ñ ģ
Ġb inding
Ġparticip ant
Ġcust ody
ĠZ oom
ĠAg ricult
ĠT alk
ĠR V
Ġc ure
Ġpass age
Ġwel comed
Ġbank rupt
ĠA ch
ess ional
Ġv ocal
Ġfor ums
Ġ8 5
ĠChampions hip
id th
Ġtim eline
B usiness
ro ck
Ġcar b
Ġnecess ity
Ġsepar ation
ĠComp uter
Ġelev ated
? ?
Ġam bit
itzer land
Ġfail ing
Ġre novation
Ġpa ired
Ġod d
w ind
ĠJ osh
Ġlit igation
Ġtro ops
Ġacad em
Ġab ortion
Ġc af
Ġbar rel
Ġeduc ators
ĠVe h
d d
Ġt ones
Ġgrocer y
Ġboost ing
b es
Ġwater proof
ĠPh one
v able
Ġar ising
ograph ical
Ġt une
Ġhor ror
ĠMill er
Ġdecent ral
Ġfriends hip
ĠH arb
Ġshel f
Ġcolle ges
az ed
ju ven
Ġw ages
if ice
ĠSk ills
Ġdr um
M T
ag an
Ġve t
0 2
ion ed
ĠB uff
Ġadv ances
Ġaw a
ge red
ĠGu id
Ġd ancing
Ġelder ly
d ale
iet al
Ġrank ed
ap or
Ġkey board
Ġic ons
if iable
igh th
Ġrem od
G PT
ĠB ureau
au ge
ĠR oll
it udes
ipl inary
Se lect
ĠB irth
Ġdiscl ose
cure ment
Ġra b
ĠMan aging
f ly
Ġenthusi asm
ĠRev olution
Ġf ool
Ġopt ional
ĠSchool s
ĠDy nam
ribut ion
Ġconst raints
Ġclim bing
Ġconsum ing
Ġsc roll
Ġprofessional ism
Ġsurv iv
Ġsh adow
Ch oose
Ġst roll
Ġpres cribed
pt ic
ĠPe ace
op en
Ġtext ures
arb on
ĠT ony
ĠW E
ĠK a
ĠOr ange
Ġda unting
0 7
Ġg rey
ĠA V
Ġra ck
Ġprec aut
ropri ate
S l
h o
D ec
ĠR ail
k ed
r ative
Ġadapt ed
Ġconserv ative
Ġarr anged
ĠDep osit
Ġtradem ark
Ġj aw
P G
er b
ĠW as
Ġpr iced
Ġorient ation
Ġphenomen on
m o
Ġspecial ly
ĠMass achusetts
ĠTH C
Ġa ug
Ġstreng thening
Ġload ed
Ġauthent ication
ĠMe anwhile
ĠA part
Ġforest s
Ġm ig
Ġmus h
Ġcounsel ing
Ġeas iest
Ġgradu ated
Ġd ough
Ġattract ed
Ġt ires
ĠC V
ĠIS O
Ġconf erences
Ġter rible
ĠW ars
ac co
Ġcompan ions
Ġb orders
pt on
oo re
Ġcitiz en
ĠMaterial s
eng es
Ġcor ners
Ġinter pre
Ġconcent rate
Ġtatt oo
L O
Ġreview ing
ĠC ape
Ġex pend
ĠAnt on
Ġn ails
Ġ199 9
Ġtra ce
ĠRepublic ans
ul in
Ġgr an
r imin
ĠK ansas
en z
Ġcou p
ĠEl izabeth
Ġsacr ific
Ġf iscal
A ccess
T O
ĠW elcome
ĠG as
Ġb illing
ĠO ften
Ġst olen
Ġin box
qu est
c am
Ġdes erves
Ġcomp ounds
S te
Ġse vent
Ġst roke
ĠR ather
ĠUkrain ian
Ġthe atre
Ġquick er
bu ilt
anc ers
med iate
y es
Ġdo zen
T able
Ġr anks
Ġres erv
Ġst ains
oc a
Ġpasseng er
p oke
ĠN BA
get ic
Ġsche mes
Ġhyd ro
Ġaccount able
Ġfit ted
em ade
ĠE D
Ġmarket ers
Ġtr ies
ĠBer lin
ĠR ain
Ġup s
ĠD iet
Ġdes ert
Ġbu zz
Ð ¿
ĠE ag
Ġpr on
Ġcritic ism
ĠBang lades
Ġim aging
ĠBl ood
ĠCon n
ĠC oin
i rop
Ġout line
In tern
Ġpul ling
aver ing
D irect
ĠK u
L ife
Ġsc ent
ird s
ĠCy ber
ĠS MS
irm ing
Ġtit led
Ġcontroll ing
9 6
pl ing
Ġsal ad
Ġlif ting
Ġm g
ï¸ ı
there um
Ġab stract
Ġd ensity
Ġret ired
Ġambit ious
Ġact ress
Ġfinancial ly
Ġpr one
Te chn
Ġp ockets
th on
Ġjoin ts
ĠOper ations
F OR
ber ries
Ġir re
ĠM eg
reed om
ĠBel g
ĠR ole
Ġcomp ound
Ġra cial
ĠI oT
ĠÂ ©
Ġs ink
Ġhad n
ĠLad y
m ain
re ation
Ġcounter part
se a
Ġcar p
Ġemphas izes
Ġcontroll er
iov ascular
A tt
Ġsimpl er
Ġj ury
ĠX ia
W atch
Ġclean ed
ic ular
Ġk its
Ġhope fully
ick ets
ĠW ire
Ġkil omet
Ġth y
ond a
Ġcompet itions
Ġste ep
rupt ed
ĠRead ing
ĠSe attle
u ity
Ġn od
ĠKen ya
D PR
ĠB ab
Ġr ug
Ġswe at
Ġb icy
Ġvisual s
L D
Ġt ale
Ġregul ate
Ġbu gs
place ment
Ġded uct
Ġwithdraw als
ĠM ort
âĢ¦ ]
Ġvot ed
0 6
Ġfe as
Ġmotor cycle
Ġhaz ards
qu er
Ġactiv ate
Ġfund ament
G reat
Ġmind ful
ĠCar ib
olit an
ĠS everal
Ġstand out
Ġsubmit ting
ĠS ure
Ġhand ful
Ġenthusi ast
h ar
ĠK itchen
Ġm ouse
ĠP ed
ĠAd ditional
ĠE dition
ĠH ay
V P
c ode
ĠS ud
0 3
Ġbenef ic
ect ed
al m
St ay
Me et
Ġprohib ited
Ġsil ent
ix el
Ġdownload ing
ĠCorpor ate
n ut
Ġattempt ed
ĠJ ay
ĠIn iti
Ġreson ate
s l
ane an
Ġexquis ite
Ġ19 60
Ġpositive ly
Ġl enses
ï ¼
Ġf oss
Ġwond ers
Ġfall en
Ġmod ifications
Ġoppon ents
ĠN ob
ĠO cc
Ġresol ved
ĠF ive
nt il
ac ent
rit is
ĠC C
ĠW ITH
pos ition
ĠRes ults
S ource
Ġd irty
ĠF it
ĠU til
Ġhum idity
O pt
Ġcy cles
Wor ld
Ġcabin ets
F orm
ĠI ron
Ġex h
Ġsuper b
Ġtroubles hoot
e u
Ġprom o
ĠT arget
Ġlive ly
li ant
ubs cribe
ĠBlu etooth
s ize
re hend
aff e
ert ility
Ġsto pping
Som etimes
Ġm asks
ĠMex ican
ĠS ens
Ġconscious ness
Ġdepart ure
d f
Ġte aches
ĠT el
Ġst oring
op her
pl ate
Ġla undry
ĠP il
Ġbelong ing
ĠS now
ĠPh oto
ĠH P
Ġexam s
Ġdownload ed
Ġv iral
Ġstrict ly
irop ract
Ġback yard
Ġdiagn osed
ĠS ri
y our
ĠInd ex
Ġupd ating
Ġre nd
U C
Ġpol ished
Ġindic ating
Ġpsych ology
ĠDrag on
m ate
Ġprot oty
he ld
ot te
ĠEss ential
T E
Ġback drop
Ġdram atically
ĠN a
ĠB ath
Ġch ol
ĠD elta
The ir
p ers
p ost
ass ador
ĠCon c
b n
Ġin hab
own er
Ġmagn etic
ĠEd ge
Ġparalle l
ĠIs lands
ĠS ay
Ġreason ably
Ġpick up
ĠRec overy
ness ee
Ġlend ing
l ah
Ġarg ued
Ġcapt ures
Ġcat alog
Ġabund ance
ĠD oor
Ġtrans mit
Ġre cept
Ġvar iation
Ġsh ifting
ĠPro s
ĠProgram s
Ġindic ator
ĠP ear
ĠB ooks
Ġsn ack
ĠN ative
Ġshould ers
ĠDo ctor
n ormal
W ork
Ġthe ore
ust ral
ĠChall enge
Ġp ension
ĠD ra
all ing
ch ron
Ġspread ing
Ġfest ivals
ĠPrinc ip
Ġthe ater
Ġre vel
Ġdeb it
Ġmagn ific
ĠC art
ĠSustain able
Ġne at
Ġstress ful
anc ies
ur ate
Ġd airy
Ġj ail
Ġhyd rogen
Ġanaly sts
imp se
Ġass ists
Ġexpl ored
ows hip
Ġspons ored
l iness
ĠEm pire
Ġ4 9
Ġadjust ed
Ġval ve
Ġautom ate
Get ting
ont al
Ġdecre ased
ĠP ict
Ġvar iable
Ġang ry
Ġdefend ant
Ġpl aint
nat ural
o ard
Ġcount s
f alls
Ġp el
Ġal erts
Ġext ensions
ĠBra d
Ġnurs es
R eal
Ġass urance
Ġbuild er
st ock
Ġstress ed
On ly
Ġunw avering
ct ic
el and
Ġsports book
ĠF ix
Ġter rain
Ġma ker
Ġclos ure
ĠE ye
Ġpl ates
ĠTh ai
Ġcro ps
ĠDe al
Su pport
p apers
Ġb out
Ġrep et
Ġpar agraph
ĠCons umer
Ġrepeated ly
ĠB ag
ĠMeet ing
Ġmar gin
Ġcompar able
Ġgl oves
ĠSer ver
ou ver
ab lished
Ġr ival
Ġhard ly
ke ep
Des ign
pl us
Ġcirc ular
Ġhum or
Ġargu ments
ĠW ould
ĠMag ic
ad ays
v als
Ġfl oral
Ġjournal ists
Ġpropri etary
Ġp ants
ĠBud get
Ġth resh
ĠMic hel
Ġd imin
ĠCh rome
ĠJew s
Ġpra ise
r ons
in ance
es is
Ġassoci ations
Â ©
Ġhe ater
ĠH ERE
ush ing
inc ol
Ġdry ing
Ġr iders
Ġemp owers
M W
ĠB Y
Ġdim ension
ĠEqu ipment
ĠBeaut y
Ġcomm od
wh o
Ġroll ed
Ġisol ation
Ġacknowled ged
Ġche er
ĠG reg
AS E
ĠM L
ĠW y
Ġmis con
ĠB urn
Ġup set
ry lic
ĠAssoci ate
ĠSec ure
Ġforg otten
ĠH ur
Ġaccess ory
ov al
Ġsec urities
Ð ¸
ch air
Ġfavor able
ĠC ann
ĠB egin
Ġdiscover ing
Ġproport ion
te xt
Ġcorpor ation
Ġl ips
ĠWrit ing
Ġdiam eter
Ġm unicipal
ĠN eg
Ġre lying
Ġst ere
Ġdis abled
US T
0 9
m ap
Ġs orry
Ġsh r
Ġth irty
Ġexecut ed
Ġ4 4
f eed
Ġprofession ally
fl amm
Ġwra pped
Ġviol ations
gg ed
Ġprin ter
s ers
ĠSw itzerland
-- --
ĠFriend s
Ġp airs
Ġm ira
hy d
Ġvib e
ĠN ep
Ġexecut ives
Ġperform s
j ud
Ġm as
ĠS ong
ĠS O
ĠVis ual
b ul
Ġjournal ist
Ġsmo other
focus ed
Ġemer ge
ir k
ĠF at
Ġreject ed
Ñ Ģ
Ġm es
Ġstri kes
Ġemp athy
Ġsoc ietal
Ġreson ates
ĠCare er
Ġadop ting
ĠCh annel
Ġrem edy
Ġcare g
Ġdocument ary
craft ed
Ġpot atoes
!! !
p oints
Ġchart s
d ings
Ġg host
Ġent ries
or ia
Pro duct
Ġdigest ive
ĠG ate
Ġbare ly
g ence
ĠL ooking
ĠN G
ĠH an
Ġl over
Ġtra its
Ġatt raction
ĠZ ero
ĠSim ple
ĠSet tings
ĠF ram
C reating
m g
it err
anc ouver
Ġten ants
Ġfarm s
ĠIm age
ĠCas inos
Ã Ĥ
ou ri
Ġrad iation
m outh
out heast
Ġret ro
D et
Me anwhile
Ġeduc ated
Ġl es
Ġg ang
En h
ĠBr ight
AC T
Ġpool s
ĠNever theless
ĠLic ense
Ġcha os
ĠJ ason
Ġgovern or
Ġr ides
Ġnever theless
Ġmil estone
Ġassess ing
j o
ĠInd igenous
ĠSc reen
ĠP ow
Ġref use
Ġpers u
Ġcompliment ary
ĠB arn
Ġra ises
om ic
ĠR oss
Ġallev iate
Ġg ig
Ġ ~
Ġcl icks
Ġhom eless
Ġf ancy
Ġh ike
ĠD omin
ĠH ence
Ġconsult ants
Ġwitness ed
T ips
ĠR TP
Ġma x
Ġinn oc
ane ous
Ġreported ly
Ġtra des
Ġconsist ing
Ġnob ody
Ġphr ases
ĠL iver
Ġtherap ies
ĠAct ive
ĠIndones ia
Ġbed rooms
ĠRest aur
ĠH om
Ã §
um ble
Ġun fortunately
ĠSw iss
ĠMem orial
Ġsour ced
0 4
ĠA th
ĠP ad
ĠRec ogn
Ġbehavior al
ĠCarib bean
ĠH ousing
ast ics
Ġsoon er
Ġth ro
em n
ĠRes ort
f are
Ġbl ade
Ġremote ly
el ong
Ġins ert
Ġathlet ic
Ġsimpl ify
ĠB io
Ġbegin ner
u its
Ġt ile
ĠOther s
ĠGet ting
Ġfol k
ĠV A
K now
Ġis lands
ab out
Ġcancell ation
ĠD ave
Ġb itcoin
Ġcalcul ate
Ġprofit ability
oll ar
er gy
Ġbl ame
ĠS cholars
Ġj et
S w
ĠRequ ire
Ġstream lined
Ġapplic ant
ĠB ush
Ġl ush
Ġhold ers
ĠMar ine
Ġmother s
Ġout let
iz ers
ĠQ ual
Ġdatab ases
Ġequ ality
Ġo z
Ġrecogn izing
Ġbi kes
ĠE C
Ġclass ified
ĠShe l
v ia
ĠF ile
Ġlog ic
ab ama
er ie
ĠG PS
ĠW olf
v ation
ĠCast le
Ġwr ink
ros ion
Ġgl ory
ĠCur rently
ĠB row
ĠL ocation
Read y
l u
Ġb om
Ġcommit ments
Ġrevolution ary
Ġtear s
C opyright
ĠT aking
Ġsac red
Ġm art
b urn
Ġst ating
Ġcomp aring
ok er
ĠB us
Ġfundra ising
Ġoppon ent
D ef
Ġrespond ing
ens ed
ĠEnter tainment
Ġworkflow s
Ġhand made
ĠConst itution
Ġpu zzle
Ġhold er
ĠYear s
ĠC old
Ġhorm one
connect ed
h ouses
Ġfavor ites
Ġfab ulous
Ġweb inar
P at
ĠP in
D av
ĠB BC
ĠG iven
Ġh oly
st orm
ĠC ream
ĠR ap
ĠCl aim
Ġcert ifications
Ġint ensive
Ġapart ments
Ġmedic ines
Ġexpect ing
ĠSum mit
c oin
ĠI owa
Ġwa ist
Ġsuggest ing
ĠUt ah
5 9
Ġfail ures
p ed
Ġ[ âĢ¦]
Ġgr ay
Ġinflu ential
arr ings
B ey
iv est
ĠL iber
Ġbr ide
Ġconf used
app ro
ĠFl oor
ĠG raph
ĠKnow ledge
F unnels
Ġbul let
umn i
ĠTest ing
ĠTen nessee
ĠBanglades h
ob s
art z
Ġcomp liant
Ġcou pled
IS T
Ġfirm ly
b one
Ġre juven
ĠSt ra
ĠK elly
Ġac res
b ase
ne ath
Ġveget able
iterr anean
Ġg ast
Ġut most
Ġconvers ions
ĠF ish
ĠU C
ins pired
Ġc a
ĠD ry
Ġprob ability
Ġp iano
Ġbl o
ester ol
M arket
ĠPlay er
Ġs oup
ĠL ock
Ġvulner abilities
6 9
Ġdist ricts
f und
Ġadvis able
Ġdu pl
ĠInstall ation
Ġgl impse
Ġfragr ance
G en
Ġtravel ling
Ġworth y
Ġframew orks
ĠM ental
Ġbree ze
Ġfacilit ating
Ġmethod ology
Ġstrateg ically
Ġill umin
P E
ĠH IV
C as
o ft
Ġacc ent
Ġbudget s
ĠSche dule
Ġwarn ed
ĠReg istration
Ġdelay ed
ĠTit le
h ist
Ġs am
ĠTrans fer
Ġinfluenc ers
Ġpast e
ĠJ ane
IN E
Ġprivile ge
Ġv iable
Ġc ables
ĠE thereum
Ġdevelop s
att ered
man n
ĠTurk ish
ĠB rew
Ġle cture
Ġjud ges
Ġse rene
Ġun l
e em
Ġadapt ation
Ġdeploy ed
Ġfort une
Ġ4 7
Ġrep rodu
Ġto ll
Ġnurt uring
Reg ular
Ġ6 4
Ġlim itation
B L
Ġener getic
Ġfrust ration
Ġl ou
Ġplay ful
Ġs ail
sh ot
Ġalleg ations
ĠPh oenix
sh ine
Ġb in
ĠOlymp ic
Ġrecre ational
Ġcer amic
ĠFe ed
ĠInd eed
ct uary
by e
Ġsear ches
ĠF le
De velop
ĠAd vert
K E
Th ough
ah a
ĠPat rick
h r
ab i
ĠIn v
Ġperf ection
Ġcateg or
Ġnutri ent
if iers
ĠHar vard
Ġtang ible
oin ting
m ers
Ġl obby
Ġimpact ful
ĠReg ion
Ġpolit icians
st an
ig ma
Ġprov in
Ġjack pots
se en
v i
ĠB ull
Ġpass port
ĠM atch
ĠAd s
Ġplant ing
Ġsil ence
H z
in th
ĠCom merce
ĠMult i
ĠW orth
per formance
old ing
ĠS ac
Ġsh ame
Ġr h
Ġcat aly
ĠJour ney
cer t
Ġin e
as is
ant ry
Ġimpl ants
ĠP odcast
v ens
Ġp ear
L ook
U l
on al
Ġdirect ory
Ġlock down
Ġinv itation
ĠSim on
Ġrout ines
Ġman ages
pro duct
bur se
In s
Ġsum mar
ĠSing le
ĠSpe cific
g ate
In ter
m art
Ġk iss
comm un
ĠHig her
Ġl uc
um atic
Ġdiagn ostic
ĠGree ce
om ed
Ġresp iratory
Ñ Ĥ
m ad
Ġf ixtures
Ġor chest
ar king
un s
ĠB achelor
Ġp ine
Ġadjust ment
Ġspons ors
Ġlibr aries
S H
xim ity
Ġm ad
sh aped
ro it
Ġexam ined
ĠS EC
Ġble nds
ĠStep hen
O pen
ĠH omes
Ġterm inal
Ġspir its
Ġqu ery
bs olute
ĠIndian a
ĠDiam ond
Ġd ign
Ġadjust ing
ĠPalestin ian
Ġsent iment
Ġf ract
Ġar c
Ġdu ct
ĠIm agine
Ġn erve
Ġunder ground
Ġpot ent
Ġout reach
Ġb omb
Ġes cap
Le vel
ĠCh oosing
Ġhand ed
IT E
Ġ199 8
ĠR ange
Ġsk ip
Ġsuper vision
ĠLew is
ĠI RS
ip es
Ġreve aling
Ġencount ered
Ġenl arge
Ġtong ue
Ġprocess or
ĠCompl iance
ic ts
ĠG B
ĠTai wan
ky o
Ġdefect s
et ics
Ġunp redict
Ġf ired
ond ition
Ġsepar ated
Ġextend ing
Ġinvestig ations
m other
Ġcontact ed
Ġbal ancing
Ġvari ables
Ġhabit at
Ġcomfort ably
ĠS i
ge nds
ĠL ands
Ġdemonst rating
Ġhon ored
c ore
ĠD ad
Ġsp am
ach t
ĠUp on
g ood
ĠB alt
ĠGal axy
M ax
Ġw ool
Ġres ur
d is
k m
Ġoverwhel med
Ġessential s
Ġt weet
Ġw ing
ar ia
Ġin du
htt ps
Ġout look
Ġsc ream
Ġbe verage
Ġb atch
Ġinst inct
Ġcra w
n i
Ġcor ruption
ĠO bs
ĠThanks giving
Ġel abor
Ġexplain ing
Ġconver ted
writ er
Ġro d
Ġpers istent
Ġpredict ions
Ġmodel ing
f ather
ienc ies
8 9
ĠT otal
Ġall ure
Ġcelebr ations
Ġcream y
ment ia
Ġsc rap
Ġreferr ing
Ġinv ites
ĠClin ic
G e
Ġclass ical
Ġmult if
Ġred ef
mat ched
Ġsatell ite
im mer
Cont in
Ã ±
Ġspons or
Ġse afood
Pro v
ĠBet ween
st age
Ġm os
ĠSim ilarly
lah oma
Ġf t
Ġ4 6
roll ed
g ie
ĠD ig
Ġp unch
igr ant
Ġadv ancing
Ġisol ated
20 23
ĠPal ace
Ġgather ings
Ġfun nel
Ġspr ink
Ġcent res
Ġpaper work
i pper
Ġr ally
ĠSp ins
amb oo
Ġpur ple
Ġc ub
Ġcand le
S at
Ġsurge on
in ite
Ġcle ver
Ġfr idge
E nt
Ġm ud
ĠSn ap
Ġconst itute
Ġdeal t
ĠFe el
U K
ĠCert ificate
Ġtun ed
Ġde ce
Ġen velop
ĠReg ister
z an
ĠCult ural
Ġvess el
ĠUr ban
Ġn omin
Ġconvin ced
Ġp y
Ġsqu ad
ar o
ĠB ring
ĠK han
Ġmyster ious
j an
ĠCo ach
Ġfound ing
Ġanim ation
Ġbreat he
Ġbett ors
ĠSt ri
ĠK am
tra ck
Ġscr ut
Ġl ying
ĠM as
Ġsh out
Ġcur rencies
Ġann oun
Bey ond
ĠRec ords
ul atory
od d
Ġswitch ing
ol s
ost al
Ġgradu ates
ĠTes la
Ġ4 3
Ġbe nd
Ġbo ats
Bu ilding
Ġep id
ĠSpr ings
Ġun ity
ĠLa ure
Ġarr ives
ĠUp date
Ġemphas ized
Ġcol ored
st art
ain ts
ĠE aster
Ġrehab ilitation
ol ph
Ġlegisl ative
Ġvulner ability
ĠJud ge
Ġmiss ions
Ġlength y
H y
w alk
Ġsu icide
Ġheadqu arters
i ants
Ġemb arr
Ġbase ment
Ġeth ics
ĠAssess ment
ĠTra ditional
ĠMed iterranean
ĠShop ify
Ġexperim ents
ĠL incol
od ed
ĠPro p
Ġaband oned
Ġvacc ines
ĠPhys ical
Ġm esh
ĠDesign ed
Ġthick ness
ve t
ott om
Ġg arn
Ġquant ities
ĠBat tle
Ġw ings
Ġsp at
Ġro cks
ĠF u
E st
ĠV ancouver
Ġpo etry
e an
ĠM ale
ĠM arsh
Ġbe verages
Ġemb ro
it ime
ĠHe at
ĠH ung
Ġf ires
Ġb acking
Ġg auge
ĠS weet
os ity
Ġrel ies
umb ai
Un fortunately
F riend
Ġpost ure
Ġwind s
ĠOx ford
ĠR ound
ĠG ulf
Ġsqu ee
8 6
Ġt anks
ess ed
ĠD at
Ġvine gar
N C
m ont
ann ah
Ġthreat ened
i ang
Ġdiam onds
Ġst iff
Ġprog ression
ĠAl abama
Ġpost er
Ġcard iovascular
ĠLGBT Q
ĠUl tra
Ġinject ion
u i
Ġp umps
ĠDe ath
ĠBow l
ĠV i
ĠAdmin istr
ĠEv alu
Ġ à¤
Ġdisapp oint
ĠL uck
Ġimm un
M L
Ġlim iting
Ġbes poke
ĠMay or
Ġhe ated
ĠY oga
Ġcharacter istic
Ġqual ifying
Ġp ests
Ġth rown
ĠM ars
Ġ7 2
ĠScott ish
Cl oud
Ġfu els
I AL
Ġbi as
Ġmoist ur
G R
S ur
ĠTo kyo
Ġdark ness
Ġc it
ill er
Ġexem pl
TH E
ĠInteg ration
arm s
Ġremind ed
Ġuns ure
atin um
A V
Ġstr angers
Ġpo ison
Ġdead lines
Ġoccas ional
ĠS ov
rolog y
ĠT X
Ġdef ence
ic one
Ġmon u
Ġadvertise ments
ĠB ry
Ġown s
Ġsp ine
Ġproud ly
ĠAn sw
Ġshort age
Ġnot ified
Ġshel ves
ĠStrate gies
ĠAz ure
Ġexperim ental
Ġment or
Ġadvoc ates
ĠTru e
Ġbatt les
ĠCon duct
ĠQue ens
Ġcock tail
Ġvill ages
Ġkid ney
Ġcomm ands
Ġchem istry
ĠG O
pt ions
Ġdress ing
c ost
Ġassign ments
Ġfl ip
ograph ics
Ġpre view
Ġsub t
M B
O rig
ĠSupp ly
Ġemotion ally
c ount
Ġcon secut
Ġvirus es
G oogle
Ġassist ing
ĠR ab
aur a
Ġaccommod ations
ĠSwed en
op les
Ġtrick y
Ġunder neath
p onse
ĠIn flu
ĠPol and
l ace
un ge
att an
ir ates
ĠM O
Ġtast y
Ġinstruct or
Ġd ense
ac o
be at
Ġclos est
b ie
Ġretail er
7 9
Ġav iation
Ġinstru mental
Ġ <
Ġrele vance
id el
Ġcontact ing
Ġmeticul ous
ĠR ent
Ġad he
Ġh ills
ĠR ules
ĠE ffective
ĠAlex ander
ĠClin ical
Ġimper ative
ĠN othing
âĤ¬ âĦ¢
W ater
ĠAll en
Ġdomin ant
Ġch ic
Ġpart ial
Ġgenuine ly
Ġtoler ance
Ġair line
bl ers
Sec ond
Ġste pped
enn a
Ġcont rary
ĠS leep
Ġgl am
ĠCon vention
Ġline up
Ġrecogn ised
ĠSur vey
Ġfulfill ment
Ġcon sole
Ġscen ic
Ġmal ware
Ġoverlook ed
ort ed
ĠH al
Ġproject ed
Ġphys icians
L ead
Ġsp ices
Ġassist ed
AC K
M D
Ġunder graduate
ĠMet al
er k
Ġav en
Ġath lete
ad ows
ign ment
Ġpromot ed
Ġdy ing
ĠM un
ĠPro ble
Ġvol tage
Ġoccur ring
ric ks
M us
inc ome
u ctions
ĠR ot
Ġevalu ated
Ġir res
ĠT ouch
Ġfoss il
ĠIn it
ĠN avig
Ġappear ing
pa id
Ġ4 1
Ġsupp ress
Ġdownt ime
Ġin herent
ĠCo ordin
ĠAnt i
ĠH em
D ue
Â »
Ġsur pass
ĠStand ards
Ġun ited
Ġfun eral
ĠLit er
Gener al
Ġrefuge es
ĠIn j
T erm
Ġdis ruption
Ġcand y
st ick
ĠW a
Ġconsum ed
Ġdress ed
En joy
L ist
Ġbo oth
Ġjew ellery
id al
Ġ3 65
Ġenthusi astic
Ġtow er
F P
ĠC ow
ĠN orm
Ġappro ached
ĠJ oy
Ġh ill
Ġwork outs
ris k
Ġrefer ral
ĠMiss iss
os ph
Ġth umb
Ġton ight
Ġpres ervation
Ġgun s
Ġsh ipment
Ġpup ils
Ġy eah
r ise
Am ong
ĠIn nov
ph ony
Ġroot ed
S y
id o
Q U
Ġdef ining
ĠC her
ĠBet ting
Ġdrain age
Ġsacr ifice
' .
7 6
Ġ5 2
Ġcompet ent
Ġdam aging
Ġcra cks
Ġnice ly
Ġwholes ale
g reen
are l
ĠN AT
Ġac ne
z o
Ġgreen house
Ġw rist
Ġhuman itarian
Ġbless ed
Ġtempor arily
Ġinv oice
Ġeas tern
Ġliter ary
Ġf et
av ior
ryst al
p ersonal
Ġcert ificates
t ic
re nd
les h
Ð ½
Ġsil k
M aking
Ġbl ocking
d i
f ounder
ĠO w
Ġ199 6
ern ame
Ġgl uten
Ġnegot iate
end ant
us er
ect or
ĠR at
Ġind ication
W in
Ġdat as
ĠVit amin
or ical
Ġso othing
arch y
ĠFam il
Ġb od
Ġjournal ism
ĠPok er
Ġorig ins
rodu cing
ĠCer tain
Ġtransl ate
Ġaspir ations
Ġimpl ant
Ġlib eral
ĠExt ra
n ie
up id
ĠUlt imate
ĠY u
Ġtou ches
ing ton
ĠPro duction
Ġenc rypt
Ġgl uc
Ġdang ers
ĠRet ail
ĠMor gan
oo ps
Ġdisc on
ou ter
Ġsp an
P I
Ġsuspend ed
al ities
heim er
s aving
Ġinquir y
Ġgard ening
H R
Ġvent ilation
Ġb oo
Ġ20 30
ĠAl b
Ġ199 7
app ropriate
Ġcoll agen
ĠGirl s
ĠB ron
Ġmaxim izing
Ġeditor ial
Ġemphas ize
Ġnon etheless
OR T
ĠN ik
Ġpers ist
od s
and al
Ġsc iences
Ġdecl ined
Ġear liest
Ġex empt
ĠGu arant
ĠLe o
Con nect
Ġtiss ues
Ġr uled
ĠG DPR
rict ion
ĠOrig in
Ġ )
Ġle ar
ĠCert ification
ĠLe on
Ġoff set
Ġappropri ately
Ġallerg ies
v ised
Ġovers ee
ĠSing h
Ġchol esterol
Ġt ens
ib les
Ġworry ing
Vis it
ĠToy ota
Ġfrust rating
ĠR u
Ġcommun icating
Ġdeter ior
Ġinsect s
Ġextra ction
Ġinfect ed
ĠCh amber
Ġmetabol ism
Ġpass ive
Ġgra des
Ġsus cept
ruct ive
Ġmind fulness
ĠAl i
Ġcool er
Ġan onymous
ic ting
ĠS olution
Ġgener ic
Ġsubsequ ently
Ġnew er
ĠW ine
We b
Ġpath ways
ĠChat GPT
anth rop
Ġb ay
Ġup hold
ĠMe chan
Ġte ens
ĠR ing
E v
ĠR S
ool s
ĠAfghan istan
Ġbreed ing
ĠR ace
20 20
ym ph
o pped
Ġspot light
ĠCommission er
Ġdisapp ointed
Ġf ought
Ġd iver
Ġorgan ised
Ġconsider ably
Ġintent ions
ĠT ar
Ġn ick
Ġnot ion
ell ar
og y
Ġcar riers
Ġsty ling
Ġcaut ious
Ġ %
ĠPri ze
ra ined
Ġhe m
apt ers
ĠHol iday
ĠA WS
ap olis
Ġassess ed
f rame
Ġp icks
c ourse
ĠX box
Ġdepend able
ĠAud io
Ġeconom ies
ĠÂ «
Ġdemocr atic
ub ric
Ġpro l
Ġcl ay
Ġdom ains
Ġaccred ited
Ġpast a
Ġwor ries
Ġperman ently
Ġconj unction
ĠDise ase
ol ar
Ġsh ore
ĠNe v
ĠEng agement
es c
ĠT ower
ĠS alt
is ons
Ġan onym
ĠLead er
s ource
Ġf usion
Ġd erm
ĠD ance
Ġkind ness
Ġall ies
cl ick
Ġly rics
pr ing
Ġactiv ated
her ing
Ġdist inction
Ġremed ies
Ġc ope
E xt
Ġm im
Ġbe ars
ĠU g
Ġdress es
ĠAnth ony
ĠConsult ing
Ġs chol
Ġten ant
ĠCamp aign
s olving
Ġsever ity
T T
Ġall ocation
Ġmat ched
ol ved
Ġbankrupt cy
Ġtestim ony
Ġtra ction
d it
Ġchalleng ed
ipp i
oh y
St ar
ĠIn side
Ġreg ret
ĠJe an
Ġtravel s
Ġs ized
Ġg rief
Ġse nds
Ġrenew al
op ic
Ġr ational
Ġstrugg led
ĠFed eration
ĠSt op
Ġapproach ing
ck er
ĠM ir
ĠH um
Ġpres um
ĠTe a
os ures
Ġhom emade
Ġpal m
Ġsens es
Ġread s
ĠEx cel
Ġcamp s
O b
Ġresearch ing
ĠTra ding
Ġintrodu ces
ĠIss ues
ĠF an
d ie
ol ine
Ġpro ximity
ĠG ab
Ġm ales
Ġalleged ly
f ight
im b
Ġb acks
Ġdess ert
Ġst aple
az ines
ĠRes ource
ĠMiss ouri
em an
Ġrest ored
ĠKent ucky
= âĢĿ
Ġoff shore
o j
ĠF alls
Ġbr ut
ĠI R
Ġins ured
Ġthrow ing
Ġcalc ium
Ġsynd rome
Q uality
ĠD raw
Ġbuild ers
ĠOk lahoma
els on
ĠApp s
cel ona
ru e
augh ters
ĠR oulette
oster one
Ġimp osed
lim inary
Comm on
ed ed
ĠS W
ab ul
ĠL ower
Ġlast s
ĠS ites
ric ane
Ġreven ues
M ade
Ġbelong ings
Ġflo ating
Ġass ert
Ġweeke nds
ade qu
ĠAr gent
ist ically
itch ing
Ġdro ve
ra c
Ġeven ly
ION S
Ġblend ing
ĠF reedom
ĠV AT
Ġfre ight
Ġel astic
Ġste pping
n ered
ĠL yn
Ġac ute
ĠSh a
ĠAdd ress
Ġconsecut ive
N D
Ġdr one
Ġbra ke
Ġintrig uing
Ġacc laim
Ġmount ed
Ġacqu iring
TM L
qu et
Ġeffort less
Ġprop ag
r ison
ĠL ater
Ġc ited
Ġeffic acy
ĠTransport ation
Ġdiscipl ines
Ġmagnific ent
ĠSt adium
enc il
ĠL es
Ġcomment ed
Ġjun ior
ĠOrgan ic
Ġstim ulate
Ġp ond
Ġfra ction
ul u
ĠRec ord
Ġimpl ies
Ġneighborhood s
ĠF unction
Ġreg ener
Ġpos es
Ġchampions hip
Ġje ans
Ġp acks
ac hers
Ġup front
ĠWell ness
lev ate
ĠG round
Ġb its
ĠCont ents
Ã Ĺ
ĠAn imal
ĠMar ia
ĠDe an
Ġcompassion ate
Ġtr ash
Ġsecret ary
. -
s chool
Ġhe d
ĠG A
ag g
Ġcollabor ations
ĠK l
ĠZ one
Ġoutd ated
est ones
Ġinit iate
Ġpictures que
Ġqu it
Ġw ound
cent ric
Ġstat istical
pat ient
Ġecosystem s
ĠT ell
Ġplay ground
ĠSc ript
Res earch
ĠAl aska
Ġdevast ating
ĠF irm
ĠIndepend ent
Ġu pt
ri ad
Ġcl ips
Ġtre k
Ġintim id
ĠNiger ian
Ġtend ency
ĠC AR
Ġhy pot
ĠDirect ors
c at
ad i
ĠN az
Ġun re
ĠIde al
Ġdon ate
New s
A ir
] ,
Ġpro curement
Ġsusp icious
ĠNut rition
ĠL O
ist le
ec onomic
Ġrecommend s
Ġrent als
ĠGh ana
Ġj azz
ĠRO I
Ġp orn
Im port
Ġcontrovers ial
S earch
ĠU I
Ġmod est
aw s
Ġcomp rehend
Ġadapt ability
Ġremem bered
Ġv ivid
Ġur ge
an ium
ank a
Ġres ervation
ĠBas ic
ĠSU V
Ġinc on
ont in
Ġscal able
affe ine
Ġs isters
ĠE P
ĠAn ne
Ġaccept s
ĠDep uty
En ter
ĠL ag
Ġsa ke
h ard
ĠS ep
Ad v
Ġanaly tical
Ġweakness es
act s
ĠAr k
ĠP un
Ġwilling ness
ĠD est
he el
row ave
Ġprot ests
ĠAnd erson
I O
ĠLo an
ra ge
ĠCh oice
N at
o is
Ġin aug
W rit
Ġattribut ed
Ġdis in
Ġliquid ity
ol ve
ĠWh it
Ġamb iance
Ġdon ated
ĠGreat er
ĠPan el
im en
Ġsc am
Ġadvis ory
8 7
Ġp ads
Ġtw in
Ġflow ing
Ġfem ales
em a
Ġcor rel
Ġlisten ers
onst ruction
Ġar th
Ġdes cend
rim inal
ĠChe l
ĠArab ia
ed ic
L og
am an
ĠPre vention
ĠRec ommend
Ġsem ester
ĠCor p
Ġ 000
Ġtri umph
ĠÂ »
Ġr ivers
ĠR oy
i ere
Ġper ks
Ġpar liament
pos ed
L ove
Ġclin ics
D igital
ĠAg ent
t own
ĠApplic ations
Ġtrig gered
J an
Ġprolong ed
Ġtestimon ials
ĠN HS
Ġprosper ity
ric ing
Ġcy cl
Un like
Ġadv ers
ĠStrate gic
ĠBusiness es
Ġen zy
Ġrel ieve
uc king
at is
ĠB oost
Ġh obby
ĠR ick
Ġpu ppy
Ġmal icious
Ġdecentral ized
Ġeconom ics
n els
Ġtur b
Ġbrid ges
Ġde put
Ġover t
S k
Ġscal p
Ġl ap
am ous
ĠAll ah
Ġun employment
Ġsix th
ĠP os
Ġgradu ation
Ġgr ill
Ġexpress ing
Ġsan ctions
ĠF urn
Ġgen res
H i
Ġimm erse
ĠAb u
Ġm eth
Ġgl ance
ĠAm end
ord able
Ġdele ted
cons uming
O ct
C ent
Ġpartner ing
Ġb anned
Im pro
Ġinform al
id y
clus ions
ĠS ugar
ĠD or
Ġsens ation
Pl us
ĠLincol n
ĠG ene
ĠInc orpor
ĠRem ove
F inding
Ġj unk
Ġharmon ious
ou ds
Ġchair man
Ġobs ervation
ĠTy pically
Ph oto
Ġcent ered
Ġsim ulation
ĠS ony
Ġf ate
ven ience
Ġdraw ings
Ġd ip
ard ed
Ġad orn
Ġj ar
amp oo
Ġshe er
Ġtou ched
S pecial
Ġn ov
and ing
ĠEmb race
B re
in is
Ġf are
Ġpress ures
Ġcross ing
Ġcrow ded
k g
ĠG ram
Ġto ss
as ury
Ġcoll apse
Ġanaly st
D ep
Ġf ats
Ġl i
Ġmount ing
Ġcor rosion
Ġw rest
x Bet
ass y
Ġhero es
Ġprecaut ions
P oint
t ry
ĠK al
olog ically
Ġed ited
Sh ould
n ia
Ġcre ations
ĠSov iet
ĠWh atever
w atch
ĠPot ential
i op
iff erent
Ġtw elve
ĠVal ent
E ns
ĠDen ver
ĠM C
ĠP resent
Ġf ame
Ġ199 5
Ġdisapp ear
ĠM ath
ĠA CC
ir s
aus es
Ġph ases
per t
Ġencount ers
F R
ĠFort unately
Ġcom ic
Ġundert ake
ater n
Ġsho ppers
Ġcoin c
osc ow
F ull
ance ll
Ġbr on
ĠL em
og ram
Ġre ign
ĠA RE
Ġcount ing
ĠLouis iana
Ġbra ck
20 22
Ġste ering
ĠMain e
Ġtow el
Ġdies el
ĠComp rehensive
ĠM i
Ġrespons ibly
Ġdro pping
Ġs ons
Ġfree ze
Ġlif elong
Ġbust ling
Ġcat ers
Ġwarm ing
ĠV oice
Ġcy l
Ġhonest ly
ĠC bd
ĠY ellow
Ġlog ical
Ġdetect ed
Ġign ored
Ġanalys es
Ġspec ify
Ġl ounge
Ġgirl friend
Ġvari ants
Ġgate way
Ġactiv ists
Ġminor ity
ĠC rown
Ġunder m
sequ ently
g ia
Ġt ribute
Ġdon ors
Ġsw elling
Ġrenew ed
E lect
Ġrele asing
AS T
ateg ory
Ġbus es
ĠM all
ut ing
Ġnorm s
ĠG il
el d
ac u
Ġped est
th an
Ġtra ditionally
G C
Ġattach ment
ĠS end
ĠReg ulation
Ġre el
Ġdis charge
Ġjour neys
Ġneglig ence
c ult
ĠN ash
ĠClin ton
Ġwhe at
Ġappear ances
7 00
Ġliter acy
ĠSpecial ist
Ġsafeguard ing
per or
Ġto b
ĠE co
ĠMon itoring
Ġblank et
Ġan k
ke nd
ĠN ord
ĠAd vant
Ġfore most
Ġcirc les
h ill
Ġ erg
Ġrec y
ĠAd obe
Ġinc ons
Ġcons iders
t ails
ĠM umbai
ĠEnh anced
5 6
ĠSp a
Ġb other
Spe aking
Ġmod er
Ġinvestig ating
Ġintegr ates
â Ĺ
ĠAnton io
ĠL ay
ĠGener ally
Ġpart nered
Ġbre aches
Ġmar vel
Ġemphas izing
N eed
Ġl ining
Ġne arest
Ġsw ord
Ġtax i
5 2
flamm atory
ĠCh ain
reg ular
Ġbelong s
Ġboost s
Ġabsor ption
ot ional
ĠCreat ing
Ġbe aring
ĠJ a
Ġaffil iates
Ġim pe
Ġcand les
Qu est
S everal
Ġsl im
Ġcult ivate
ĠC oc
Ġhe mp
Ġpart ially
iot ics
Ġpred icted
ĠProgram me
he w
ra cle
Don ald
Ġtrig gers
Ġgad gets
l it
Ġavoid ed
r ator
Ġincorpor ates
Ġab dom
Ġast ron
M aster
reng th
Ġrob ots
e ing
P ol
es ity
Ġare na
Ġfort unate
Ġso vere
e ment
Ġrecre ation
Ġcinem a
Ġcons p
App lic
ĠF er
Ġsum mit
ĠM oore
ĠAff il
L L
Ġwork load
Ġshare holders
Ġaction able
OU R
ĠExcell ence
Ġpan ic
ĠCoun sel
Ġcher ished
ĠP ink
ĠT ap
Ġphys ics
ĠK nown
Ġ18 0
ĠAP K
Inst ead
Ġover head
Ġremind s
Ġexpress ions
ĠC elebr
ĠB or
al ia
Ġch amber
yl on
Ġhung ry
Ġrecru iting
cent ury
Ġresearc her
des igned
Ġamid st
Ġobserv ations
ur ated
ĠF ra
Ġen cl
Ġres ide
ty pe
Ġundert aking
ra ul
ĠR ate
ij ing
ĠHawai i
Ġpar cel
ĠIniti ative
iv ia
Ġthe sis
ĠD ent
Ġso y
Sh are
Ġdes irable
ĠSy ria
ĠDes cription
roduct ive
he at
ch a
ĠD E
Ġmy riad
Ġl ivest
ĠL uke
Ġpu zz
Ġground breaking
Wor king
G reen
G od
Su per
c ient
Ġfair ness
Ġdiscl osed
Ġplug ins
Ġthe ories
ĠT am
ut ory
Ġcontin ent
olit ical
l ies
t ier
Ġgl oss
Ġquant um
ĠJ oint
ut ers
Ġdeterm ines
Ġsh ar
cc a
Ġtrain er
ĠH E
ĠG em
ĠHealth y
ĠCur rent
ĠDet roit
5 8
ou stic
Ġcast ing
Ġflav our
ĠCrypt o
ĠC ards
art ered
ĠLe ban
Ġdecor ations
Ġp our
Ġaff ection
itc hens
ĠP ap
Ġcollect ively
Ġemerg encies
I d
or p
Ġn a
Ġal ien
Ġse aled
ĠN i
Ġcelebr ity
ĠCond ition
al id
Ġh iding
Ġsh ake
rop olitan
ĠNot ice
Ġb aked
um my
B ig
ĠCol omb
Ġl id
ĠCl ark
Ġw ars
Ġrecip ients
f illed
S D
Ġdist ress
ĠAdvent ure
a que
Ġattack ed
ĠD im
Ġterm ination
Ġwarrant ies
om eter
Ġtra ct
Ġm urd
p her
in nam
est ry
ĠE lement
ĠL oc
Ġun st
Ġsp ice
ĠUnivers al
M et
Ġtra ins
Ġimpact ing
â ľ
ĠW ant
ĠR ol
Ġlandscap ing
Ġdocument ed
Ġrespond ents
l og
Ġrese mb
ĠLiver pool
S M
i per
ĠH ad
Ġcomp ress
Ġsol ic
Ġb oring
ĠRe lease
L eg
in se
Ġ19 50
Ġcal ming
ienc ed
Ġregister ing
Ġbiod iversity
ĠC op
ĠD ak
Ġst rand
Ġemploy ing
ĠC ould
ĠC itiz
ens ation
Ġslow er
usal em
G M
Ġcourt esy
ĠNep al
ĠH at
Ġanx ious
ĠT oo
ĠH o
Ġsl ides
Ġdist ur
Ġsu cc
ĠCharl otte
dem and
Ġexam ining
ĠPal m
S L
Ġc av
Ġc os
al ine
Ġl amp
ĠK ings
ira cy
Ġma pping
Ġfound ations
ĠTe ams
ĠB R
Ġde ar
Ġroll s
Ġaut umn
ĠMult iple
e ur
ĠM B
Ġur ged
it ives
ĠN ort
ĠO tt
ĠPract ices
uff y
or ph
ell ers
ans ion
ĠAnd re
Ġarom a
exp ensive
Ġtra p
F ans
Ġhun ger
on i
pe ople
ĠBar celona
ĠNev ada
Ġd rew
ol as
5 4
Ġtransl ated
Re view
pro v
Ġselect ions
Ġbook ed
ĠCam bridge
L ong
L ocal
Ġm ast
ĠF ell
Ġbank roll
Ġfix ing
Ġex otic
reat h
OU T
Ġgram s
Ġlight ly
Ġher bal
ĠMc K
oy d
Ġutil ization
us cript
osp ace
ĠMississ ippi
ĠOut door
Ġout fits
Ġher b
Ġdeb ts
w idth
ĠP as
ist ine
r int
qu al
Ġrecogn ise
Ġthresh old
ĠH TML
A nt
ĠPrim ary
Ġswift ly
ĠWhe el
Ġhazard ous
5 7
ĠN EW
ĠP ul
Ġch ick
Ġafford ability
ĠT her
te es
Ġconfidential ity
Ġbreak through
Ġfat ty
Ä ±
ĠL ane
U RE
ch at
ĠF ine
Ġlandl ord
Ġl ined
Ġpro ceeds
uss ion
Ġbl ur
il ateral
sh irt
Ġiniti ated
Ġrel atives
Ġgood bye
Ġte asp
at ories
Ġsoc ks
Ġcoup on
erc ise
Ġhorm ones
in ars
Ġde mentia
ĠF ant
ĠN J
ic ut
Ġn an
Ġdeliver ies
ĠJob s
Ġn ostal
Ġhum ble
Ġpassword s
Ġbr ighter
ĠSh an
Ġther m
W A
Ġtrend y
ĠBrook lyn
N on
Ġ !
Ġwond ered
ĠTre nds
Ø §
Ġf ont
iz ard
ĠComm and
Ġmag azines
Ġirrit ation
Ġrel ie
Ġ7 00
Ġinv is
Ġphys i
word s
Ġadministr ators
Ġb esides
ipp ers
EL L
est ing
land o
Ġpriorit izing
or ie
ĠMc G
ĠB ond
ĠReg ardless
ĠProfess ion
ĠCh icken
Ġess ays
Ġutil izes
Ġjump ing
Ġfif ty
Ġalt ogether
im ore
ĠE fficiency
ĠN E
sen al
Ġc ave
ot ing
ĠF itness
ie val
Ġnarr atives
ĠS el
Ġinhab it
ĠDes k
ĠPre c
Ġnotice able
m aster
Ġgo ver
Int erest
Ġoccup ied
ed e
Ġk eto
Ġactiv ation
Ġ3 50
ĠState ment
ĠCapt ain
s k
Ġun le
Ġconvenient ly
Ġn ic
Ġconf using
Ġspin ning
) (
p ath
Ġcap ac
ĠLe ave
ĠW A
let ters
ĠB ec
ĠFranc is
Ġ Î
ĠIns ights
h ma
Ġaff irm
Pro t
Ġvalid ation
V ER
ĠG race
rep resent
Ġrecur ring
ĠF ro
Ġpract ically
Ġhop ed
ing le
Ġst rap
ĠH op
Ġencompass es
Ġl un
St ate
Ġpharm acy
Ġassum ed
Ġhar assment
Pres ident
Or gan
bsolute ly
S U
Ġen for
Ġminimal ist
h al
Ġst atic
Ġscholars hips
AR D
ar ium
ĠR oc
Ġcons ensus
Ġb er
Ġunique ly
ain ted
Ġs ou
Ġwealth y
Ġst icks
ĠR ES
Ġgen es
Ġag rees
Ġchar itable
ĠSu ite
ĠNe eds
t ops
Ġl acking
Ġimm igrants
Ġwed dings
Ġtob acco
u v
Ġsour cing
th ink
Ġres h
ĠBut ter
ĠÂ ·
in itely
an as
M ich
ĠV in
Ġappe als
ĠRequire ments
n ote
ĠRem oval
n als
Ġgener ates
Ġ199 4
Ġpal ette
ĠLux ury
j e
ĠM BA
Ġvar iant
c over
f old
Ġj am
Ġgl ue
Ġh ind
Ġv oid
Im agine
Ġh orn
Ġsun ny
f i
Ġind igenous
Ġby pass
Ġfire place
ĠPop ular
Ġansw ering
ĠM oscow
ĠAll ow
Ġvacc ination
N ever
Ġle ct
Ġcomple ments
ĠAn na
Ġvan illa
Ġtu ition
There fore
ĠStud ios
Ġlog ged
Ġimag ery
Ġmuse ums
Ġto dd
Ġcomp ost
ze ch
obb ies
ĠB ird
ĠD A
Ġlong est
Ġautonom ous
ĠF BI
Th ree
ĠEx pect
il ant
ask et
ĠLab our
Ġabund ant
ĠA id
Ġf ierce
Ġcapt ain
Ġtherap ists
Ġillness es
ip her
le ans
Ġopt ical
Ġf lesh
ĠCon vers
ibl ical
Ġcount ies
Ġ9 6
H and
ĠO z
ĠH art
ĠPl ans
ĠMon itor
Ġluc rative
ĠM ob
Ġmarg inal
ĠAss istance
Ġadvis ors
Ġun matched
Ġtheore tical
h as
Ġpoin ting
ĠInt el
Ġunf air
health y
Ġin acc
Ġuncle ar
Ġe arrings
Ġovers ight
ep s
ĠIn come
iqu id
Ġmir rors
ĠMar g
Ġdistingu ished
op ard
iss a
Ġpersonal ised
Ġ6 6
ĠHun ter
Ġc ous
im ents
Ġdr ill
Ġturn over
ĠMil itary
ĠAdvis ory
ĠJer usalem
Ġcor rection
P ER
R ight
Ġwh it
ĠL am
Ġsurprising ly
ĠR F
ĠWed ding
ĠAl ber
Ġfib ers
ĠF em
te in
Ġdist ant
Ġretain ing
le vant
Ġout lines
ĠV ac
Ġbr ides
Bel ow
ic ient
Ġtomat oes
ab el
c atching
w ick
ĠS in
innam on
Ġs oda
ĠAr c
ĠZ e
Ġpre liminary
Ġdiagn ose
H ey
K S
Ġench anting
H ead
P ower
m i
Ġengine ered
ĠAl t
ogen ic
ĠRestaur ant
D ate
ĠAb d
ust ed
Ġstim ul
7 2
de velop
ut her
Ġnot ably
Ġclear ance
Ġst yl
Ġche w
Ġenroll ed
Ġpubl isher
ĠS oul
Ġv ou
ah u
Ġbath rooms
Ġrefriger ator
l ad
Ġimp air
Ġcush ion
er ness
Ġcelebr ates
Ġec ological
ugg age
ĠWi Fi
Ġinev itable
Ġbro kers
ĠTH IS
ĠOther wise
Ġce ment
ro se
Ġsens ory
z heimer
Ġs el
Ġox id
Hel p
g ary
ĠG T
Ġind oors
Ġang el
Ġfor k
ĠS ad
ĠD ress
ol er
Ġmon itors
ĠManufact uring
he ro
Ġso fa
ĠAnd y
M obile
f ive
im edia
20 21
Ġg erm
ĠM ode
ĠD M
Ġorg ans
Ġl inking
Ġsell s
ĠKnow ing
Ġt el
at uring
Ġe cho
Ġr ays
Ġ5 4
Ġce ase
9 1
P H
d ra
Ġdrag on
Ġmis under
Ġg reens
ĠT rip
Ġsoc ieties
Ġdem ographic
Ġmusic ian
Ġsc enery
ĠNY C
Ġenlarge ment
n c
ĠS pect
Ġgover ning
Ġhead aches
list ed
Ġsubstantial ly
Bu y
f ound
Ġtouch ing
So ft
Ġpill ow
F ort
H ub
Ġl akes
Ġanaly zed
Ġ umb
ĠF C
Ġarr iving
Ġsurpr ises
Ġperform ers
Ġble eding
Ġmand ate
ĠJ en
Ġbo om
ĠAgricult ure
Ġb ored
Ġpat ches
ĠPort land
vel and
ĠK r
Ġpray ers
S outh
Ġor nam
ans om
Ġemploy s
Ġdemonst ration
Ġb ump
Ġantioxid ants
ĠH ab
Ġnu ances
ĠVeh icle
Ġtr illion
ĠG R
ĠUs ually
Ġroll er
Ġconfident ly
ĠK ay
iv ic
Ġinstruct ors
he lp
am as
Ġcat ast
ĠSur gery
g as
pl an
Ġequ ip
Ġattract s
Ġap olog
ĠDV D
pe red
ĠSt ories
Ġdef ines
Ġdilig ence
Ġprompt ed
Ġrel iance
Ġrec overed
Ġac rylic
Ġflood ing
ĠB it
Ġhapp ier
ica id
Ġcatch ing
L ive
M em
Ġr ugged
Ġbas es
Ġasp iring
Pub lished
ra h
Ġw and
ĠN ag
âĢĿ ).
Ġreform s
ĠP ant
Ġdiscuss es
Ġcommer ce
Ġadj acent
M icro
tain ed
Ġlog os
Ġelimin ates
ĠManufact ure
f u
ĠCh and
Ġmult itude
Ġdiscon nect
ĠCar bon
ĠRead y
ĠEmploy ment
ĠRegular ly
Dav id
Ġple asing
Ġgluc ose
Ġo h
Ġh ards
Ġde gra
ĠUn ique
Ġpath way
ĠContin ue
Ġ5 6
Ġtal es
E U
Pr ice
in flammatory
ĠA w
Ġmem br
Ġexpect s
ĠThrough out
Ġr ic
ach ment
Ġfacilit ates
Ġhyd ration
ĠSt ick
ĠEd ward
Ġst adium
Ġment ally
st ru
ĠS oph
ĠA irl
Ġchat ting
Ġdis par
Ġover l
ik h
ĠM ap
Ġdetail ing
Ġden y
Ġupgra ded
bor ne
ĠUlt imately
st ation
Ġass ure
Ġcrit ics
su pport
Last ly
Ġwel ding
G old
Ġl one
ĠRuss ell
Ġdos age
ĠUs ed
Ġconv iction
Ġs ore
ĠInst itut
ĠEmploy ee
Ġpreval ent
atern ity
um mer
Ġsh y
Ġbr ass
Ġplant ed
Ġbrief ly
Ġbrand ed
Ġunpredict able
ĠI G
Ġk ay
ather ine
Ul t
ĠAltern atively
b low
Ġb ingo
rou ps
ĠY an
Ġrecord ings
Ġadministr ator
Ġwrink les
Ġins ulin
Ġgra ins
Ġconc lude
Ġdead ly
IGH T
Ġp ause
Ġconstitut ional
Ġtra ject
ar ations
ur st
Ġneighb our
Ġcomment ary
Ġqual ification
Ġindul ge
Ġassum ptions
k it
ĠR idge
Ġal ph
P ublic
ol o
ens able
Ġtra ged
Ġcomm ence
A ug
z i
Ġlog ging
b ank
ag ger
Ġdec ides
ned y
Ġbi ology
umm ary
ĠMor oc
Ġmod ification
Ġh ier
all ic
Ġautom obile
m ount
s ome
ĠPortug al
Ġto ps
rit ious
ĠSt age
Ġsal mon
Ġ5 1
Ġinter rupt
Ġbel ly
P O
Ġd ot
ur ations
Ġview er
Ġbra ve
Ġcle ared
Ġbur ied
e ared
Ġprompt s
c r
Ġred irect
Ġdu o
it ted
ĠT un
ĠM oving
ĠWe ather
Ġgam blers
Ġatt itudes
Ġopen ly
erv ices
the med
ĠHigh way
Ġscient ist
Ġwe ed
Ġch apters
Ġtroubleshoot ing
' ,
ul ative
Ġrem arks
Ġundersc ores
Ġin adequ
gg ing
Ġun av
ĠPer iod
Ġconcent rated
7 3
ĠW ear
Ã³ n
Ġd aughters
Ġhigh way
Ġcelebr ities
Ġch ill
g red
Ġb ounce
ĠSwed ish
Ġpe el
ĠJun ior
ĠOr leans
5 3
enc er
ĠMus k
L ink
ĠB ear
Ġcl uster
amp a
ĠEs pecially
ĠBl oom
Ġthro at
ĠE RP
Ġaud its
Ġyield s
Ġrep ayment
hed ral
i w
Ġin expensive
ĠBe ijing
Ġenroll ment
was her
ã Ģ
ĠKeep ing
o oth
ĠH ind
Ġad oles
Ġmerch ant
it ored
ĠS outheast
bel ie
D ER
ĠCook ies
ĠBe at
ĠAn im
Ġsince re
ĠProject s
OS T
Ġdomin ated
Ġrec k
Ġval ley
I ts
ĠP erm
ĠMuslim s
Ġvolunt ary
Ġdon or
ĠF ill
ĠD al
Ġun h
Ġed itors
Ġinterf aces
ĠG rey
Ġrac ism
Ġappro x
Ġz ip
Ġtri ple
ĠClick Funnels
imens ional
th ora
Ġsurviv ors
er on
al one
ĠPh ill
ĠPol ish
Ġcrow ds
B ooks
or us
V I
Every one
Ġexhib its
Ġdown s
ĠH amp
Ġin sec
ith ium
ĠC ars
Ġspecial izing
Ġcross ed
ĠCost a
Ġland ed
Ġanim ated
Ġwal lets
Ġtou g
as ers
ĠR y
ĠPh ase
ĠC opyright
ĠInst ruct
Ġqu iz
Ġyear ly
b rew
Ġrecogn izes
claim er
ch anger
ĠIn n
Ġnew com
ĠTy pes
Ġstrong est
Ġb ail
ch ildren
Pro per
Ġl ubric
Ġcom f
ard o
Ġpr istine
Ġcomprom ised
Ġp ending
ĠM aj
Ġexp ose
Ġexist ed
Ġexcept ions
Ġhistor ically
b ial
Ġm alf
ĠB apt
Ġsus pected
Ġw ipe
av i
Ġcollabor ating
Ġang les
5 1
w hen
ĠR AM
ĠOpportun ities
Ð »
id ency
ĠMar vel
p rom
du p
Ġless er
Ġneg atively
pre m
ĠExper ts
Aut hor
ĠO sc
ĠIm plement
Ġsun set
Ġsurv ived
ĠSen ator
Ġt in
as ion
Ġdis k
Y et
d irect
Ġo ak
ĠW ash
Ġf res
Ġalt ered
ĠPy thon
Ġdign ity
S af
Ġbet a
ĠIde as
Ġcr imin
iz on
Ġtast ing
ĠReg ulations
Ġma iling
ĠFac ulty
Ġthreat ening
H ist
Ġfe ver
Ġadm ire
Ġsuscept ible
Ġf ocal
om i
ĠD er
Ġupgra ding
Ġtutorial s
g rowing
Ġ5 8
Ġexh ilar
Ġw agers
Ġit iner
ke e
oth y
Ġto x
Ġan ime
ĠR oot
Ġbar gain
ĠJust in
c s
ĠSt y
gener ation
Ġy og
Ġse as
Ġapp liance
Ġple thora
ĠN PR
Ġbub ble
ĠNAT O
Ġdownload s
Ġut ilities
ust ers
ĠRe venue
ĠSw itch
B rand
Ġst air
ĠM erc
Ġsc ary
Ġtravel ed
ĠNur sing
qu es
Ġadapt ing
Ġscal ability
ĠImport ance
ĠCh ap
Ġread ings
Ġst akes
Ġcorner stone
Ġpractition er
Ġcl og
Ġfraud ulent
Ġspokes person
Ġcont ing
Ġthem ed
ĠCons erv
Ġdescrib ing
ĠV iol
Ġauthor ization
N Y
Ġan th
Ġcomp ression
Ġgu ards
ĠCom fort
Ġcontem pl
E ffective
us able
ag u
ĠV erm
Ġpu pp
Ġrece iver
9 2
Ġst arter
Ġline ar
Ġpo ised
Ġco hesive
Ġtrans cript
ĠS we
Ġapp ra
ĠGra de
Ġscan ning
E uro
Ġd ated
Ġre un
Ð ²
Ġcoll ar
ĠMet ro
Ġ ;
Ġbe es
ĠC M
ment ioned
Ġrev ised
Ġl aughter
ĠB O
Ġvalu ation
Ġtechn ician
Ġmem or
Th ink
ĠPut in
Ġinvas ion
Ġcompet itor
Ġestablish ments
A f
ĠTra ffic
ĠSw ift
ĠMet a
Sh op
or ate
disc iplinary
Ġg y
ĠElect rical
s ub
al so
Ġen act
l ation
Ġworth while
Ġjud icial
Ġwitness es
h ang
ĠPurch ase
Ġun con
Ġendeav ors
t i
Ġclass ification
Ġcon greg
Ġrel ent
D O
P ort
ĠA BC
ge nder
Ġend urance
Ġrepl ied
ĠOffic ial
Ġcounterpart s
Ġ199 2
ĠJac ob
ĠR ow
Ġint ens
Ġcl ouds
Ġsupply ing
amil iar
abul ary
A h
e ous
ps y
k now
ĠIt ems
Ġclos et
Ġencourage ment
D em
Ġst ance
Ġempower ment
Ġg ospel
Ġmolec ular
Ġdisp ens
com pl
ĠAl zheimer
ĠM asters
ĠEgypt ian
Ġcompr ises
Ġe ternal
Ġtim ber
Through out
ĠL isa
ord on
ac erb
Ġtrans mitted
gr at
Pre p
Ġdisag ree
Ġp ier
Ġname ly
Ġreim burse
Ġp anc
ĠE M
Ġpoor ly
ĠSustain ability
ĠD rop
Ġcle aring
at ics
writ ten
Ġteam work
is y
Ġfurn ace
Ġbund le
ĠS pl
ĠH it
ĠSp in
ott age
ĠBlack jack
Ġinvas ive
C ost
ĠR ule
ĠIncre ased
Ġus ername
Ġfound ers
omet ry
ĠET F
ĠA ware
ĠP ie
op ter
ER Y
thod ont
ĠA x
Ġmod ular
Ġaltern ate
Ġboy friend
ĠC AN
ĠAct ivities
Ġpubl ishers
Ġst ems
Ġcur b
Ġshock ed
ĠConnect icut
ĠW onder
Ġsim ilarly
Ġsl ice
Ġexpans ive
in ate
ĠC ass
ĠP ool
ical s
Cl ass
ĠFort une
or o
ĠB rain
fact ory
ar is
em ption
Ġfra g
ĠAutom ation
Ġout break
ĠLeg isl
raul ic
Ġse wing
ĠEst ablish
Ġconv ince
Ġportra it
Ġnut ritious
Con f
S I
ul ly
ĠY e
Ġcolon ial
ĠSER V
Ġrot ation
Ġfluctu ations
Ġl bs
AS H
Prof essional
Ġsl a
Em ploy
ĠAmend ment
ort ment
Ġc affeine
Ġhoriz on
ĠAth let
ĠP arents
Ġconsequ ence
pro t
Ġrust ic
Ġd ub
Ġhe lic
Ġlay ing
Ġpodcast s
Ġinters ection
Ġdec ay
Ġalb ums
Ġbe e
ate ur
Ġbl ades
Ġtra pped
a uc
ot ics
Ġst airs
ĠG DP
ĠRe ach
6 3
Ġoptim istic
Ġmaster piece
ĠSS L
ok u
Ġparent ing
Ġst ub
Ġch lor
ĠCo al
ĠB eng
Ġstud ios
dep osit
ĠRem ote
ĠOrig inal
Ġo un
Ġpersonal ities
20 19
ĠCompet ition
U E
Ġun ified
Ġro ster
arm ing
Ġlog s
Ġregul ators
Ġdisplay ing
ĠHam ilton
ĠPrin cess
ĠI M
P rior
Ġres in
rent ices
ĠEx am
Ġjump ed
Ġphotograp hers
Stud ents
irming ham
b ots
Ġsu p
Ġim bal
Ġ5 3
Ġmar ble
Ġas leep
Ġconc ise
Ġfaith ful
Ġg ems
ĠW ik
Ġsub ur
er ial
Ġd ull
ĠD ash
az y
Ġpart ly
Ġsl iding
Ġhoriz ontal
ĠJenn ifer
new s
ĠChall enges
ĠRober ts
ro c
Ġper ceive
ĠC zech
ibl ings
E asy
ĠN Z
ĠK ate
Ġsc ared
ĠEv olution
ĠCirc uit
Ġh urd
Ġsc rub
Ġimpro per
ĠT ail
ĠW at
ac le
RO M
Ġmic rowave
Ġf ertility
ot ion
ĠM ine
Ġex acerb
Ġref ere
Ġlif ted
ĠEnt reprene
B E
ĠDis play
ĠA ve
ĠR T
Ġlower ing
Ġanticip ation
Ġkne es
Ġf riction
ĠP el
ac eted
ĠGard ens
A ns
ĠUnder stand
Ġinvis ible
ra cing
Ġneed le
Ġdecor ated
L ight
ĠS QL
ĠW rite
th ur
Ġen vision
Ġdet ox
Ġconcer ts
Ġc ram
âĹ ı
Ġsh irts
Ġcoal ition
Ġcomp rehens
Ġemb ody
oc y
Ġcred ited
ĠSt ress
at on
or ative
ĠIntern al
Ġharb ors
l an
ĠC row
ĠN ich
ys ical
Ġl ag
ĠC rystal
ĠH ell
Ġfl air
a ft
Ġcalcul ations
st ud
Ġclar ify
Ġincur red
Ġm ant
Ġsuggest ion
ĠQu ant
Ġsyn chron
T aking
Ġtrans plant
Ġafter wards
Ġrespect ful
M at
Ġdis asters
Ġag ile
ĠFa ith
J u
Ġw ires
Ġp ist
Ġbook maker
Ġburn ed
Ġen light
Ġlic ence
Ġpred omin
Ġcoordin ate
ĠL ucky
Ġsmall est
Wh ite
Ġour s
Ġdes p
Ġembra ced
Ġpro st
Ġchar ter
ĠPartners hip
isp ensable
ĠEffect s
ĠGener ation
ĠAirl ines
is ode
Ġh int
Ġcomp iled
Ġlaun ches
ĠW ard
Ġinnoc ent
ĠN ap
Ġun law
Ġtransport ed
ĠF inding
Ġgood ness
Ġst ove
AC E
Ġge ographical
b ian
Ġunc omm
Ġp ork
Ġprov ing
Ġcomm em
on el
ĠInter ior
Ġclean ers
ĠChe f
l ied
og an
ang a
Ġmob il
ĠG re
Ġremov es
Ġouts ourcing
ic ates
Ġstat utory
F act
Ġman eu
ĠMed icaid
Ġmid st
ol t
Ġinfluenc ing
ĠMad rid
ster dam
Ġfeas ible
T ry
Ġmot ors
Ġs ights
ĠH app
Ġ9 00
ĠWalk er
M ult
p al
Ġr outer
Ġopt ing
Ġcrit ically
e ks
ĠB L
Ġfig ured
f elt
ĠR A
w estern
Ġon boarding
ĠElect ronic
Ġcitizens hip
Ġd oses
ced es
ĠRes ponse
te chn
ĠBelg ium
9 4
g ly
Ġfin es
ave nder
Ġsweet ness
St ill
ours es
Ġcon form
Ġins u
IC K
Ġgod s
ĠTh r
Ġpol ar
ĠEduc ational
Ġwar mer
l ift
ĠP oints
Ġrep roductive
Ġfl ame
Ġsoc io
Ġcryst als
Ġexplicit ly
Ġrep ay
B R
ur ous
ant e
ĠEx amples
Ġpass ions
Ġstra ps
ĠLeg acy
Ġaffil iated
Ġcon gress
du e
Ġinfluenc er
Ġstring ent
Ġram p
S O
Ġterror ist
Ġt orn
Al ong
ra vel
ĠNAS A
Ġwood s
ĠÃ ¢
Ġ5 7
ĠJon athan
Ġassoci ates
Ġmac ro
ĠC it
Ġow ning
ĠSt ars
ĠAd ams
Ġreport ers
Ġextensive ly
ĠProf ile
Ġoccup ation
er to
ĠM alt
ĠF ly
k ward
Ġmon itored
ĠPlay ing
Ġdisrupt ions
ak y
Ġrep osit
Ġequ itable
Ġp H
Ġl uggage
act ively
Ġprevent ive
ĠHam as
Ġman uscript
Ġob esity
ĠCent ers
Ġsuper market
Ġpra ised
Ġint act
Ġep it
Ġstretch ing
Ġm amm
In formation
Ġbrow sers
rolog ical
ĠF ounder
ĠOr lando
rell a
il dup
ĠM T
ĠK el
Ġent ers
AC H
ĠSpe aker
6 2
ĠH oney
ĠSt arb
Ġsex y
Im age
Ġphil anthrop
ĠM is
ĠG ib
ass ed
ang o
Ġut ter
ĠCo le
Ġcondition er
Ġdistingu ish
H ello
Ġst icking
Ġsc aling
Ġtest osterone
ĠPar ks
Ġscript s
Custom er
ig o
F O
Ġbal con
Ġrefund s
g un
ĠEconom ics
P op
Ġm ice
ĠStart ing
! ).
Ġfree zing
ĠBalt imore
ĠRep orts
l ier
ĠArt ificial
ĠFood s
Ġe Commerce
Ġpot ato
ĠProv ider
ount ain
Tra vel
ĠBrazil ian
Ġrest oring
Ġallerg ic
B ay
Ġen semble
Ġdi agram
Ġtradem arks
ĠP ure
Ġident ities
C ard
s or
Ġm ock
ĠG M
ĠDub lin
ustral ia
ĠP ump
Ġpres erved
Ġpo em
Ġquot ed
M ark
Intern ational
Ġsil icone
Ġvit ality
Ġarth ritis
N E
Ġunder way
ĠCons ervation
ĠCle veland
ĠE R
ĠOb ject
ĠImpro ved
ĠPro b
Ġ9 8
ĠTra in
Ġmil estones
ĠK um
ĠCP U
Ġb achelor
ĠK rist
Ġshe ep
ch i
Ġk itchens
Ġpress ed
best os
Ġmet er
Ġ199 3
Ġhere in
Ġch im
Ġincl us
Ġearth qu
ĠCamp us
Ġind ispensable
Ġimpl ied
ĠKen nedy
Ġkill er
ĠSales force
Ġbuck et
k h
ĠT u
Ġdist urb
Ġover ly
Ġon ion
g one
ab a
iropract ic
ĠW oman
Ġpan or
ĠD R
Ġse w
av an
ett es
Ġ1 10
eral d
ĠJ ava
Ġexplo it
ĠA ren
Ġd Ã©
Ġcancell ed
ĠI L
ĠA round
Ġcost ume
Ġg inger
ĠG ary
Ġexc luded
Ġbit ter
Ġstra ins
ĠAssoci ates
ĠEnhance ment
Ġf isher
AS S
Ġr if
Ġworks pace
ĠPit ts
ĠM E
Ġpe oples
ĠIdent ify
it ol
um ns
ĠO ri
ĠBu yer
ĠP ent
Ġtra ded
Ġart ic
Ġexhib itions
Ġparad ise
l ar
x ual
ri ors
ĠQ R
Ġpremium s
Ġcommit ting
Ġmaster ing
Ġsan ctuary
Ġdist ances
Ġadapt able
Ġident ifies
iss ance
Ġk et
Ġmeant ime
Ġsp inal
Ġcollect ors
Ġinvestig ated
? )
b rand
Ġhome owner
ke eper
Ġch rom
rig ation
Ġb accarat
Ġcon grat
Ġass ortment
ĠBat tery
z one
Ġle ap
Ġcru el
Int eg
G iven
Ġrel ates
eg le
Ġpun ishment
ĠPrep are
Ġsystem atic
Ġenhance ments
Ġexp orts
ĠTr uth
ĠIs a
Ġadmin istered
ĠPost ed
ĠIndividual s
Ġv ape
ON E
Ġamb ition
C ap
Ġun even
Ġnum er
Ġeng ra
AR S
Ty pes
uck ed
Ġconst itu
Ġcheck list
Ġcat tle
Ġentrepreneur ial
Ġsh orts
Ġrisk y
che m
ĠD ick
E mail
Ġrel ied
Ġaff air
Ġhead lines
Ġexception ally
Ġh ats
Ġpersonal ize
Ġfrust rated
Ġfro st
Ġbicy cle
Ġcon vention
ĠL aura
ip h
ĠCh ocolate
Ġelimin ated
Ġall oy
Ġhome work
ĠLe ather
ĠT ask
Ġtr ay
ĠPro du
Ġair lines
Ġconfig urations
6 1
Ġbes ide
N ational
ĠG un
Ġelabor ate
v ings
ĠE gg
Ġlay outs
ĠB oot
ĠH az
ĠH ug
ĠHow ard
Ġcareg ivers
is ans
ĠE le
Ġfoot wear
Ġstri ps
Ġpure ly
Ġre per
Ġv aping
ĠG ov
Ġnegot iation
Ġpharm ac
Ġser ial
Ġexpect ation
ĠT ip
Ġabs ent
ĠBr un
ĠCh anges
Ġsil hou
Ġp ile
Ġl ately
Ġall ocated
Ġsc ales
Ġtechn ically
ĠCom plex
Ġg ly
ĠD egree
ĠRe pl
ex ts
Ġ199 1
Ġcalcul ator
Ġpro pose
ĠP T
ĠH arm
ĠÂ §
Ġplaint iff
lish ing
Ġfor cing
Ġnews letters
Ġconsult ations
ipp le
Inc re
Cur rently
ĠMan h
Ġtun nel
g rim
Ch ina
Ġstere oty
Ġborrow ing
ĠD uke
ĠH onda
ĠR ice
Ġemp owered
Ġteach ings
ĠTh under
Ġunf old
val ue
Ġbu ildup
Ġfa ulty
ĠN am
Ġjoin s
wh ite
Ġform ulated
W ed
ro le
ĠU ntil
ĠL anka
Ġad orable
is ive
Ġsp icy
Ġpump kin
ĠG ain
Ġev acu
Ġprov es
Ġappro ve
Ġreal ise
ĠR acing
Ġimp art
Ġnation ally
Ġcarb ohy
it ably
ĠU P
ĠC ircle
Ġrep orter
ĠCent ury
pay ers
9 3
ass ing
Ġbless ing
ĠS L
Ġab normal
ĠOff ers
Ġterrit ories
omm y
Ġdismiss ed
R uss
s ens
Ġj oke
Ġdesper ate
Ġconfig ure
Ġ 00
Ġw iring
is b
ĠGra duate
ĠPack age
prof ile
Ġwas hed
M a
Ġm erc
Ġsocial ly
ĠB MW
un ks
Ġthank ful
D an
Ġr ul
Ġcont rad
ĠWork ers
ĠMove ment
Ġmem orial
roll er
p op
Ġth rew
Ġrequest ing
7 4
Ġnow here
ĠBeh avior
ĠBB Q
u ces
or ig
Ġpay day
ĠSec urities
Ġcher ry
ah o
em en
Ġuncomm on
ĠI F
Ad ditional
Ġimport ed
ĠTour ism
Ġassemb led
ider y
dr ates
Ġbill ions
ĠAd apt
ĠCr ime
Sm art
Ġdece ased
ĠM ega
Ġinteract ing
ĠInf rastructure
Ġha irst
Ġk g
ĠGo als
Ġillust rations
ĠCharl ie
F ood
L ocation
ĠH ours
Ġinterf ere
Ġvers e
Ġmerch ants
ĠM os
ĠMarket s
Ġfunctional ities
Ġv ag
sec ond
ĠC red
ĠC otton
ĠOr ders
Ġnovel s
Ġtight ly
B T
Ġt read
ĠH us
Ġc um
Ġm elt
st ones
Ġgu ilt
Ġhon our
char ged
j amin
Ġb ind
ĠSh opping
Ġhead phones
Ġlocks mith
Ġo k
Ġcont exts
ib et
ĠAdvert ising
feed ing
Ġch ron
ĠK az
ĠNor way
Ġcr unch
ĠEngine er
ĠPhot ography
Ġende avor
P rom
m el
Ġb amboo
Ġwe ights
Ġart if
Ġdr illing
ox y
Ġcop ing
ĠEmploy ees
il ot
Ġcontrovers y
u ced
Ġw ore
ĠProcess ing
Ġbl ast
ĠDel aware
7 1
8 4
m us
Ġon ions
Ġsy rup
Ġfulf illed
ĠWild life
i ably
Ġl od
Ġa we
Ġfair y
ĠMor ning
Ġw oven
ĠAd ult
. ).
l en
ĠD h
enef it
ĠProfession als
er ting
so ever
Ġyouth ful
ĠSom ething
Ġh ockey
ĠH indu
ĠFram ew
ess ions
ĠB uck
ail ability
we alth
Ġbal ances
Ġmanage able
Ġinput s
ĠI gn
ĠM ason
Ġen quir
Ġarchitect s
N orth
Ġbe ating
ĠAcad emic
un ny
ĠB eth
ĠL ang
ud s
ĠST EM
Ġinsight ful
AB LE
ĠH ood
ĠG a
Ġsyn c
e ffect
Ġde er
ĠSp ons
20 18
Ġball ot
Ġjurisd ictions
Ġs ailing
bl ock
Ġgrand mother
Ġbreath able
Ġpredict ive
g on
Ġaw kward
Ġkilomet ers
G S
Ġch opped
Ġundert aken
Ġdeput y
Ġentrepreneurs hip
H C
ĠB irmingham
ĠCor ps
ĠBru ce
Ġdefend ing
Bl ue
Ġ **
Ġevalu ations
Ġreg ain
ĠOut look
Ġcr ust
Ġpri est
l on
Ġrel uct
Gl obal
ĠP ic
Ġlist ened
EN D
E duc
t wo
Ġc el
FOR M
Ġtraject ory
Ġant ique
Ġdest ro
Ġsevere ly
Ġin appropriate
Ġun ions
pro cess
Ġrent ing
Ġresid ency
ĠMount ains
Ġp ave
ed ar
ent ry
Ġnot ices
ract ice
Ġprevent ed
ĠA le
ĠO racle
Ġsoul s
ĠR ental
f ood
ĠRequ est
ĠL ar
E nd
ĠW arrant
Ġdecl are
Ġrender ing
ad y
ĠLe ft
Ġcoordin ated
Ġrepet itive
J P
Ġinterf erence
Ġver bal
i otic
oc ating
cl ock
Ġintern ship
Ġele ph
Ġnews papers
Ġlapt ops
ĠSpot ify
ĠP O
Ġde pr
Ġun su
ĠNot es
ĠOptim ization
ĠI RA
Ġdigest ion
ĠRen ew
Ġinher it
ĠIm ages
Ch at
Ġrev ital
ĠThom pson
Ġcock tails
Ġnomin ated
Ġscrut iny
un ing
ac re
ac cess
Ġcont amination
Ġdipl om
? âĢĻ
OR D
heart ed
r ant
ĠAl an
yl um
arb age
oc ity
Ġact ed
Ġbo il
Ġbad ly
Ġre charge
ĠC amb
on ts
Ġfor b
Ġadd ict
Ġlaw makers
Ġvent ures
Ġdefe ated
Ġdecor ation
Ġnurt ure
G H
W est
ir i
Ġjour nals
Ġspot ted
ĠBrand s
1 000
Ġp estic
Ġf el
ĠD river
S ave
Ġal umni
Ġapp arel
Per haps
Ġall iance
ĠMed ium
st ory
ĠPro ced
ĠBe ck
ĠM ut
ĠT ob
ing ing
Ġst ats
em porary
Ġen ric
pie ces
h uman
Ġsc ams
Ġback pack
Lear ning
Ġsh iny
Ġroad map
ĠDocu ment
c ular
i u
Ġdark er
Ġver d
8 2
M c
ic ion
G O
Ġres orts
Ġpos ed
intend o
Ġmush rooms
Ġdr ones
ĠVeter ans
ag ne
Ġinter connected
Ġbud s
Ġadd itions
St and
ĠAm y
ĠAm sterdam
ĠReturn s
Ġcit rus
Ġc ares
Ġcon gest
Ġro pe
ĠDak ota
Ġslee ves
Ġp ole
pl ess
in formation
Ġin ability
ple asant
ĠF al
Ġpl ag
Ġprof iciency
Ġtransfer ring
Ġpropos ition
ĠDisc ount
Ġfe eds
Ġdiscount ed
Int roducing
Ġinfect ious
ĠAny one
ĠTe acher
ĠH alf
ĠPr ices
cri ber
w oman
Ġgovern ed
Ġneck lace
ud ge
Ġimm unity
ĠBarb ara
ĠSe ven
Ġspat ial
I Z
Ġsw itches
ĠEm ily
ĠCost s
ĠB os
Ġtrans itions
Ġsw all
Ġcontinu ity
ĠDog s
N ovember
c amp
h ole
es pecially
as ma
ĠS AP
Ġsc oot
Ġtum or
Ġb on
Ġiss u
Ġrestrict ion
Ġaccomplish ments
met ics
in burgh
Ġl ane
Ġfurn ish
Se pt
Ġlength s
Ġsh ifted
Ġinc oming
ĠPat ients
im ming
Ġhapp ily
Ġport ions
ĠTH AT
D E
Ġtra gic
Ġdem ol
ĠBal ance
om er
Ġsm iled
it as
ĠSt orm
Ġprotect ions
9 00
Ġgall eries
ĠUg anda
G ra
Ġcon clusions
ap es
Ġbre eds
ĠVers ion
ĠH i
Ġpat ri
Ġfar mer
Ġanch or
ĠN elson
ai ro
ĠIran ian
ine e
Ġarch ive
Ġund en
Ġconver ting
Ġkick ed
ĠPl astic
Ġvalid ity
Ġproceed ing
g overn
Ġten ure
on ents
ar se
Ġre build
Ġex ceeds
ĠR achel
ail ure
8 3
nam ed
Ġsuccess es
With out
Ġir regular
ll a
Ã© s
I X
ĠY ang
J une
Ġrest art
Ġh ose
Sh ipping
v ic
ĠC ris
ast ically
B esides
Ġb ou
gred ients
m ill
ĠAr men
Ġsupp ose
Ġlabel ed
ĠAppro ach
ĠTechn iques
Ġfut ures
ĠW ide
N T
ĠChrist opher
Ġimag in
Ġgar ments
d ess
Ġad ren
Ġqu een
Ġsol ved
Ġsent ences
AG E
se ction
Con n
ĠT ro
out ube
Ġteen agers
up un
G ive
b at
w heel
Ġemb odies
Ġpoly ester
Ġcere mon
b its
Ġcalc ulation
Ġmet ric
V A
Ġa ver
ood le
en ic
Ġsub missions
ĠFl ash
Ġl ymph
ĠTra cking
Ġfur ry
Ġf ond
Ġhe els
ĠL ion
ron ics
ĠEl ite
Ġcast le
ĠSus an
d et
Ġpar as
Ġround ed
ĠSt ew
Ġdecl aration
R est
d uty
ĠT iger
ĠS K
ĠK id
Ġmark ers
Ġimag ined
ĠPolit ical
am ation
ĠL ever
Ġs iblings
ĠBu ilt
Ġteasp oon
Ġpro w
oc hem
Ġconv icted
ĠPok ies
ling ton
Ġproblem atic
Ġpoll s
Ġcleans ing
im ated
ĠS au
Ġhonest y
Ġbench mark
Ġmolec ules
ĠE PA
Ġstr ings
ĠCar ter
ograp her
T w
ĠT ed
Ġve gg
Ġd in
ĠBuff alo
N avig
ob ic
Ġsystem ic
ar ious
Ġsm arter
Ġred es
gener ated
Ġannoy ing
Ġlect ures
Ġy arn
ĠC riminal
ĠCl ar
Ġtre asures
Ġalign ing
ĠDet erm
Ġintric acies
Ġterror ism
S ubscribe
ĠG er
ear chers
we g
Ġveter inary
Ġcan al
Ġfat al
ugg ing
ĠExcell ent
Ġpic nic
de al
ĠCon cer
ĠAc cept
ĠSte am
ĠC osm
ĠHe avy
ĠMembers hip
Ġslee ve
m ath
r ays
ĠW ang
are tt
ĠDen mark
eren cing
Ġr ider
" )
Ġexc use
V al
ex per
Ġimp ose
Ġunder going
ĠTe aching
Ġgr ind
Ġsubs criptions
oc c
ĠInst ant
ĠGood s
t hens
Ġreason ing
Ġmag net
Ġfashion able
ĠMov ie
ven ient
Ġsal on
Ġar ises
Ġfree zer
Ġactiv ist
Ġre he
ĠArab ic
ĠManh attan
C oll
Ġstim ulation
ĠAlp ha
ĠB ee
pr ising
Ġroof s
Ġsh it
Ġdi ets
Ġfresh ly
ĠAut hent
F E
ĠL ocated
Ġflags hip
Ġretain ed
down s
ĠPlan et
is al
Ġhard wood
Ġtraged y
Ġin ception
ĠP ine
Ġjust ify
Ġquiet ly
Ġch ase
ote chn
d egree
Ġdisc rimin
Ġ5 9
g ae
uss els
Ġther most
Ġtermin ate
ĠInc lude
Ġritual s
I E
Ġmar itime
Ġtact ical
Ġgroom ing
ĠK ath
ĠL E
pe x
Ġpay lines
ĠLet ter
Ġr ushed
âĢ¦ âĢĿ
Ġadmin ister
Ġtap estry
Ġd read
ond e
Ġdiscip les
Ġvoc abulary
Ġbout ique
/ .
cont ract
Ġfing ert
? !
Ġs q
Ġdem ographics
Ġcoll ision
Ġup ward
Ġtow els
Ġattribut e
l ass
ĠB und
um en
Ġground ed
Ġ198 9
ĠS R
ĠL l
, '
ĠP ill
Ġrec laim
ĠAware ness
Ġbe ats
ĠN SW
Ġdrive way
Ġst upid
Ġph osph
Ġstaff ing
ĠOlymp ics
Ġrecon cil
Ġun to
Ġbrace let
Ġres ign
Ġac oustic
A K
ct ors
ential ly
St ation
Ġge ographic
Ġsubsid iary
g aming
Ġmot if
Ġpred iction
Ġcolle ague
Ġfreel ance
ĠPu erto
an ut
Ġexerc ising
Ġpair ing
Ġweb page
Ġspark ed
ĠW W
act ions
Ġmotiv ate
Ġinsu fficient
Ġl acks
Ġfulf il
ĠFrank lin
R ob
Ġp ound
Ġd ia
Ġcol umns
Ġbra ces
Ġstim ulating
Ġderm at
Ġchar ities
ĠFl at
Ġcompr ised
M arch
Ġcomp osite
app le
ĠGl ory
ĠChristian ity
ĠSa aS
ĠCra ig
Ġforecast s
B ER
C ount
ĠAust ria
ĠInvest ig
Ġb ure
ĠGr an
C ome
st airs
Ġmetab olic
Ġf encing
May be
c ue
Ġm arch
per ature
ĠStat us
ĠP arent
Ġfact ories
Ġpack aged
s om
ĠG host
hen g
Ġp ale
Ġun used
Ġso ak
Ġprom in
Ġguarantee ing
ĠIndust ries
ĠReport ing
Ġbenefic iaries
e er
as i
Ġref res
Ġconst itution
Ġadhe rence
u pt
Ġprem ature
Ġmarg ins
ĠEqu ity
ĠCl ients
Ġhon ors
Ġener g
Ġthread s
ist ries
ĠPsych ology
Ġair flow
ĠLead ers
Ġent icing
Ġpersonal ization
Â £
ĠHamp shire
Ġeconom ical
ĠOver view
ĠSub st
Ġupload ed
Ġd ri
Ġpol ish
ĠAl bert
ĠAgain st
ĠF isher
ide os
Friend ly
A ng
pro du
Ġtrain ers
ĠTre asury
Ġhack ers
in arian
ush i
ĠArchitect ure
ĠS hip
Ġdish washer
ĠMont ana
Ġcont ra
Ġexpress ly
ĠVol unte
Ġm ould
Ġc akes
Ġb ang
AR E
ro ps
ĠI l
est inal
ĠRe ally
Ġair ports
Ġadvent urous
Ġencrypt ed
Ġtraffic king
ood les
Ġsp ans
ah oo
Ġm o
Ġcan ce
Ind ia
ĠW right
Ġcommission ed
ĠChel sea
Ġacc ents
Ġey el
Ġtransform s
ht ml
Ret urn
P aul
Ġrel ocation
Ġrem inis
Ġcor rid
uff s
Ġshowc ased
Ġimper fect
b ird
Ġheav ier
Id ent
b usiness
Ġcl utter
itc hell
ĠGra ham
Ġrecover ing
Ġur ine
Ġur gency
Ġch ore
Ġag ility
amm ers
Ġcreat ure
Ġban ner
Sp orts
ĠP osition
Ġ6 2
Ġmet res
ĠWind ow
ĠLiber ty
Ġtrans cend
Ġwhat soever
Ġreflect ive
Ġdoub ts
ĠSol id
Ġheight ened
Ġgra vity
Ġpost p
ĠCand id
ill o
ĠK night
Ġcountry side
n ai
Ġsh ampoo
ĠFor ces
Ġclass ics
umb led
V R
ene z
ĠMe asure
Ġrepair ing
Mich ael
C am
Ġcl ause
Ġsp oil
Ġreplace ments
Ġf ights
ĠH ans
Ġbl u
Ġhyd rated
ĠB ou
Ult imately
Ġd are
ĠP ier
Ġ1 30
Ġgar ment
d ig
Ġresol ving
Ġu k
Ġaccum ulate
Ġstr anger
Ġaut ism
ĠMan ual
ĠS N
ĠW el
Ġrep aired
ĠDisc overy
Ġstorm s
ĠA uction
Ġfr ight
Ġspark ling
Ġreferr als
ĠCoordin ator
st akes
ĠB I
ĠValent ine
le ad
our met
Ġsal aries
Ġspons orship
Ġs lic
ĠE L
Ġserv icing
ĠFin land
Ġ âĤ
Ġt ensions
ĠA aron
ĠF err
Ġaccident ally
ĠDev ice
Ġrid icul
ĠD IS
ĠHe aven
Ġfriends hips
ĠGu y
ĠArt ist
iv o
Ġcur tains
ĠH orse
ĠL ex
ish a
Ġinf ant
ĠSh ah
Ġquestion ing
ĠS ent
ĠB anking
Ġelement ary
Ġendorse ment
ĠE SP
Ġheart felt
Ġintegr ations
un ted
ffic ial
Ġrad ar
Ġinadequ ate
Ġto es
Ġ um
Ġh ues
Ġaband on
Ġbod ily
M aterial
Ġc ouch
ĠT ank
ĠF ight
Ġunder water
Ġlivest ock
Ġs odium
ot ine
ĠB art
Ġoptim um
Ġtranqu il
ĠG ospel
og g
Ġdisadvant ages
Ġmill enn
R ich
Ġg ates
Ġbl oss
Ġintent ional
ĠEx c
Ġris es
Ġillust rate
ĠN ad
ip edia
Ġinter iors
Ġtub es
Ġin ver
ri um
ĠWal mart
Ġexplos ion
ĠW OR
ĠPos itive
pro fits
gl as
Ġarg ues
ĠOm egle
ĠAC T
Ġank le
en h
With in
Ġs iding
Ġf ade
Ġop io
Ġdemand ed
ĠStat istics
er ver
as ive
ĠP interest
Ġmed ieval
Ġtack ling
ĠL ost
it als
Ġrun ners
Ġod or
Ġrig id
1 20
Ġdial og
Ġunlaw ful
H uman
Ġweb inars
Ġdisapp eared
Ġspl ash
ĠF R
Tr ump
ĠParticip ants
ĠH ud
Ġpre y
Ġw ounds
per cent
ĠK ash
Ġ10 1
Ġrepresent ations
le ys
ĠW ays
L aw
Ġh obbies
ft y
20 15
Ġst ro
Ġaccum ulated
L ocated
et a
Ġunve iled
Ġmet ap
Ġstat ute
Sm all
Ġch ats
row th
Ġcred ible
ĠProper ties
ĠCh ile
Ġbelie ving
ur i
Ġadequ ately
Ġautonom y
Ġsp ont
ĠC ad
Ġsh ines
m ay
Ġmort ality
ĠH A
th ood
fort unate
ĠAD HD
he a
re r
ĠL ights
Ġship ments
Ġmathemat ics
ĠH end
ĠSc ore
ĠLa unch
Ġsevent h
T om
U B
Ġmon ster
Ph ot
Ġthere of
Ġtransl ates
S ize
am bers
ĠEd inburgh
Ġtur key
Ġrede em
U P
Ġch asing
Ġexc urs
Ġmanip ulation
ĠInj ury
Ġinf inite
ĠG on
Ġhas ht
Ġmet a
ĠFramew ork
v it
Ġto e
and o
Ġsh ocking
ĠSh ar
Ġc ough
ĠP ope
Ã© e
V ideo
p ublic
Ġdis able
Ġco h
Ġassist ants
8 1
Ġne u
Ġnow adays
ĠRob in
Ġdispos able
W ind
ĠS eller
Ġcle arer
ĠRe wards
Ġflaw less
ell s
Ġswe ep
ĠInvest ing
ĠO t
Ġdistract ions
Ġf ry
Ġcou pons
Ġmathemat ical
ĠScholars hip
ĠG el
ĠJ ere
ues e
ĠComm ons
Ġmart ial
Ġne ur
Ġapp les
Ġcomm issions
Ġprosecut ion
b ag
Ġquarter ly
Ġexceed ing
ra ment
ruct ured
Ġmon et
Ġdomin ate
ĠMethod s
Ġpur ity
St op
ott est
g ot
Ġn odes
ĠLaw yers
Ġl amin
Ġabsor bed
Ġh ust
ĠU pper
Ġvisual ization
ing les
ĠH unt
Ġsp anning
ĠM ent
Oct ober
P ut
ĠS ME
Ġav id
Expl oring
ĠI an
Ġr ivals
ĠG ray
Ġcentral ized
Ġw re
ĠM es
ĠG it
cent ered
Ġunw ind
Ġarbit ration
Ġmos qu
ke ys
ĠB aker
EN TS
Ġwel comes
Ġblog ging
Ġrail way
ĠG ordon
ev olving
ĠSet ting
Ġunf amiliar
ĠVar ious
Ġm asters
ĠCal cul
Ġamend ment
: -
C ity
ĠT ampa
Ġ14 0
Con clusion
ĠFurn iture
Ġfingert ips
ĠW AR
ĠV iking
Ġatt acking
Ġ12 5
Ġc ort
Ġm ul
ĠE ither
Ġpre de
B r
ĠR ivers
ĠPort al
ĠCO MP
ĠFin n
Ġpo et
pp ings
ĠAl ice
Ġlight ning
Ġsw ap
Ġfix es
Ġbe ads
Bu ild
Ġfemin ine
ad os
um per
Ġgener ators
Ġmen us
Ġannounce ments
Ġsign age
Ġatt ent
eg as
Sh ow
ĠWar ren
ĠMer ch
Ġspr ings
Ġhel met
N O
ĠS ter
ĠP rag
Ġperm issions
g ars
Ġl ime
ier ra
Ġpot s
ĠIm per
A g
ĠP enn
ĠAd ding
Ġinterview ed
Ġr ansom
Ġnew born
uck er
Ġshall ow
S il
ĠU ber
Ġcivil ian
Ġrandom ly
ĠImport ant
ĠC odes
ĠB ishop
ux e
ĠPre vent
ĠN intendo
ĠO EM
ile m
Ġup side
Pro ject
N OT
ĠT ab
Ġche at
Ġparent al
IM E
Ġrow s
ã ĥ
ĠR anch
ell i
Ġbo iler
ac cept
ĠSt ain
av ers
Ġexhilar ating
Ġd well
Ġimp rison
ĠCl ose
ĠAffil iate
ĠPar ad
Ġland mark
Ġz oom
im eter
ri k
ĠEx hib
iox ide
Ġto pped
ĠF O
Ġrec ession
Ġmed al
Ch ar
Ġobs erving
Ġun pleasant
o ks
ĠP oll
Ġinnov ate
ĠNash ville
ĠBapt ist
Ġfor ty
ĠN A
Ġremind ers
ĠP red
Ġun healthy
Ġup hol
Ġsk irt
ins ula
ĠCon sequently
20 17
Ġband width
ĠProv iding
X X
ig hed
Ġident ifiable
C ong
ĠHigh ly
ine es
ĠLaw rence
Ġcoordin ator
Ġadorn ed
A pril
y ll
Ġa ston
Ġd rought
Ġexp ands
ĠSte ven
f acing
ĠF ans
Ġdeep en
ĠMer cedes
Ġped iatric
ĠFact ors
Ġtranqu ility
art en
ĠCh ampion
Ġbless ings
ĠF ern
ĠL amb
ĠHe ating
Ġblend ed
Ġnegot iating
Ġl ing
ĠMain tain
Ġfrag ile
Ġscr atches
f amily
in ted
Ġc innamon
Ġflavor ful
Ġfo il
v oc
ĠAdv ance
Ġesc ort
P ass
u z
Ġqu ad
Ġspe nds
Ġkind ly
ĠAct ivity
Ġvolat ile
il ings
ĠMan age
Ġmis use
Ġo v
nder ing
20 16
c het
ĠD raft
ĠR C
Ġide ally
Ġacclaim ed
Euro pe
d imensional
ne x
Ġmicro sc
Ġtor que
Ġp aving
ĠB ass
ĠTrans p
Ġseek ers
ĠPitts burgh
Ġt ier
Ġan at
ob a
Ġpl ed
ater nal
al king
ig m
ĠC E
ĠU PS
ĠAb ility
ip ur
at ra
ig a
ĠF el
um ers
ĠHer o
Ġterr ific
ĠLeban on
m ir
Ġdet erg
ĠCl ay
ĠSo on
ĠE UR
od ia
ĠK an
Ġdevelopment al
ĠZ en
Ġflav ours
Ġdent istry
Start ing
commun ications
Ġstub born
ĠL oad
Ġun e
round ed
Ġend ure
ĠPl umbing
Ġment oring
ĠMass age
Ġf og
Al ways
B ar
OS S
ĠL odge
Ġyog urt
Ġlad der
ĠDat ab
O ps
ĠSe an
Ġwarn ings
ĠD ive
pl oad
Ġ6 3
Ġinsp ir
flow er
Ġinform ational
AT A
Ġvib ration
ĠT ag
ass ium
uk i
Ġeuro s
P ack
ro ts
Ġinv ention
IL ITY
Ġbooking s
ĠIB M
Ġgr inding
Ġvict ories
ĠDam age
Ġreserv ations
Ġf ighter
le ton
Ġpriv ately
Ġp ap
Ġdisc ontin
Ġsimpl est
Ġvalid ate
ĠN est
port ed
Ġhead ache
Ġmar ry
ĠTru ck
ĠG ill
pl ane
Ġinf est
Ġillust ration
claim ed
m are
Ġh ints
Ġconcept ual
F our
est eem
Ġf ried
Ġfil t
Ġhed ge
o pp
Ġw ip
any on
io let
orth y
ĠBeaut iful
Ġlin en
C y
ĠApp eal
Ġmes mer
gh ai
ruct ed
ĠDo ing
Ġrad iant
Ġfresh ness
Ġder iv
d el
ĠFact ory
Ġscrew s
Ġtomat o
B as
Ġexc av
ĠScient ific
Ġcrimin als
Ġne ural
Ġ9 7
ĠMad ison
Ġdry er
FA Q
w elling
ĠP ills
ĠGu est
Ġformer ly
ĠInter active
Ġpossess es
p ical
Ġsh adows
Ġrese ar
Ġclass rooms
ĠBr id
ĠPark er
Ġstick y
Av ailable
L im
Ġad hering
Ġ16 0
ĠLog in
Ġsacrific ing
Is rael
ĠBen jamin
Ġmitig ation
D s
Ġn aked
est hes
Ġr ip
Ġintern ally
Ġlawsu its
ĠAl cohol
ĠFil ip
S al
ĠH ire
ĠL an
Ġdisc reet
Ġensure d
Ġgre ase
A lex
s ign
Ġdifferent iate
Ġbul bs
form er
Ġcult ivation
Ġconstitut es
Cas ino
3 65
âĢĿ ),
Ġanal og
Ġd orm
ĠW ILL
Ġdefect ive
Ġvoc als
l ie
ĠP ricing
Ġup wards
Ġreg istr
Ġdef ic
Ġreinfor ced
Ġaccompany ing
Ġreward ed
ĠFab ric
Ġprow ess
Ġones elf
Ġconfig ured
Ġfundament als
ĠArgent ina
Ġa pt
un ct
Ġ7 6
ĠLight ing
ĠBeh ind
F ast
Ġpl astics
ĠUn less
yl ene
ĠPress ure
ĠVictor ian
Ġbron ze
Ġmer cy
Ġd ice
Ġeat en
upun cture
F ore
Ġmil it
Ġpione ering
Ġantioxid ant
Ġbe an
Ġint ra
Ġstr ives
Ġcomplement ary
Ġincom plete
in ition
Ġun fortunate
Ġstreng thens
Ġexplo itation
Ġfilt ration
E ss
g ow
ĠPlatform s
Rel ated
ĠEng age
ĠProt ocol
Ġstead ily
as a
Ġmay or
Ġprot agon
ĠSy n
ĠDesign er
Ġast hma
Ġbackl inks
Ġpro xy
ĠW oo
Ġinter vals
role um
p ages
Ġbl ues
Ġmicro phone
Ġstick ers
Ġaggreg ate
z el
ĠV el
ĠE li
Ġ( "
Ġhome page
ĠE arn
Ġreject ion
C ra
p arents
Ġwater ing
Ġportfol ios
ĠStan ley
ĠEag le
S chool
ĠL aser
Ġspecific s
Ġcash back
y ards
th op
Ġtox ins
ber y
ĠRel ief
Ġsculpt ure
Ġh o
Ġh inder
Ġend ors
ĠVis itors
ĠLab s
ĠAff ordable
ĠEns uring
L ED
ĠB ike
ĠL en
st rong
ĠM ist
ĠCam era
ĠGuid elines
Ġb ush
ĠHist orical
Ġacceler ated
As k
ĠGo ing
Ġw it
ee k
Ġgen ius
Ġhyd raulic
Ġflaw s
Ġbe am
Ġinv oices
Ġgra pp
duct or
ĠES G
Ġl ace
ĠSche me
H ouse
Ġsh red
az er
Ġpost ers
Ġperiod ically
ĠCh an
Ġreal izing
ĠOF F
ĠStep s
un al
ĠWay ne
Aut om
d ec
Ġco ated
Ġdel ves
iling ual
ĠAlex and
et own
Ġpract iced
ĠInter view
ĠT ow
Ġv o
Ġfore x
Ġemerg ence
Ġexem ption
Ġe ld
ĠPict ure
un c
Ġchar ger
uk a
Ġassum ing
ĠT odd
em et
Ġsequ ences
Ġcarp ets
Ġover coming
ash a
ĠPat ri
Ġremod eling
ĠW ag
ĠNon etheless
ĠFlow er
rat ulations
B ro
ul as
ĠB anks
ĠD ating
ĠMil an
Up on
Ġm igrants
ĠN av
Ġf iring
ur ved
Ġsuper visor
an im
ĠM ak
Ġrad i
Ġrain bow
ĠPrincip al
eal ous
ĠMur ray
ĠStew art
N ET
Ù Ħ
ĠM ira
Ġam azed
Ġtext ile
ĠNet works
ras ound
ĠL akes
Ġcare d
Ġbefore hand
Ġhard est
Ġball oon
M art
f our
Saf ety
Ġg aze
Ġweigh ing
ĠF M
Ġpuzz les
ĠC MS
Ġdr astically
Ġsun gl
Ġunc ons
k n
ĠBoy s
Ġsam pling
Ġpermit ting
T im
ĠAl most
ĠNe uro
Ġadvert isers
o ise
ĠE t
Ġprison ers
Ġenrich ing
Ġprede cess
ĠM illion
Ġmat urity
Rec ently
er red
Ġcar ved
co al
ĠCamp bell
Ġbeat en
ĠCN N
Ġrev is
Ġdepth s
ad der
Ġle agues
Ġfun nels
Ġbur d
ĠEconom y
Y eah
Ġg arbage
Ġref urb
ĠRoof ing
Ġb arn
Ġform ally
Ġsw itched
Ġforg iveness
Ġinhabit ants
ĠA er
ud a
ĠPl ug
ĠBroad way
Ġli abilities
ĠP VC
Int roduction
B N
Ġaer ial
ra ham
Ġyoung est
Ġwheel chair
Ġfell owship
Ġâ Ĩ
arett es
M en
ĠP aint
ific ant
ĠRe placement
Ġbi om
Ġland marks
Ġhabit ats
x x
Ġc iting
ot on
ĠC AD
ĠWebs ites
ĠId aho
dra wn
ĠM itchell
Ġcry ing
Ġsimpl ifies
ĠQueens land
V ery
ce nds
col or
Ġimpress ions
ĠRec ruit
ĠCD C
ĠT ut
ĠC u
Ġse aling
H ar
Ġreal ised
Ġg own
ĠD NS
Ġoccur rence
ĠBrother s
ĠH ack
our t
Ġ7 8
Ġrot ating
ĠC arm
ix ed
Ġopen ings
Ġir rigation
Fe b
P ar
Ġconstruct ive
Ġd ock
Ġg ums
ang ular
Ġdef icit
Ġener gies
ĠAlber ta
S un
per m
Ġopt ed
sh irts
Ġvot er
ĠMat ter
U ser
cel ain
Ġerg onomic
ĠD iversity
ĠR io
Ġrec alled
Ġent ails
Ġrun ner
oul try
Ġveter inarian
ĠS low
Ġdipl omatic
Ġsuper vis
Ġsun shine
Ġemp ire
ĠForm ula
Ġwise ly
ĠPortug uese
E arly
ĠUpd ates
h um
ing es
Ġsc attered
be it
ĠDr iving
ĠGl as
ĠWire less
re view
Ġam ino
Ġorganiz ers
Ġ198 8
ĠAdvis or
Ju ly
ĠTw in
Sept ember
as ia
Ġl oses
am med
Ġpro actively
ĠW u
ĠL ie
ict ional
Ġgra ve
Ġment ors
Ġtempt ing
ĠCh a
Ġrep roduction
Ġsm ok
rim p
th al
ĠEx ercise
ĠQ atar
ĠAP Is
S ecurity
Ġinv alid
Ġread iness
Ġ6 8
ĠR aw
ĠUpd ated
ĠM aps
ĠF ee
ĠG ot
ĠOpportun ity
Ġp od
and el
aps ed
Ġthe at
it us
ĠA U
ĠEx cept
Ġgra pe
Ġprep ares
Ġp encil
ay an
ĠP att
Ġsh aft
Ġsp ite
Ġtax payers
force ment
DA Y
Ġintim acy
IN D
ĠS eg
Ġ7 7
Ġmultipl ier
S ervice
T ip
ay ed
ĠK aren
Ġcoll ateral
De pending
n on
li hood
ĠPart s
pher d
b ecause
ĠE at
ĠJ et
ĠSt rength
H ot
ĠR ise
Ġquarter back
ĠWeek ly
ĠConn ection
Ġhe el
p ayer
en ers
ĠM I
Ġbright ness
Ġalumin ium
ĠColl ins
our ced
Ġbre wing
Ġwar fare
ĠJim my
am per
Ġpre jud
Ġpain ts
Ġad hesive
Ġh ottest
Ġas h
ĠE sp
Ġspread s
f ill
E arlier
ot ed
ĠF igure
Ġright eous
Ġintention ally
V ol
d og
ĠD ed
ĠF ame
f il
ĠJ azz
Ġborrow ers
g rown
ĠEng aging
Ġfle w
roph ic
Ġexclus ion
Ġsolid arity
pat ched
Ġpil ots
ru ed
Ġqu arters
ĠCap itol
I RE
ĠTr ial
Ġbound ary
Ġfif teen
Ġan ten
Ġus ability
Ġintern s
Ġmag nes
oc s
ĠR is
Ġwas ted
Ġspec ulation
W ould
Ġp ores
ri ages
ach i
Ġsign ifies
Ġquestion ed
Ġsettle ments
Ġcapac ities
ĠOsc ar
se arch
lic t
ĠSh aring
ĠD uty
ĠF uel
Ġun ravel
Ġhum id
Ġmean ings
Ġaccum ulation
Ġpione er
|| ||
Ġprovin cial
Ġsu ck
ĠOff ering
ĠAtt end
on line
Ġ6 7
Ġun belie
ĠMar ie
ĠPhot osh
ĠFl u
ĠWH O
Ġd ioxide
ik o
Ġarch ae
Ġjack ets
ĠChar acter
ĠMot ors
ĠLast ly
Ġrich ness
Ġamb itions
ĠInteg rated
Ġb ake
Ġper taining
Ġmethod ologies
Ġdoub led
m ile
ĠB S
St rate
ĠLe af
ĠNe ck
ĠSur v
ĠdÃ© cor
ĠM old
ĠP PC
ĠB rist
Ġimp ly
Ch ildren
Ġentertain ed
Ġdisappoint ment
W omen
ccess ful
Ġ0 1
Ġprototy pe
et ric
Ġinvestig ators
Av oid
C or
iv an
ĠQuest ion
av erse
ub a
Ġ8 8
Ġsens ible
Ġflour ish
Mod ern
ĠWe alth
Ġwild erness
Ġmultif aceted
at ured
ĠAss et
g ressive
ĠL L
Ġreal ities
Ġdraw backs
ĠOnly Fans
Ġhes it
ĠAmb assador
ever ance
ĠAccount ing
Ġinsure rs
p athy
Ġs ins
ĠH orn
ĠLuck ily
Ġsup reme
emet ery
ĠS IM
em ia
Ġun rest
ov o
Ġexceed ed
ĠP D
ĠF ees
ĠFor ward
S afe
Ġinter ven
Ġgener ative
Ġrevolution ize
ĠB A
ĠUn iverse
Cont ent
appro ved
e enth
Ñ ĸ
Ġt ant
ĠC anyon
ĠSome one
Ġgrand father
isb ane
Ġretain s
Ġexpend iture
Ġcol oring
Ġemer ges
Ġsynt hesis
Ġfl ed
de pend
Ġinsp ires
S EO
Ġeven ings
Ġwa ited
ĠMo z
ĠF o
Ġrum ors
S an
S uch
reat ment
Ġaven ues
ĠS ession
ĠFl ore
ĠPalestin ians
ĠT on
ĠAv iator
ĠCon cept
Ġfast ing
ĠWhe never
ar an
Ġatt ire
IS S
Ph il
ĠCoal ition
Ġsungl asses
S pot
ĠC ant
ĠCh ase
Ġbet ray
less ness
Ġmaj estic
ĠT s
act ic
ĠAcc ident
Ġall ocate
yc ling
Ġneighbour hood
Ġe commerce
Ġ198 6
Ġadvoc ating
col ored
Ġproject ions
Ġple as
Ġsil ly
ĠBal i
ĠBirth day
Ġa fore
Ġrock et
ĠBonus es
Ġnom ination
employ ed
Ġce ilings
An n
Ġnit rogen
Al tern
Ġbra ins
Ġre usable
ĠB our
ĠPet ers
ĠðŁ ĺ
Ġl ingu
ab ino
Ġme ats
Ġcoordin ating
Ġsm iles
Ġlung s
Ġget away
ĠAl f
Ġsun screen
Ġsymbol ic
c ra
Ġprocess ors
Ġcost umes
Ġconc ur
Ġquant itative
idel ity
M R
r ill
est on
Ġadapt ive
Ġvacc inated
Ġexch anged
ĠSav ings
ĠJess ica
ar ians
Ġser um
uss ions
Ġsex ually
ĠRec ently
ĠSim ilar
Fr iday
Ġcomp uls
Ġeduc ating
itut ional
Every thing
G aming
Ġcrack ed
ĠMarsh all
S am
ĠIn vent
Ġart isans
IN T
Ġtrack ed
ĠDesign s
ĠV illa
Ġbu cks
ĠPat ient
ch ild
Ġse iz
op ing
Ġfound ational
Ġfilter ing
Ġnob le
Ġitiner ary
c ook
ra red
Ġse wer
ĠTe achers
Ġbroad ly
Ġment orship
B ring
C er
Ġn ap
ĠP ret
Ġexam ines
ort ium
AN CE
Ġcapt ivate
Qu ick
Ġdevot ion
Ġmaneu ver
weg ian
Ġlit ter
ĠLabor atory
her ic
Ġbattle field
Ġinter im
US D
ar in
ĠB TC
count ry
Ġv om
ats on
ĠNe ighb
ĠEm irates
ĠK il
al ign
Ġbrut al
b ad
c ology
Ġc od
Ġor thodont
Ġsubst itut
Ġcooper ative
ĠSe lection
ĠB ak
os ion
ĠL inks
Ġcheap est
ĠCraft ed
ĠHarb or
Ġmis leading
Ġillust rated
Ġfib re
Ġintend s
ight y
Ġam ended
Ġbelie vers
ĠConsult ant
Ġdist ancing
Or der
ĠArk ansas
H appy
ĠMem ory
F ace
Ġstr iving
ĠD ownt
ah l
ĠSign s
Ġpursu ant
Dis claimer
ĠBr isbane
Ġment ions
C s
Ġc ens
le arning
ĠP i
ĠG y
Ġsand wich
ib ration
ĠTh an
ĠOper ating
ĠCON T
ï¼ Į
Ġf onts
Ġn erves
ĠRe ality
ĠRes idential
Ġbond ing
Ġrenov ations
b in
Ġd azz
Ġst un
ĠAr thur
Ġneighb oring
Ġadm issions
im ize
Ġapp rentices
et ra
ĠL arry
Ġev angel
rit ical
Ġco ats
__ __
D ou
ĠA F
Ġext rem
Ġter ra
Ġmid night
Ġveget ation
Ġacadem ics
d ated
an ical
Ġinstitut e
ĠTele gram
Ġconsolid ation
Ġall ergy
nam ic
Ġblank ets
Ġp sy
Ġoptim ism
Ġsym pt
ĠMor ris
amp agne
Ġexp on
Ġmet allic
Ġenc aps
Ġtem ples
Ġal ly
ere rs
ĠEm ma
Aug ust
Ġrelent less
Ġbe acon
ig nt
Ġsemin ars
Ġr ugs
Ġaw ait
Ġconsp iracy
b oth
ĠP and
ĠP ages
Ġlot teries
Ġpar ade
Ġgreet ed
p ad
) ?
ers ion
ĠC opy
Ġcontribut ors
ĠIncre ase
Ġo we
ĠðŁ Ļ
Ġsp here
Ġro oft
Ġstandard ized
ĠPat tern
requ ency
Ġacquis itions
Ġchef s
Ġinev itably
Ġnov ice
Ġmembr ane
Ġcompet ence
Ġcond em
Ġcontamin ants
ĠN one
Ġembro idery
qu are
ĠW ait
Ġtax ation
ĠComp at
Ġfight ers
Ġl ithium
Ġ198 4
pres so
Adv anced
en es
ĠH erm
Ġfe ast
Ġteen ager
c as
cast le
ĠNorth west
Ġspread she
Ġrend ered
Ġunl ocking
ĠWarrant y
M onday
Ġ6 1
ĠMichel le
F ire
ĠE lection
Ġsp lend
Ġmagnes ium
ph alt
ĠWorks hop
Ġtra ces
OM E
pack ed
Ġg ases
ill ery
Ġev oke
Ġad apter
ĠPear l
Ġreposit ory
Ġo ste
Ġsk ate
Ġvolunte ering
th inking
Col or
Ġas bestos
ire ment
Ġinstall ment
ĠTre k
Ġar row
Ġweb cam
Ġwall paper
Ġb ip
Ġhope ful
Ġdefin itive
ĠMc Donald
ĠInvest ors
b orough
in formed
Ġcomfort ing
Ġtour ing
Ġint roduct
Ġsubject ed
Ġund erest
Ġhel m
ĠVerm ont
h is
Ġun int
Ġbox ing
Ġintu ition
Ġfl ush
Ġshow ers
Ġbo ast
Un iversity
ĠSpe c
ĠDou glas
J ames
ĠLaw yer
ĠRob inson
Ġw ishing
it le
b ags
Ġl oos
ost ics
Ġprem iere
ut o
Ġrest ing
Ġthy roid
ĠOper a
s afe
Ġat e
Ġ19 20
ĠMat ters
ĠLo ans
or ant
Ġas semble
Ġbudget ing
Ġille g
Ġlaugh ing
Ġindirect ly
ĠB le
ĠF ellow
ĠCh i
Ġreg imen
Ġfram ed
Ġancest ors
Ġrain fall
Ġbact erial
ĠCommon wealth
ĠB ever
Ġcan cers
F amily
b order
Ġ19 30
A ff
Ġcom ed
ĠD ual
ĠD ipl
ĠG i
Ġfle e
Ġle gends
ĠRich mond
Ġsc ra
Ġass ass
Ġmed ian
Ġremain der
ĠMur phy
s a
Ġas ylum
ĠJ ama
Ġviol ate
ĠF ROM
let t
ĠInt roduction
Ġine quality
ĠC re
ĠM Y
iz a
Ġopp osing
ĠAre as
S R
ĠC e
Ġfav ored
t ent
ĠGr iff
ĠGuard ian
Ġu h
Ġche es
b ike
Ġorigin ated
Ġbrush ing
Ġbid ding
Ġmattress es
Ġgest ure
F urther
L ow
per forming
Ġdecre asing
Ġagg ression
Ġconvin cing
Ġru in
Ġc ove
Ġn ode
Ġacc us
Ġdig ging
Ġcontribut or
De cember
ĠEth iop
v ine
Ġm ate
Th ings
Ġdecre ases
t ight
Ġr inse
unicip ality
ĠPhotosh op
t or
ĠH our
br ush
ĠNFT s
u f
Ġsal vation
Ġham mer
Ġw aking
ĠUS E
ĠProv ides
TH ER
ĠColomb ia
Ġpay able
Ġdr unk
ĠMont real
w orm
id able
Ġafter math
Ġindividual ity
Ġrev ision
Ġ198 7
ĠGuarant ee
iv able
ip ation
Ġfr ank
Ġcard board
Ġsn ake
Ġcivil ians
Y ear
ĠAssoci ated
ĠGrow ing
ĠAh med
Ġpro state
ĠL ite
Ġfirst hand
Ġgradu ating
Ġmer ger
Ġdecor ating
ĠLog istics
Ġsla very
ha ul
des h
Ġcataly st
Ġp addle
Ġon board
ĠF if
Ġref in
IS A
Ġaccident al
ĠAren a
Ġexecut ing
Ġconfirm ing
Ġumb rella
Ġover load
Ġcommit tees
Tr ust
Comm unity
Ġd ilem
Ġn ause
ĠT ang
ĠCal endar
ĠEv ans
ĠN ike
Ġclean liness
Ġlive lihood
par ation
it iveness
ĠC ategory
Ġbra kes
ii i
Ġin quire
Ġdigit ally
Ġapp ell
T D
Ġper ceptions
Ġrespect s
Ġdistribut ors
ĠFamil ies
F ocus
and y
Ġpast or
Ġblow n
ĠAch ieve
Ġgarn ered
Ġbalcon y
ĠF ruit
Ġpull s
r h
Ġun fore
Ġhead line
ĠRec ipe
Ġamend ments
L ab
Ġs ulf
ĠDemocr at
Ġaer ospace
Ġgram mar
m n
Ġpl aque
Ġsl ices
Ġbroad band
Ġjoint ly
ĠCitiz ens
ĠTh or
Ġtyp ing
Ġbeh ave
Ġelect r
Ġres olutions
ĠPr ide
OR S
Ġuncertain ties
Ġper t
Ġsc oop
um erous
Ġsh ining
Ġk icks
Y C
ĠG OP
Ġlif ts
Ġargu ably
ĠF E
ie ving
Ġbro th
ĠRelations hip
ug hed
Ġlou ng
Ġpl ush
Ġmiss ile
N ame
ĠL uther
Ġun ch
ĠFl ight
Ġregul ating
ĠPer th
ĠSaf ari
Ġab ras
ĠPro of
Ġart istry
br aska
Ġeager ly
Ġliber ty
c orn
an ic
Ġins erted
head s
at he
ĠPro gress
ĠAr ctic
ĠFe aturing
d ation
im on
ĠAss ist
cont rolled
ad ata
ĠCh ron
G overn
Ġst ellar
ĠP s
ĠIdent ity
om p
Ġsk etch
ĠAccount s
Fe atures
esty les
Ġ q
ĠP ART
ĠN D
urn ed
Ġbegin nings
Ġste er
Ġsemin ar
G P
Ġgener osity
em p
Ġeng ages
ĠTal ent
ric ular
Ġprof icient
Ġter race
Ġgreet ing
Ġpat rons
Ġstret ched
Ġextract ed
Ġuncons cious
s ed
ĠG ear
Ġpractical ity
Pl an
Sat urday
Ġimpe cc
ĠP le
ger ies
Ġminim izes
Ġtab s
Ġartif acts
ĠR unning
Ġsold ier
Des igned
ĠInf o
l ists
Ġse als
cl ip
Ġslow ing
ĠHist oric
Ġacknowled ges
Ġcou rier
Ġtrend ing
Ġtra der
ĠC ities
ri el
Ġdomin ance
ĠCover age
Ġdisc ourse
ĠReg ulatory
Ġsmell s
Ġh ilar
ĠC arn
ĠOrgan izations
Ġacknowled ging
Ġpro c
Ġcr ises
Ġp enny
op ause
ĠG roups
Ġdef iciency
Ġfra gment
Ġpul se
Ġmult imedia
ĠRes cue
Ġmer it
Cur rent
B B
Ġb ent
ĠP oor
Ġla ughed
Pl ace
Ġpredict able
Ġdeb ates
Ġye ast
b us
x iety
Ġl amps
roll ing
iss an
Ġhand crafted
Ġrepl icate
Ġmultipl ayer
Ġris en
Ġcomb ust
Ġpar ish
iche ver
Ġber ries
ignt y
ĠR ates
Ke eping
Ġcontract ual
o an
Ġy acht
Ġcoat ings
ĠVietnam ese
ĠRog er
g ages
Ġso fter
Ġshort ages
Ġmatch making
B ank
im acy
th reat
ĠV enez
Ġrespond s
Ġflu ids
Ġinfring ement
Ġbl oom
ĠBr anch
F igure
ari us
ĠProv iders
Part icip
Ġexplan ations
Ġdistur bing
ĠBu ying
F low
ar re
ar us
ĠR d
Ġclean up
ĠOr chest
ĠArt icles
ĠShan ghai
Ġmalf unction
ĠN OW
ĠO P
Ġvisual ize
Ġsexual ity
Ġmyth s
H P
at ile
Ġelect oral
Ġfl ies
che dule
Ġaccomplish ment
Ġshed ding
Ġstat ue
App le
Ġc ass
Ġexp iration
Ġpo ems
Ġdefin itions
ĠBuild er
b ath
Ġadvertise ment
Ty pe
ĠLands cape
Ġsp oon
Ġlife cycle
G ame
H ope
ĠA A
ĠP E
Ġover d
ĠHy brid
Ġperf ume
ĠFAQ s
Ġplan es
ĠFirst ly
om as
Ġtrib al
ĠRout e
2 000
T ax
ĠBrist ol
ank ed
ann on
ac ial
Ġins ane
Ġfacilit ated
Ġconstruct ing
al ogue
ĠD ial
ES CO
Ġvill a
ĠEag les
Ġc ad
Ġg iants
ĠO UR
ĠInd ians
Ġsimpl ified
ĠOcc up
ce ans
ĠP air
ĠD ow
Ġwas ting
ĠDynam ics
ĠGro ve
c arbon
IC S
Ad ding
Ġdemonst rations
Ġc ents
Ġcount ed
ĠGlas gow
ĠB asket
Ch all
Ġforg ot
ĠB illy
Ġroutine ly
otechn ology
A part
m iss
Ġre ef
Ġstret ches
b as
av il
Ġsurv iving
Ġinvent ed
Ġcorrespond ence
ĠSuccess ful
ĠHe brew
inst all
Ġra pe
In f
icult ural
Ġmess y
Ġcollect s
ĠRed dit
Ġgrab bed
g roup
Ġsur re
Ġi T
ĠBlock chain
Prot ect
he astern
ĠB erg
ĠW aste
ĠG iving
Ġins ur
ĠPlay Station
Ġ198 5
Ġrevolution ized
Ġglow ing
ul ance
ĠL ip
Ġinflamm atory
ĠFeed back
Ġgradu al
ĠEp isode
Ġantib iotics
Ġcommod ity
ĠO pp
Ġrefuge e
Ġski ing
Ġpenet ration
Ġfil ming
Ġbure auc
l ength
ĠD ol
Ġcivil ization
Ġprop he
M ENT
R ad
ĠT ickets
Ġtime frame
r ust
Ġqu ir
Ġprofess ors
Ġconsult ancy
Ġpal ace
Ġsear ched
Ġveget arian
IG N
Ġpursu its
ĠRE AL
Per fect
ĠCN C
ĠSp ark
ĠG ather
Ġr het
H ol
en o
Ġeduc ator
Ġprep arations
ĠRequ ired
Ġadoles c
P LE
Ġsc ans
EN S
ĠTy ler
Su pp
Ã¡ n
ĠBul gar
orig inal
inter rupted
an za
Ġg rit
im izing
ĠJ in
Ġdirect ing
Ġdupl icate
l ishes
ĠThe ory
ick er
Ġheat ers
Ġdess erts
ĠPra desh
ĠS ierra
ĠList en
Set ting
Ġlone ly
St ream
ĠOb viously
H ER
Ġb iblical
Ġro asted
Ġform idable
bo at
ĠCra ck
ĠHe ights
Ġaw ful
ĠOper ation
ĠPhot os
Ġh ips
ep rint
Ġdiv isions
CA A
ĠDi agn
Inc orpor
Ġpron ounced
Ġmar athon
ĠVol ume
Ã ł
Ġt art
I K
is ol
ĠL P
Ġde hyd
Ġam ateur
ĠRo lex
Ġspokes man
ĠR ug
Ġconc ludes
Ġfundament ally
s im
t les
Ġremov able
Ġexhib ited
ĠTest ament
Ġthrow s
J ob
b ai
Ġart isan
AR K
Ġsyn onymous
ĠExpert ise
Ġhelic opter
ĠA W
ĠV o
gu ard
Ġpriorit izes
ĠExt reme
ĠHon or
S ty
or ating
om on
ĠC elt
Ġpe aks
ĠWe e
ange red
Ġredu nd
ĠRes erved
Ġwra ps
Ġcompos er
Ġz inc
Ġsett ling
f ox
Ġdem on
a a
w hether
ĠM ORE
op ath
au ndering
ĠSy nd
ĠHy per
Ġsurge ons
tw itter
ĠM t
ĠV ine
Ġfuel ed
htt p
we i
Ġdoor step
Ġexhaust ed
ĠLem on
Ġinacc urate
Ġb ru
ĠF ried
Ġvig ilant
Post ed
ĠM R
EM ENT
C M
Ġd umb
Ġst ark
ĠN BC
Ġlook out
Ġexperiment ing
B ec
he ster
ason able
Ġflo at
ĠPun j
Navig ating
p it
ic able
ĠC inem
Ġcur ves
ĠEnt ry
fact or
Ġinterpre ted
F ounded
Ġb ites
ĠCo aching
US A
Ġfold ing
Sim ply
Ã¼ r
Ġtrib e
if i
ĠB order
ĠQu arter
Ġmy st
ob i
Ġsem icon
ĠPub lishing
h aw
ĠK ir
ĠPl atinum
ĠMort gage
ĠAdvant age
Ġv apor
ĠE as
Ġcl ues
Ġteam mates
Ġovers ized
Ġlear nt
â ĺ
ort al
op ening
ĠN as
Ġ: )
Ġsilhou ette
r ators
Ġproduct ions
ĠGu ests
3 60
B ox
ĠG ay
ĠWh ole
Ġdel ic
ĠShe ll
ĠLe gend
IC ES
ĠPhil ip
F M
ĠM akes
ĠY am
Ġdisc ol
Ġdown side
ash i
requ is
ĠR oth
Ġu gly
Ġblind s
Ġst ip
ĠB T
ron ts
ott a
Ġpossess ions
Ġdec ks
Ġbre asts
Ġadvantage ous
ĠJam ie
ĠC el
Ġsp y
Ġtra umatic
Ġ6 9
att a
Ġargu ing
Ġobstac le
Ġchick ens
b ig
ã ģ
Th us
Ġcr ude
Ġill usion
Ġswe eping
Ġburn s
ol ia
ĠB elt
Ġha ul
ĠO kay
ĠHe aling
Ġportra its
Ġmin t
o i
ĠDevelop er
Ġmanip ulate
Ġunder gone
ĠPer form
ac ao
ind a
Ġpres ently
Ġconf ined
Ġg ifted
ĠInc ludes
ĠAdv ice
Ġinclus ivity
b ottom
Ġimport s
ĠPe ak
Ġden ial
Ġequ ation
ns ic
Ġguard ian
Ġhyper t
ĠCab inet
Ġlandl ords
M ag
ĠT ours
ĠF ailure
ĠCollabor ation
Ġf ixture
back ed
ĠAct ually
ĠAutom otive
est hetic
ĠIn vis
Ġover looking
Ġsubs criber
ĠSud an
Ġgovernment al
ĠON E
O A
Ġmin isters
ĠRec ent
bs ite
ĠPersonal ized
Exper t
D ear
d iv
ĠL ate
ĠW are
ant is
Ġinter course
stand ard
ĠChe ap
Ġadvert ised
Wor ks
Ġteen age
Ġcance led
ĠG and
Ġloc king
Ġcolour ful
ĠSam uel
ĠExplore r
Ġv ague
ĠE ff
ind ers
Ġcrisp y
Ġawa its
x it
Ġmov ers
Ġtext iles
ĠPay ments
ĠCru z
ĠRepresent ative
ir ate
Ġhe ter
ĠP V
Th ird
Ġthick er
ĠWood s
ĠSher iff
ĠChem ical
ro ots
ĠF ear
ĠN H
Ġra ge
Fin ancial
O per
ĠK ick
Ġexp ired
Ġcor rupt
Sh ort
F und
g irl
Ġw ounded
ĠL iability
Ġover he
au kee
Ġhor rible
ĠDec ision
ĠAsh ley
eg rad
m illion
ed u
qu in
Ġqu arant
Ġb acon
Ġgen etics
ĠCrit ical
Ġunfore seen
ĠA Z
ĠWal king
ĠUtil ize
Ġha cks
ĠL anc
Ġdest ructive
Ġcooper ate
ĠS erve
Ġampl ify
ĠDom ain
Ġenvelop e
op oly
Ġcur ved
w ire
Ġboard ing
ĠFund s
bor o
Ġmim ic
ere r
ĠU X
Ġest e
Ġmass es
Ġtim elines
ĠNor wegian
Ġco il
ĠOwn er
est ablished
Ġbr ushes
ĠPer ry
ĠMil k
Ġfertil izer
Ġpanor amic
F I
m oney
ĠC afe
Ġv ene
Ġautom ating
M al
Pro s
Ġincl ined
ĠStan ford
ĠM ul
Ġcar n
Ġcr ashes
ID E
ĠK ra
Ġbi king
D B
st ra
Ġgl orious
ĠSuper ior
ĠIce land
Ġn as
ess a
ĠB oo
Ġgrand children
itc her
Ġlay ered
Ġsquee ze
20 14
Ġsuper hero
ĠSee ing
ener gy
Ġunderstand able
ĠCommun ities
Ġc ache
Ġv ic
ĠAc id
ĠTrans form
en za
oc ado
od iac
Ġcontract ing
Ġanim ations
Ġattach ments
Ġdipl oma
ĠAltern ative
Ġacceler ation
Ġretrie ve
Ġlast ed
Ġrepl en
Ġdiscl aim
Ġuns afe
ĠS ah
ag ging
sc ience
ĠGl en
ham mad
Ġp ins
Ġinter med
ĠLaw s
ĠLike wise
Ġtext ured
ĠMin or
ĠBar ry
Ġhom etown
Ġpurs ued
ĠSac rament
Ġcarbohy drates
h alf
Ġm um
Ġcar amel
ĠRe pe
Ġpil grim
ĠTer rit
ĠMalt a
3 50
Ġm all
Ġinter personal
pr ints
Ġbed ding
oper ative
Ġcongest ion
l am
s ell
Ġsm iling
Ens ure
Ġadren aline
Ġre use
ine a
ĠSouth west
aret te
Ġt ed
Ġback bone
Ġcollect or
al ore
Ġl os
ĠC inc
Ġrec alls
ĠT ot
cc i
ish i
Ġpat ents
Ġmen stru
ĠCat hedral
erse ys
ĠDev ices
be cca
Ġadvis er
D M
Ġwh istle
ĠMicro gaming
ĠC reation
ist ency
Ġwa iver
ĠAv iation
Ġw ig
ĠH ait
ĠAn cient
ĠQ U
Ġste wards
ĠRest oration
ĠDiv ine
Ð º
ĠC ake
Ġadv ising
Ġhead er
Ġ9 2
ĠNe braska
od ied
Ġcult ivating
Ġstream lining
Ġhor r
erman ent
ĠHud son
ĠC ord
Ġdet ention
Ġmat s
Ġ8 2
Ġanaly se
ĠP est
ne eded
Ġad ul
ign ant
Ġ7 4
Ġviol ated
ĠNov a
e very
out ing
Ġj okes
Ġdeal ership
AN S
Ġsav ory
ĠDef ence
Ġdeliber ately
b ies
Ġus eless
ĠR ush
Ġle asing
ĠSy rian
Ġsand w
ĠLat est
Ġpit falls
ĠT icket
ne a
Ġspecific ation
ĠAb raham
Ġsculpt ures
ĠB ing
ĠHe y
Ġcous in
S und
im ination
we ed
Ġinf ants
Ġpat ented
f at
Ġp c
ĠT erry
Ġge ared
Ġstre ak
Ġgra pes
Ġlaw ful
Ġgas oline
Ġshr ink
h ored
ĠÂ ½
Ġharvest ing
ĠImprove ment
ĠT inder
vas ive
ĠPow der
ĠThe ater
ĠL ed
ĠL ength
ert ation
Ġsucceed ed
Ġgut ters
Ġredef ine
ĠR ating
Ġelev ation
Ġaesthet ically
Ġearthqu ake
Ġun interrupted
Ġval ves
Am azon
ĠOtt awa
Ġe rection
Ġon site
ĠR ic
Ġsc andal
Ġdev ote
Dr ive
Ġ ion
le en
. ),
T alk
ass is
Ġlif estyles
Ġt idy
Ġon set
ĠDes ert
Ġing en
Ġflu or
Ġpill ows
hes ion
Ġeconom ically
ĠReg istered
fl ies
Ġbow ls
ĠEvent ually
p ub
Ġth igh
Ġform ulation
ĠSub ject
cert ified
A gain
m ia
Ġdiff ers
Ġpat ron
enn ial
ĠInt o
Ġterr ifying
Ġorganis ms
Ġcro re
c ience
he rently
Ġc ues
ĠUn limited
ut ed
Ġbe ers
Ġper ipher
Ġmotor cy
Orig in
Ġp ant
ĠHol land
Ġdeliber ate
ĠSpecific ally
Ġreimburse ment
ĠA ld
ĠGra b
ĠCra zy
ĠEnc ourage
M ad
V er
ĠB enn
head ed
Ġtun ing
i ob
cer pt
Ġmention ing
ĠFlex ible
thod ox
Ġh alls
Ġplan ner
Ġred emption
L T
Ġph ishing
ĠBr ussels
g ien
Ġl odge
ĠP ER
Ġco ff
ĠMe aning
Ġinspect ed
Ġrush ing
Ġrab bit
Ġdatas ets
ĠM AT
Ġdistribut or
ĠNews letter
ĠJack pot
Ġwra pping
ĠN an
Ġinstruct ed
ĠKum ar
Ġaddict ive
il ia
ul se
Ġplan ets
ĠImm igration
T otal
ĠMot ion
Ġcaf es
cult ural
Ġridicul ous
at ters
ĠT ibet
ag le
ĠJu an
ĠTem plate
Ġhust le
ĠK ap
agg ering
Ġsaf est
Ġfac ets
Ġlow ered
ĠPur pose
C ult
s ki
Ġtra ps
we b
Ġsign atures
Ġmod eration
Ġ9 4
Ġmira cle
Ġsur geries
Ġsing ular
Ġpers everance
esthes ia
Ġl azy
Ġassum ption
Ġreminis cent
D ifferent
P RO
ul ators
ĠF oster
Ġresid ue
Ġtun es
Ġw ished
w aukee
im ental
Ġcon quer
Ġund et
ah n
Ad vant
Ġrib bon
et on
ĠP OS
Ġsent enced
ĠS ame
ĠS B
Ġpret end
Ġprint ers
ĠRich ards
ĠN S
Ġsign aling
iction ary
Ġmechan ic
Ġcompens ate
ĠB ir
Ġinter tw
Ġcertain ty
Ġexplos ive
cess ion
Ġcapital ize
ĠOut side
Ġb oun
Ġup keep
Ġdepend ence
Ġdraw er
Ġrac ist
Ġcos metics
C AR
P ot
Ġkn ives
fol io
sp ace
Ġcritic ized
ĠN ar
Ġmicro bi
ĠIndepend ence
Ġfurnish ings
ĠC able
Ġcal orie
Ġdisapp ointing
ĠBreak fast
Ġe ighth
Ġwe ars
Ġinter mediate
Ġmom s
Ġsports books
verse ly
Ġceremon ies
p oon
ĠJ os
ram a
Ġstart ers
Ġprivile ges
ĠPain ting
l ings
and em
oura ble
Ġpers ecut
Ġfire arms
Ġjun gle
Ġsne akers
Ġunav ailable
ĠW ave
act ly
Ġur ging
ĠCru ise
ĠA ur
Ġlab s
Ġchat bot
Ġdoct rine
ĠSat is
ĠStart ed
ĠCreat or
Ġreserv oir
C amp
ĠA zer
ĠR ah
ĠDo ors
Ġdiv or
Ġhorm onal
m em
w y
á ´
it ize
Ġ9 3
Ġcard iac
Direct or
Ġinaug ural
Ġcur tain
rap ist
ĠIP TV
oven ant
Cle an
ĠProble m
Ġdegra dation
Ġafore mentioned
og ens
Ġfig uring
Ġer ad
Ġpoly mer
ĠFell owship
M ac
Ġs izing
ĠB end
ew orthy
Ġsl ave
Ġconnect or
Ġexc lude
ĠSpe aking
Ġarm or
Ġda wn
fund ed
Ġhurd les
ad ian
Ġta pping
Ġover st
Ġfin tech
Ġfa uc
Ġharm less
bl og
Form er
Ġmat rix
ĠOl iver
roph y
C ON
ĠEngine ers
Ġreprodu ce
Ġcan ine
eng ine
erg arten
Ġ0 7
Ġw oke
om o
om al
ĠC ock
Ġforecast ing
ĠVent ures
Ġnic otine
Ġ0 9
Ġcommod ities
ĠD UI
Ġunder w
Ġbas eline
main tained
S ustain
S QL
Ġp oured
Ġperform er
Reg ardless
uls ion
at ility
Ġin just
Ġwe eds
ect ive
ĠK irk
Ġiss uing
pr us
Ġspecial ised
Ġdep icted
Ġpill ars
ATION S
ĠCub a
ĠB ingo
ĠK yle
ĠDan ish
Ġpreval ence
Ġvegg ies
Ã £
ĠL ions
Ġaw ak
ĠLind a
Ġrecy cl
Ġh ots
Ġh ubs
ĠM ong
Ġcomm ander
els h
Ġlearn s
AR Y
ĠPalest ine
Jan uary
ĠWik ipedia
n an
ist ence
Ġsp ill
ĠV P
ĠCoun ter
Ġcorrel ation
K ing
r il
Wh atever
Ġeye b
al ie
ĠB lend
ĠRap id
Ġm uff
ĠV ir
Ġste ak
Ġ0 8
Ġfram ing
ĠBo at
Ġod ors
Ġnu anced
E ver
g am
Ġcom ics
ĠN ancy
Ġcommun al
ĠNet Ent
m un
ĠSh ield
Ġel imination
ĠHis pan
U til
Ġex fol
ia o
Ġarch ives
ĠPub l
ĠE b
Ġconf irms
Ġcomb o
Ġrout ing
ĠMon te
N EW
Ġc ottage
Ġn ort
ĠP izza
ĠV intage
ĠChe ese
Ġge ometric
ĠColumb us
orks hire
Ġreinforce ment
C r
Ġab oard
po ons
E vent
st r
ĠB oss
Ġcr ushed
a is
p iring
an ne
Ġg ourmet
Ġ18 00
Ġnewcom ers
ri ans
inn ati
ĠCher ry
h n
ies el
Ġass umes
Ġgam er
Ġsafegu ards
Ġannoun cing
u pp
Ġjoy ful
Ġstrengthen ed
Ġmetap hor
ï ½
ĠE ST
Ġrevel ation
ĠM IT
ĠG ur
Ġte e
ĠU T
ĠBl ues
Ġpredomin antly
Ġ Ø
ĠN athan
ĠO ption
Ġcont ests
Ġcol der
ĠAl umin
ox ide
ĠStain less
n osis
Ġh ooks
Ġche ek
agn etic
Com plete
J ack
ĠS ell
ĠQ ur
EN CE
Ġdecl ining
Ġinterpret ations
ĠOm ega
á »
Ġne on
Ġtravel lers
Com pany
Ġsequ el
ĠRe ce
ĠSh ore
Ġobs c
ĠGar age
Ġpor ch
ĠVenez uel
k ar
ĠC ourses
Ġhe y
Ġj ersey
Ġem ission
iqu eness
ĠDec l
Ġang els
Ġarom atic
us p
ak ra
Ġimper ial
ĠS old
Ġdis pro
ĠEm power
Ġdream ing
ĠMoroc co
ĠW ool
Ġpolit ically
Ġmel ting
Ġcomf y
D ream
ed a
us c
Ġdisc oura
B s
C reat
Ġover time
ĠBr ig
Ġhuge ly
D ev
Ġsk ies
Ġtw ists
ĠKe ith
Ġmist aken
Contin ue
ke ley
Ġsp ur
Ġhigh s
Ġes presso
ĠPer u
Ġdecor ate
Ġtrib es
ĠRub y
C ert
ĠRe hab
Ġdy e
Ġ40 1
Ġburn out
Te am
W C
Ġadd itives
na ire
Ġow ed
Ġuphol stery
H E
Ġl ump
ĠT N
ĠL G
Ġinf used
ĠExt ract
conf idence
Ġpresum ably
ĠM ack
Ġha cking
Ġno on
port ion
be y
Un ited
ĠCam eron
Ġepid emic
Ġwrest ling
O p
F it
ag ra
ĠCh ip
li ked
ĠVe get
B ra
g ard
Ġimp aired
Ġtow ers
Ġhook up
L it
ĠR ou
Ġsa us
ĠRel ax
Ġdefend ants
Ġdisin fect
S end
ĠV ideos
Ġcre ep
Ġ8 4
ĠH S
read ing
Ġchat bots
ĠDem and
Any one
ĠCa es
Ġob ed
Nat ural
ĠAr med
Ġbro ch
Ġemb ell
Comm un
Ġref ining
Ġsuspect s
ĠTr inity
Ġbat ter
ĠVin cent
Ġs ab
Ġserv ant
Ġtask ed
Ġpal ate
Ġrecon nect
ĠTan zan
ĠWell s
ĠH M
Ġsubject ive
ĠCanad ians
ĠBudd ha
C elebr
Ġd ancers
Ġopen ness
Ġamb ig
ĠFix ed
Ġout rage
Ġdra ins
Ġb iz
Ġd ots
ĠJ erry
Ġmar ital
Ġdeleg ation
Invest ing
ĠS ummary
Ġcons erve
Ġfull est
Ġbub bles
m ic
on ial
Ġtravel er
Ġremember ing
Ġwhit ening
ĠiT unes
Ġf ills
Ġsu ites
ĠH idden
ĠSt rip
Ġcapt ivated
Ġdest iny
Ġsimilar ities
Ġmark er
Ġunh appy
ĠDownt own
P ayment
e or
ed uc
Ġl av
ĠD ust
Ġspe ar
avor ite
ĠHot els
Ġcompr ising
ĠT E
ĠRes olution
Ġcra ving
Ġexpert ly
n ational
Ġb ots
Ġsk et
Ġbreast feeding
Ġbol ster
c ott
Ġqu il
orn ings
f ied
ĠM oses
Ġcra cking
ĠSupp lement
f ashion
ĠW ing
Ġsp ike
ĠY ahoo
Ġnostal gia
ĠB ooking
ĠB orn
Ġmyster ies
Ġdesper ately
E p
Ġb apt
ĠT amil
IS E
Ġprem ise
ĠAc ross
Ġincon venience
Ġcyl inder
Ġdev il
ball s
Ġdiscover ies
ĠGen esis
Ġmedic inal
Ġschol ar
ĠImper ial
Ġ202 6
Ġtax payer
Ġant iv
ĠMad am
ĠD ollar
ĠR ib
ĠR av
ud er
Ġcaps ules
ĠK oh
des ign
nam ent
ĠAm anda
Ġp oultry
Ġamb assador
Ġinstruction al
or b
ĠF old
ens ing
Ġspirit uality
Ġge op
icular ly
Ġd welling
Ġl anes
um at
Ġpe ppers
ĠMod els
Ġsovere ignty
N P
Ã º
ĠF ig
ĠK arl
Ġcommun icated
Ġ4 50
ĠAr n
ĠMod i
Ġpot assium
Ġ7 3
Ġgast ro
ĠâĤ ¹
G am
U CT
p ractice
ar u
ĠP oss
ĠB ug
Ġsh ook
Ġallow ance
Ġacceler ating
ĠIss ue
Ġse ized
ĠConsider ations
ĠAutom atic
Ġendors ed
T est
in ting
Ġn ons
ĠS aints
We ight
ruct ures
ĠTe en
Ġcat ches
Ġult rasound
Ġcul min
M el
b ly
em it
Ġen v
ĠG arc
ĠSe al
ĠSe ed
Ġfirm ware
Com mercial
Ġmut ually
Ġped al
ut t
eng u
. :
Ġa il
em i
ĠG ST
Ġcl ue
Ġestab lishes
Ġyoung sters
Ġtransport ing
ĠCr icket
Ġâ ľ
ĠðŁĻ Ĥ
G r
Ġdr ums
Ġgr illed
Ġelectron ically
ĠRon ald
ĠHung ary
Ġverd ict
ĠR EL
so ver
Ġsk ins
o ing
ĠB ent
Ġint ro
pl ants
ĠSh adow
o at
Ġbe ast
Ġwh olly
ag ar
clip se
J e
ver ts
Ġse ize
Ġsc ram
Ġins ider
Ġcollabor ated
ĠC os
ble m
Ġhour ly
Ind ust
Ġextract s
l ove
Ġst aggering
lect ing
Ġer osion
ĠExt ension
WH AT
ve ys
Ġins isted
ĠEm otional
Ġpollut ants
Ġtoile ts
ĠAy urved
Ġm ug
Ġch oo
ĠN in
ĠAr r
Ġtransition ing
Ġth irst
ĠS ector
Ġst a
Ġdisc rep
Ġredu ctions
arent ly
ĠPH P
à ¦
us ers
ĠR M
ĠEx clusive
it ures
Ġju icy
ĠOl ive
ĠInspect ion
Ġcontamin ated
Ġrob otic
ĠB enefit
ĠSee k
p ol
am ina
Ġsort ing
ĠQue bec
k ok
Ġl ob
ch y
ĠPl aza
ĠAlex a
Ġded uctions
Ġregul ator
Ġremind ing
Ġaug mented
Ġf erry
Ġcl ash
Ġrec onstruction
ĠV M
Ġexp osing
ĠAr senal
ĠJohn ny
step s
Ġex agger
ĠE ating
Ġpl edge
ĠNe il
P acific
f air
p df
Ġtrans gender
ik er
Ġcredit ors
Ġmel ted
pur pose
ĠAdministr ator
p ared
ĠS r
ĠH ands
Ġbel ts
Ġsound ed
Ġtodd ler
Ġth under
Ġg oogle
Ġdis reg
Ġcult urally
Ġelev ator
Ġvol can
d ata
ĠT ig
us ions
ĠW arm
Ġjew el
Ġton nes
ĠFant asy
L I
s ight
ĠL is
Ġdi arr
Ġturn around
C ould
ĠW WE
Ġun aware
ys on
Ġ15 00
Ġprec ip
Ġstuff ed
hab i
Ġdisp atch
ĠChampions hips
Ġorient ed
Ġprotest ers
Ġdra fting
l ive
ĠA ra
ĠE lder
Â® ,
Ġsad ness
ĠBudd hist
Ġimagin ative
O G
l inks
Â ´
Ġp add
Ġb ats
ON G
Ġwind ing
ĠPack aging
C raft
Ġtri o
road s
u h
ĠR EC
Ġme g
ink le
ĠMarket place
ĠT A
ĠSpr ay
Ġdispl aced
ĠPro tein
AN G
Ġneglect ed
Ġtur f
c ounter
pos ure
Ġagg ress
ĠAccess ibility
Ġhell o
Ġpower house
Ġoutput s
R un
Ġs ch
ĠC ort
sy stem
IM IT
Ġamb ient
Ġpestic ides
ĠESP N
Ġt an
ĠC ul
ĠL ore
IP P
Ġsurf ing
Ġgum my
Ġor ch
Ġinter val
Ġsub conscious
tra ined
hand ed
Man aging
Ġforth coming
ĠCro at
stan bul
R ock
Ġqu artz
ĠCh arter
cept ive
Ġachie vable
ĠH ang
ĠH aven
ĠN I
âĢĿ ?
ĠSh akes
Ġmer ge
x bet
y on
ĠB eg
Ġinject ions
e pt
Ġe Bay
Ġtrans cends
Ġgra d
Ġnight mare
ĠE levate
ĠCh arge
ley ball
Ġmiss iles
Ġcomprehens ion
Ġo asis
Ġthreat en
ĠHel en
i age
Ġe go
ĠLi u
ĠMarg aret
Ġris king
de v
ĠLead ing
Ġcraw l
Ġcoh ort
Ġnause a
Ġc afe
Ġp endant
ould er
ĠPart ies
ĠFlore nce
V egas
Ġthought fully
CO M
Ġconcent rations
ar cer
am ents
Ġmight y
ĠPort able
Leg al
ĠB accarat
g raph
om nia
th s
ĠPharm acy
Ġtel esc
Ġeste emed
m ort
est ers
ue z
Ġ19 40
Ġgrant ing
E qu
Ġc ate
Ġpro be
ĠR ide
Ġsympt om
Ġrooft op
N othing
ĠLot tery
Ġf art
le ased
ĠS ara
ĠExper iment
ĠCy prus
Ġvel ocity
ot or
ĠSh aw
ĠApp lied
ĠSy mbol
Ġden im
Ġdistract ed
y en
Ġcl utch
Ġfl ames
med iately
in als
Ġinter disciplinary
ĠZ oo
ĠRes pond
S elf
Ġl ion
ĠS F
CT V
Mem bers
w en
ut ral
ose xual
ĠRe act
play ing
Ġlimit less
Ġkn it
ĠMat hemat
Ġdiss atis
ĠBeng al
h all
Ġt ide
ant i
ĠY orkshire
II I
Main taining
ĠConc rete
Ġoper a
ĠFore x
ĠRepresent atives
FORM ATION
F lex
ĠAn a
Ġpublic ity
Ġ8 6
20 13
Ch ief
ĠDist ribution
ĠH earing
ĠCh ang
onel iness
j ah
ur pose
Ġj ealous
rop olis
Ġcommercial ly
Ġgre ener
Ġroyal ty
Pol ice
Ġin herently
Ġwh ims
Ġtim er
ĠBi ology
ĠMess age
Ġchar ism
ows ki
Ġpsych ic
ĠM ans
Ġve ins
Ġsu ms
Ġback ups
Ġhands ome
Ġblow ing
ĠElement ary
M oving
ess ential
ĠZ hang
water ing
Ġprivile ged
def ined
m ons
Ġv oy
ĠL ives
ud ed
Ġno ises
Ġimm igrant
Ġmed iation
Ġgra vel
Ġflood s
ĠT ian
Ġfit tings
Ġbar bec
th ree
Ġcompet itiveness
ixt y
Ġunden iable
O kay
Ġ ul
al ph
ab we
Ġvirt ue
ĠGra du
ĠArch ives
Ġbrid al
Ġmeas urable
Ġselect ive
ĠAc celer
bl ack
Ġgad get
Ġc ivic
op athy
lect ic
Ġhere by
Ġmet ro
ĠDa wn
ĠDynam ic
or ne
âĢ ļ
Ġmult id
ĠAM D
Ġspell s
ĠAnsw er
Mus ic
Ġenzy mes
ĠHe ight
Add ress
ĠProble ms
il let
Ġst itch
Ġdivers ified
z or
ĠT M
Ġperiod ic
Ġclos es
ĠHarr ison
ĠMu hammad
ĠLaure n
e als
an ol
ĠP ixel
ĠG ates
ĠY ale
ĠClaim s
Ġattent ive
C ase
Ġbe ard
ir ical
Ġrel oad
ĠCB S
asp berry
Ġhun ters
+ +
Med ical
ĠMonth ly
B rit
in vest
ĠM ead
ĠPot ter
Ġinsure r
ĠT err
Ġ9 11
Ġhalf way
Ġhook ed
Ġimpecc able
egrad able
Ġbo iling
ĠMan agers
rim ental
Ġnurs ery
ĠRecruit ment
i ya
Ġtr unk
Ġcol oured
Ġmon sters
Ġvib es
ĠPrec ision
Ġdestro ying
ĠW atson
ĠEd wards
Pr ivate
re el
ar ad
Ġsh aking
ĠJ O
Ġstand alone
Ġpedest rian
Ġsaf ari
ĠS ew
ĠL EG
Ġpain ter
Ġcrew s
Ġmile age
Ġtatt oos
Ġreconcil iation
ĠDatab ase
c uts
p ark
ĠJ ake
ĠFl ag
Ġshoot er
cont rol
Ġru ins
Ġrefres hed
ix on
Ġpolicy makers
Ġhier archy
Ġhilar ious
Ġp erv
Ġinf er
Ar ch
Ġboo ster
Ġp ars
ĠM aker
Ġun iqueness
Ġ7 1
Ġthermost at
ĠSub mit
Ġcalcul ating
Ġknock ed
ĠV lad
ustom ed
Ġsl opes
ĠWorld wide
Ġpred ators
Ġ197 9
Ġaccred itation
Ġgran ite
P et
Ġb ark
Ġl akh
Ġr ipe
Ġmort gages
Ġp aved
ĠS V
ĠA j
art ments
AT ED
sh ow
urch ase
ĠPur ple
Ġj umps
ru bs
Ġsp elling
Ġsim ulations
ĠSc ar
boy s
ĠOrchest ra
l oss
est ly
Ġlong time
Ġcor al
Ġ9 1
Rep ort
Ġinher ited
S ure
V PN
y o
Ġp p
end ars
Ġque er
> >
F il
a pping
Ġh alt
ab ling
Ġnot ch
pe are
ĠIn gredients
Ġsc ars
Ġind emn
AM E
Ġs id
Ġc age
ear ly
Ġindividual ized
Ġsymbol ism
ĠJul ie
ĠTh reat
Ġpos itivity
sh aring
ĠX L
Ġpred icting
ĠRog ers
ĠEvalu ation
Ġf uck
Ġnecess ities
ugg ling
ĠLuc as
acter ial
Ġdump ster
imb abwe
H on
Ġsuper v
Ġ198 3
Ġreb ell
Ġawa iting
ĠM aur
Ġoff s
ĠMar io
Ġparad igm
Ġom n
Ġl amb
Ġn ucle
ain ing
Ġwho ever
Ġmor ph
ĠPet e
Ġnod ded
W ood
Ġl iking
Ġcl usters
Ġconnect ors
Ġfol iage
Ġunle ash
Ġresear ched
Ġl avender
Ġdistribut ing
ĠRed uce
Ġunc overed
ĠA K
ĠAd ded
ĠSu ff
Reg ister
r ights
Ġh inges
Ġup right
ĠComp ar
Ġprevent ative
Ġcoun selling
Ġbroker age
Ġpor celain
bn b
Ġd uck
work ers
Ġ198 2
Ġshell s
T urn
ĠTh inking
Ġperson a
Ġmat te
ĠCont ribut
ĠCap acity
Micro soft
Ġm our
ĠI MP
Ġreal ization
Ġcan t
Ġhost ile
ĠAud it
Us ers
Ġpupp ies
c ards
Ġbud dy
Ġprovin ces
Ġp ushes
ic iary
ĠD habi
res olution
ĠU b
ĠCont emporary
Ġtow ing
ĠSil icon
L at
er ic
ĠW ol
ĠH ua
Ġsc ents
Ġconsequ ently
ĠConsult ation
Ġhur ry
Ġrif le
me al
ump ing
ĠRed uction
Ġphilosoph ical
Ġcoc oa
ĠKat ie
o qu
Ã ¸
Ġp ix
ĠC ats
ĠB in
k ill
Ġma ple
Ġmean while
ĠArt ists
Re v
ĠP om
ĠK le
Ġind ie
ph an
Ġve ctor
Ġreflect ions
Ġencl osed
. ]
ĠC af
Ġpr aying
ĠMin imum
Ġphenomen a
List en
Ã ´
ĠWh ilst
ruct uring
Pre m
ĠLif estyle
Ġanonym ity
ĠC AP
Ġit er
ĠE B
Ġjust ified
Ġam use
ĠDis ability
ela ide
ĠSubs cription
Ġbarrel s
Ġl ig
ĠL ots
ĠO THER
ĠRe form
IS H
Ġpun ish
Ġtar iffs
Ġal beit
Ġnot eworthy
ob ia
fol k
fe it
Ġenric hed
Ġwh ites
Ġro ok
Ġcart oon
Ð Ĥ
Ġmaxim ise
ĠBloom berg
is i
Ġunder pin
ĠSur ge
ĠVen ice
Ġrobot ics
ĠSacrament o
ĠThe me
ĠR ising
ĠOr d
load ing
ĠWal ter
Ġbrack et
Ġinherit ance
Ġp ne
Ġin equ
ĠB rief
Ġv irgin
Ġdet rimental
ĠBe er
Ġprompt ing
Ġdisrupt ive
Ġnecess it
An aly
ĠWar ner
G s
Ġto ast
Ġst arring
ĠD oll
Ġdam n
ĠRel iable
Ġstress es
Ġware houses
Ġf ading
Ġserv ants
Ġinst ability
Ġtele communications
ĠMaster card
y r
ĠD ennis
ĠCom ple
Ġele ven
Ġded uction
Ġwaste water
Ġfold ers
Ġoversee ing
Stand ard
Ġopio id
cript ive
Ġremod el
ĠH imal
Ġwork manship
Ġplan ners
T ell
he ets
ĠB ub
ĠH annah
Ġsec ular
ĠRes idents
Ġborrow er
ĠHope fully
F un
ĠN ice
Ġdeep est
ĠGener ator
ĠMain taining
Ġdivide nd
Ġbom bs
ul ge
Ġdisc ern
fl oor
Ġtermin ology
b ands
Ġqual itative
App ly
ĠSym phony
T Y
Ġp ens
Ġp uff
Ġhe fty
ust ing
ĠR ena
Ġcirc uits
het ics
Ġhous ed
Ġdent ures
ĠJeff erson
ĠA way
ĠG C
J ul
ĠR ud
Ġbul lying
indu ced
ĠP od
ĠNe ither
ean or
Ġa kin
Ġf ictional
Ġal mond
ĠM az
ĠFe ature
Ġoccup ational
Ġlegit imacy
00 1
ĠSim pl
Ġblo oms
Ġinspir ational
ĠCinc innati
Ġsandw iches
ĠSt u
Ġpe anut
Ġdesign ation
Ġthr ives
E s
R ober
is le
ĠComp ensation
Ġaqu atic
E mp
in as
Ġg reed
th ird
Ġrec ount
Ġform ulas
Ġsom etime
Ġsatis factory
Ġprin cess
ĠMach ines
A bsolutely
Ġsp ills
ne apolis
Ġrep s
Ġmarket places
ĠWith draw
Ġsad ly
Ġchoo ses
l ot
Ġdef enses
Ġportray ed
E levate
an z
Ġdis patched
Ġdec isive
ĠPol ic
ĠH iring
Ġevol ves
Ġcontroll ers
Ġfol lic
ĠCris is
Cer tain
om ics
uss y
Ġforg ive
Ġdivide nds
ĠGuid ance
Ġburd ens
ha o
Ġdism ant
Ġdeterg ent
Ġa iding
ĠD ell
Ġfl ock
ĠPl ate
pos ium
Ġ8 7
ĠEn forcement
Im pact
Ġdisadvant age
Ġmiscon duct
ĠM it
Ġwe aving
ĠEx po
ĠCal gary
Ġfrequ encies
Ġrefund ed
Ġshut tle
ĠM OD
C redit
he et
ĠT all
Ġv est
Ġpres chool
Ġcent r
Ġarr anging
Ġbul b
pat ible
Ġtables poons
ĠVi enna
Sund ay
Ġm arsh
ĠS hen
se ud
Ġper me
Ġox ide
G I
Ġn aming
ĠCh art
Ġobject ion
ĠProv ince
ĠMil waukee
Ind ividual
Gener ally
ĠAzer bai
ĠC ooking
ĠR oh
Ġk not
Ġro ses
Ġcra vings
Ġcounsel or
ĠD od
In sp
Ġsound track
Ġ0 2
Ġsn ug
Ġgrand parents
Ġclim ates
ĠFac ility
Ġpropag anda
Ġabdom inal
T ur
Ġn ylon
ĠW elsh
ec hes
Ġmor ale
ĠMet ropolitan
Ġmitig ating
Ġsh ark
F uture
Ġand roid
Ġblog gers
Ex p
ĠBrand on
ĠScript ure
Ġcatast rophic
Ġrehe ars
f r
Ġl ac
ĠN HL
Ġ Å
ful l
Ġdel ights
ĠRef und
Ġexcel s
Ġab usive
Ġout right
eal ing
** *
Ġcampus es
ĠRoman ia
ĠFour th
Ġmush room
Ġp antry
ĠM ills
Ġman go
Ġextra v
ĠBer keley
R ANT
à ¹
Ġclin icians
Ġbow el
Ġdesp air
P Is
ĠU nd
Ġsal ads
C at
se min
Ġcircumst ance
id i
ĠT S
ĠA verage
ĠJ ar
Ġhand ic
Ġom ega
ĠJere my
ĠN y
Ġcor on
ĠTele vision
ĠMun ich
b ler
Ġsh rimp
Ġover flow
Ġche ss
Ġdent ists
Ġstro kes
m oon
t em
ĠO UT
Ġadv ises
Ġty res
Ġaccount ed
Ġtar ot
ĠN u
act ivity
Ġchar coal
Ġtop ical
Ġbrain storm
Ġreinfor cing
B en
T ogether
ĠR uth
Ġsp ouses
ĠCor ner
Ġelectro ly
E mer
it ars
pl aced
oot ing
Ġz omb
Ġdivers ify
ĠRe ed
ex pl
ĠCom ing
Ġtrail ers
ĠPromot ion
Ġro ast
Ġsk ull
ĠLe gends
Ġrecogn izable
OS E
ĠDel iver
CO VID
Ġallerg ens
Be aut
ĠFund ing
er ning
Ġse ren
Ġcomp artment
ĠO H
Ġsp o
Ġreg istry
ĠComp ared
Ġles bian
Ġpart ition
fore st
Ġ8 88
Ġblog ger
Ġbroad en
Ġcontrast ing
Ġsufficient ly
f ires
i ens
res a
Ġcomput ational
Ġpet rol
IF A
ĠC I
ĠE ther
Ġpe ek
Ġche ating
Ġ0 3
Ġden ying
Art icle
Ġprotagon ist
ĠNew castle
Ġearth y
or ations
Ġst igma
ĠM ig
ĠK in
ĠEntreprene urs
l ocking
ĠP or
Ġwe ave
erm ined
Ġed itions
Ġshare holder
Ġswe pt
ĠRel ated
ĠBat man
il ib
ĠUn ity
Ġsuccess ion
ĠDisc uss
equ ipped
Ġn arc
ĠM AN
Ġpres idency
oll o
Ã© mon
Ġs perm
Ġinter change
der abad
ĠRes il
Ġreceipt s
Ġvou cher
ra int
ie g
uc ing
ĠSand ers
Ġt sp
ub le
Ġcond o
ĠForm er
Ġpump ing
Ġbatt ling
Ġcig arettes
ale y
ĠTV s
Ġstack ed
ĠPl aces
Ġobtain able
bro ok
Ġintimid ating
D i
ric ed
ĠElect ronics
Ġmagn itude
Ġcha otic
Ġscar ce
Ġreluct ant
per fect
Ġqu ilt
Ġ5 000
ĠDr ink
ĠC rew
um i
Ġen amel
ĠSu itable
Ġransom ware
M er
f ram
Ġg utter
ĠS chol
Ġexam inations
Ġacad emy
Ġintr ins
Ġde let
ĠNur se
Ġimperfect ions
Ġcombust ion
D ist
L iving
Ġsand y
Ġd ont
ab etic
Ch ris
rec iation
ĠMechan ical
Ġre ap
ĠS it
op l
ĠR ust
Ġcontract ed
Ġdeploy ing
Ġoun ces
ĠTre asure
Rec ommend
ĠK os
ĠPar king
ĠHur ricane
Ġsupp orter
Ġ7 9
Ġlabel ing
Ġhat red
C ut
v id
Ġdr ift
Ġmultip liers
h arm
ĠG U
Ġvis ions
Ġab st
Ġ0 4
Ġstain ed
Ġcongreg ation
C ook
Ġl inger
ut ation
ure th
ĠH T
ĠF ew
ard i
ĠV I
Ġproject ion
ĠMon ster
Ġlabor atories
Ġliqu ids
Ġwitness ing
Ġh ikes
ĠD inner
Ġacc ustomed
Ġsol itary
EC H
UL T
Ġtum ors
Ġcinem atic
oc ative
Ġabs urd
Ġillust rates
Ġtort ure
mun ition
Ġun anim
Ġop ener
Ġobs essed
Ġvision ary
Ġutter ly
B al
ĠR w
Ġ2 20
ĠFor bes
Ġpost al
ĠIm p
ĠStep han
Ġesc orts
Ñ ĥ
oc ese
Ġpl asma
ĠSt ir
ateg ories
ĠTre nd
! ),
con st
ĠTurn er
Ġs ip
ĠF ut
Ġcre ams
Ġharness ing
Ġun real
ey e
ĠCO P
Ex ample
EM A
bi ased
ĠPhill ips
m and
Ġb ore
ĠC atherine
ĠL iquid
ĠK eto
Ġsc i
ĠDe ck
na pped
Ġsne ak
at ched
ĠInc luding
ĠRespons ible
ĠSm ooth
Ġfest ivities
B orn
im ir
ĠF ishing
Ġind ef
ĠAl ban
ĠMen u
S n
s ky
Ġt ents
Ġcas c
ĠExpl oring
see ing
Ġinters ect
ĠGate way
ĠSc ale
Ġexc luding
ĠDevelop ing
Ġhist ories
Ġbad ge
Ġterror ists
ĠLag os
F ive
H ard
P age
n uts
he res
Ġf ences
um bling
alth ough
Ġstake holder
ĠKr ish
Ġredes ign
b ps
ĠEm peror
Ġban ana
Ġc ows
ĠA bs
ĠP F
Ġdisc erning
uck land
ĠHar vey
I mm
in stein
ĠS elling
art a
Ġaccount ant
Com b
Ġcop ied
Ġrug by
G L
u ation
Ġjud ged
Ġexperiment ation
e lection
ĠIN FORMATION
Ġh ollow
ur g
Ġj og
Ġ197 6
y t
Ġhy pe
Ġrot ate
Ġske pt
T ext
Ġse ated
Ġart works
ĠSur face
Ġve in
ĠTri ple
N AS
ĠT rou
Ġspin ach
Ġdeleg ates
Ġal gae
ĠP am
ĠUN ESCO
Ġmyth ology
og ene
ĠIn form
com mercial
ĠWork place
ĠOp ening
ĠInit ially
ĠB od
Ġneed les
Ġvibr ations
Ġeth os
ĠPhil osoph
Ġtire lessly
ĠE leg
ĠL il
ĠU m
ĠShe et
su le
ĠAny thing
ĠON LY
Ġw ander
ĠD ock
ric a
Ġmet adata
ĠWy oming
ad vert
ab e
Ġemb arking
Ġrent ed
aj abi
App ro
Ġover c
Ġinf ilt
cl ub
Ġ197 8
Ġwith drawn
um ption
als a
Ġvis as
Ġpin ch
Ġaston ishing
L ess
ic ator
Î ¿
ĠS ed
Ġed ible
ĠCol ors
Ġheart y
Ġmesmer izing
Ġcap sule
worth iness
ĠHold ings
c ro
ĠF Y
low er
ĠCom ment
Ġ7 50
orn s
Ġbath ing
ĠAccess ories
ECT ION
Ġb ilateral
ĠDem onst
Ġv amp
Ġconsist ed
12 5
ĠTrans ition
B it
ĠA im
Ġr im
ob iles
Ġdon ating
Ġge ography
Ġexped ition
ĠShakes peare
m ake
ram id
Ġstory line
Ġminim ise
---- ----
M iss
oc ations
ĠMar ina
ĠGovern ance
Ġsav vy
Ġdiss ertation
Ġbutter fly
Ð¾ Ð
Ġconfront ed
avil ion
U X
m ax
iel der
ĠQ ing
Ġcomplex ion
Ġgre enery
ĠCut ting
B lock
Ġd aring
ĠT B
Ġfire fight
Ġgest ures
ĠJosh ua
Educ ation
J apan
r ide
spe aking
Ġcoast line
ĠContin uous
intend ent
Ġsurre nder
Ġcan s
Ġob ey
cle ar
Ġprogress es
ĠBro oks
Ġju ices
Ġalter ing
ĠVen us
Pop ular
threat ening
ĠC SS
ruct ural
pos s
Ġ8 1
Ġcult ivated
arth a
Ġfurn ished
Ġlegisl ature
Ġhur ricane
accept able
Feb ruary
ĠS age
Ġwhere by
hold ing
ĠGe or
oles ale
ĠInvent ory
Ã£ o
Ġl aundering
ĠSc an
Ġhead set
Ġmaster y
Ġw itch
Ġp ains
ĠS le
ĠB JP
Ġbl adder
Ġdraw ers
ĠInter face
Ġign oring
ĠRelations hips
Ġannoun ces
S K
b ast
Ġch in
Ġch oir
Ġend angered
Ġsl ope
Ġpin point
ĠBang alore
ĠFle et
z zy
Ġm ol
un ky
Ġad ept
any a
Ġra iny
Ġhy dr
Ġin nings
ĠI stanbul
if eration
oc ide
ple mentation
ĠCustom s
ij i
ĠCat al
A ud
M edia
Ġin h
ĠB less
ĠG reens
Ġide ology
ĠTrans formation
ĠConsider ing
ĠIll ust
Ġlear ner
ĠManufacture rs
ĠR ica
Ġatt ic
pan ies
Ġcompos itions
Ġunderm ine
Ġanth rop
H ost
Ġsp iral
In it
ĠEx port
ĠDevelop ers
Ġdetect ing
Ġincons istent
ĠBec ome
olog ic
Ġfl uffy
Ġ19 75
ĠSp read
Ġbehavi ours
b read
ĠF IN
Ġrepe ating
Ġax is
F REE
ĠAdv oc
Ġpert inent
Ġo wing
ĠN ex
ĠMar x
Ġcher ish
Ġdilig ently
Advant ages
ĠG ender
Ġauthor ised
ĠGr ass
Ġnest led
Ġcove ted
E nergy
Ġp ouring
20 12
ĠJew elry
ĠChief s
Bet ter
ĠDeb t
il k
Ġst itching
Th ursday
Techn ology
Ġqu o
ĠZ imbabwe
Ġvers es
fit ting
Ġec lectic
Ġunf olds
ĠWal let
Ġsubsid ies
k t
ĠS itu
Ġentire ty
Ġfire works
bal anced
with out
Ġalarm s
Ġs way
ĠP P
ĠP ush
organ ized
ĠVent ure
Ġbenefic iary
7 50
Ġas cend
Ġext r
ĠAs ide
Ġpsych ologist
Ġhom age
Ġ198 1
ĠTanzan ia
ĠH ook
pro duction
Ġvom iting
Ġv ents
Ġme ga
ord ered
Ġref usal
Ġmin s
Ġmain land
Ġdistribut ions
Ġtables poon
Ġclog ged
R s
ess or
ĠP ermanent
ĠL ayer
ric ting
Ġje opard
Ġthe aters
um ed
Ġk in
ib an
ĠAutom ated
Ġdoub les
Ġjudge ment
Ġbrill iance
Ġmurd ered
N umber
ĠL ocks
Ñ ķ
ĠL iz
Ġfl or
ĠCy cle
represent ed
ĠWAR RANT
S ection
ib re
Ġtw ins
ĠAd elaide
Ġpop s
Ġtit anium
S ummer
Ġcat alogue
Ġspeed y
OU ND
Ġmas cul
ĠPolic ies
p y
ĠP orts
ag us
Ġcour ting
Ġcr ush
Ġtax able
ĠBre xit
Ġfold ed
Ġsick ness
Ġstereoty pes
U ntil
un ched
ĠF eng
Ġcompet encies
Ġtrust s
f erence
v ar
ĠT in
ag in
Ġacc ol
crib ing
Ġexpend itures
ĠInit ial
T uesday
b irth
g ro
ĠM iles
ĠSt re
ĠK er
Ġrel atable
âĢ¦ âĢ¦
ĠCo pper
Ġvac ant
Rec ogn
ĠP ull
Ġvalid ated
ĠJul ia
Ġgloss y
B egin
P an
g om
Ġn oodles
Ġnot orious
ĠG RE
Ġprosecut ors
Ġtermin als
Ġem peror
yl an
Ġple a
ĠSil k
ĠCompet itive
Ġimmense ly
r ance
Ġm ph
Ġh ay
ĠB id
Ġev apor
Ġbl iss
Ġprob ate
ĠPow ell
Ġdazz ling
ĠD rain
Ġcomp ressed
ex isting
be h
IN K
Ġreven ge
Ġmunicipal ities
ĠParad ise
Ġgl itter
Ġsat urated
Ġprosecut or
Ġslic ed
1 10
C apt
m id
Ġexp ire
Ġair plane
Ġgrocer ies
Ġirres ist
c aster
Ġe ater
ĠW es
Ġsh ingles
ĠCollect ive
s ocial
er ick
Ġp df
ĠM RI
ors che
ĠK o
ĠEl ig
Ġrock y
Ġimpair ment
Ġn inet
ĠP ip
Ġun paid
ĠK on
Ġdown ward
à¤ ¾
ĠAnaly st
ĠFlow ers
Eng lish
ĠF S
Ġk icking
ĠV end
ĠAm en
Ġ24 0
Ġadm iration
Ġobst ruct
Ġalt itude
ĠPhys ics
m ble
p arent
ĠM int
ov ak
ex c
rid ges
Select ing
u ber
Ġf ucking
ĠW end
ĠF itz
ĠK enn
Ġbi ases
Ġ17 0
Ġtoler ate
ĠMarc us
' '
ã Ĥ
Ġas phalt
ĠE fficient
Ġinc arcer
ĠCont roller
Ġdepos ited
Ġban ners
Ġscreens hot
E r
F inal
Ġgear s
Ġhood ie
ĠGraph ics
M ind
n ite
As ide
Ġtransl ations
Sp ace
OC K
d istance
u ph
Ġm ornings
ĠI b
ĠS OL
Ġwell s
Ġtrust ing
ĠMid west
ighth ouse
i ered
ĠH ass
Ġrelig ions
ĠApp eals
Ġaccommod ating
ĠOpen AI
ĠBack ground
ett i
Ġbread th
ĠNic ole
ĠCarl os
Ġdispro portion
Ġo re
ac a
Ġrespect ing
Ġshel ters
Ġsynt hes
Sim ilarly
h are
w art
w rite
Ġp s
ĠZ el
cell ent
Ġtouch down
Ġformat ting
ĠLight ning
Ġ196 8
A IL
f ounded
Ġb ricks
Ġwe aker
ĠD anny
Ġpl umber
ĠRe uters
ĠPa id
Im plement
ĠSupp lier
Ġ196 9
Ġprev ailing
Ġst aring
um bs
Ġrec onst
ec d
ĠRet irement
ĠLiter ature
ĠPract ical
Ġbe et
Ġab ol
Rec ent
w ife
Ġt v
Ġmar riages
T ex
es an
Ġcan opy
Ġaw ake
Ġfather s
Ġsurvey ed
ĠBern ard
Ġm ines
ĠT W
Ġrespons iveness
Ġtravel led
ĠInvest ments
ĠFil ter
Ġcompr ise
ĠCann abis
Ġb ids
Ġsu gars
ĠD ining
tern ally
Ġcour ty
int ensive
Ġtruth s
Up date
eren ced
ĠHost ing
Ġgeop olitical
op last
Ġtra ced
Ġharvest ed
ĠIt em
ov ic
Ġday light
Ġinf amous
TS D
Ġupl ifting
Ġdatas et
Ġs her
ĠSt ructure
ote ch
ĠComp are
Ġbra king
Ġlever ages
ĠChap el
in ational
Ġ8 9
Ġrevolution izing
rag on
ĠDou g
ĠDesk top
S ales
Ġp ixel
ĠP ere
ĠAt hens
ĠBang kok
ĠN urs
Ġfasc inated
Ġn asty
ĠE lements
uff le
ĠRed uced
ĠDream s
ĠPrincip les
ĠT ol
ĠRep airs
ĠFin ish
Ġfamiliar ize
ĠSign ature
s ided
qu ired
Ġwas her
Ġsw ings
oyal ty
ĠLim it
ĠBas ically
Ġque ue
Ġb isc
Ġpat rol
be k
h ad
Ġ `
ĠR ural
our nal
ĠY outube
Ġra cks
- $
tle ment
Ġresid ing
ĠPen insula
Ġadvers ity
Ans wer
Ġn avy
Ġcont end
ĠRe becca
ĠSh i
app er
ĠMar athon
ĠBo eing
ĠEv idence
ĠRain bow
ĠRena issance
g ering
ĠK ur
Ġrat ios
Ġpharm acies
on ics
ĠM end
ĠComp act
Ġ197 3
Ġunexpected ly
c ill
ĠB inance
Ġab ide
Ġsl ate
ĠCan on
ĠKind le
Ġunbelie vable
l iter
ĠM aple
ĠF rame
Ġsh ores
ie v
Ġprint able
al er
ĠR af
ĠFac ilities
ĠP U
ĠQ in
Ġhy gien
ĠAud i
Ġhypert ension
W he
sh ield
Ġhe ct
Ġse greg
Ġdes cent
ex cept
ĠCom ments
Ġliqu or
Ġparam eter
Ġ197 2
osc ope
Del ivery
S orry
f est
Ġcar rots
M AN
Ġch assis
Ġk ern
ĠK ill
Ġsur plus
ason ic
Ġtreat y
ik ers
ĠAm ber
ĠMin neapolis
O ld
Ġinv itations
to xic
Ġemb ry
Ġoccup y
Ġs orrow
ĠEx ample
ĠWord s
Ġweigh s
ĠChem istry
ĠSym ptoms
Ġrevers ed
ĠMerc ury
ilib rium
R a
Ġus able
Ġch ap
ard on
Ġgrow ers
ĠGu ild
ĠAustral ians
Ġo ct
Ġf ox
Ġb umps
ĠS id
Ġ3 000
any ahu
Ġset backs
Ġpol ite
ĠZ ion
ope z
Ġembra ces
ä ¸
ĠC ere
Ġab used
Ġlist ener
ĠAmeric as
eral a
ĠPict ures
Ġl oneliness
ĠT ier
Ġdis pose
ĠHawai ian
Ġcaf Ã©
Ġpel vic
S enior
z hou
ĠHe ath
Ġrecept ors
Ġenfor ced
Ġanten na
Ġc uc
est ial
ĠG PT
Ġsp ider
ĠCl are
Ġcounter tops
Ġproport ions
oca ust
Ġb ak
uc us
Ġbroadcast ing
Ġw ives
Ġbe ams
ĠD S
ons ored
Ġac re
ĠSh oes
ĠIns pired
amb ia
Ġatmosp heric
ĠEth ics
Ġencompass ing
O wn
Ġt ense
Ġf aux
ĠL IMIT
ten ess
Ġ0 5
Ġcapital ism
Ġap ost
P ick
in vasive
or ously
ĠL LP
Ġtw ent
ĠYour self
ĠForm s
ĠSnap chat
c hen
let al
Ġes ports
ĠFound ed
law s
st own
Ġde ple
Ġinc ub
Ġam p
Ġfabric ation
Ġchim ney
Ġa unt
ĠL ack
ĠL CD
bs p
Ġclient ele
B Y
cc oli
Ġmod elling
Ġcoll apsed
IA B
Ġgrass roots
Ġstead fast
sens itive
Ġlat ency
Ġoblig ed
Ġhomeless ness
Ġuncon ventional
ĠM N
Ġsymbol izes
ĠPok Ã©mon
ĠPast or
Ġinsec urity
F ounder
ĠG mail
ĠChe v
Ġsn ork
Ġacadem ia
b age
ĠBl anc
ĠBr ush
Ġfine ly
Ġquir ky
L arge
M uch
Ï ħ
he tt
Ġc ogn
ĠG oth
erv ical
ĠDev Ops
Ġvolunt arily
Ġst ab
Ġan ecd
oll ah
sp ot
Ġtempt ed
Ġsteal ing
ĠAnsw ers
ĠSERV ICES
Ġquarant ine
l ate
ĠUS PS
Ġorganiz er
ĠAir bnb
Inst all
ĠTransp arency
ĠW ere
ĠD ES
ĠSt raw
Ġpe pt
ĠSc hed
Ġsegment ation
ĠGP U
Ġboost ed
ĠGon z
Ġfor ged
Ġfire arm
Ġmix es
arad erie
Ġh ue
Ġst ocking
ĠV ista
Ġac upuncture
Ġsort ed
Ġun ite
com pet
Ġsym met
ĠBase ball
S en
ĠB erry
ri en
ĠN om
Ġcar c
Ġswe ater
Writ ten
FAQ s
Ġbiz arre
D im
p se
s ervices
v iol
Ġmem oir
Ġdist raction
Ġ8 3
Ġ197 4
g reat
Ġl ent
ĠDe Fi
iar ism
Ġpsych iat
amb a
ĠBre ast
Ġster ling
Ġsou ven
ĠKash mir
ĠC ob
ĠB U
Ġle aking
Ġindu ce
an mar
ro e
ĠH unting
ĠR ico
ĠUn cle
Ġhair s
Ġelev ating
Ġstick er
qual ified
T B
h im
Ġcome back
aur us
Sec ure
g us
Ġdet ained
Ġbenef ited
Ġfore see
ĠHard ware
et ically
Ġk ills
Ġimp osing
Ġmach ining
press ure
Ġtact ic
hol m
ĠâĨ Ĵ
C I
w ave
y st
est ion
Ġam munition
Ġday time
mb H
sh op
ĠBu yers
ĠLab el
Cent ral
am ics
ĠSp ider
ĠAg ents
Ġw ired
av in
Ġorgan ise
ĠAr bit
Ġpill ar
Ġhards hip
Ġsp onge
Ġcomm end
ĠCon tain
Ġemail ed
ĠFact s
w arming
ĠA uckland
ĠP B
ĠR iv
Ġmold ing
pl atform
Ġcost ing
ok a
AL E
Ġmix er
Ġsuit ability
Ġpun ct
Ġcush ions
ĠGene va
Wed nesday
ĠG L
Ġrese mble
aster y
t ax
all ow
Ġbud d
Ġneu rological
t est
ĠI con
ĠCh in
Ġrecommend ing
Ġded icate
ĠCra fts
Ġcow ork
ĠThe m
ts y
ĠPass word
ĠDom estic
ĠMine craft
ne e
Ġcann abino
S ar
Ġremark ably
ĠSME s
= "
Ġl ust
Ġl act
[...]
