{"<s>":0,"<pad>":1,"</s>":2,"<unk>":3,"<mask>":4,"!":5,"\"":6,"#":7,"$":8,"%":9,"&":10,"'":11,"(":12,")":13,"*":14,"+":15,",":16,"-":17,".":18,"/":19,"0":20,"1":21,"2":22,"3":23,"4":24,"5":25,"6":26,"7":27,"8":28,"9":29,":":30,";":31,"<":32,"=":33,">":34,"?":35,"@":36,"A":37,"B":38,"C":39,"D":40,"E":41,"F":42,"G":43,"H":44,"I":45,"J":46,"K":47,"L":48,"M":49,"N":50,"O":51,"P":52,"Q":53,"R":54,"S":55,"T":56,"U":57,"V":58,"W":59,"X":60,"Y":61,"Z":62,"[":63,"\\":64,"]":65,"^":66,"_":67,"`":68,"a":69,"b":70,"c":71,"d":72,"e":73,"f":74,"g":75,"h":76,"i":77,"j":78,"k":79,"l":80,"m":81,"n":82,"o":83,"p":84,"q":85,"r":86,"s":87,"t":88,"u":89,"v":90,"w":91,"x":92,"y":93,"z":94,"{":95,"|":96,"}":97,"~":98,"¡":99,"¢":100,"£":101,"¤":102,"¥":103,"¦":104,"§":105,"¨":106,"©":107,"ª":108,"«":109,"¬":110,"®":111,"¯":112,"°":113,"±":114,"²":115,"³":116,"´":117,"µ":118,"¶":119,"·":120,"¸":121,"¹":122,"º":123,"»":124,"¼":125,"½":126,"¾":127,"¿":128,"À":129,"Á":130,"Â":131,"Ã":132,"Ä":133,"Å":134,"Æ":135,"Ç":136,"È":137,"É":138,"Ê":139,"Ë":140,"Ì":141,"Í":142,"Î":143,"Ï":144,"Ð":145,"Ñ":146,"Ò":147,"Ó":148,"Ô":149,"Õ":150,"Ö":151,"×":152,"Ø":153,"Ù":154,"Ú":155,"Û":156,"Ü":157,"Ý":158,"Þ":159,"ß":160,"à":161,"á":162,"â":163,"ã":164,"ä":165,"å":166,"æ":167,"ç":168,"è":169,"é":170,"ê":171,"ë":172,"ì":173,"í":174,"î":175,"ï":176,"ð":177,"ñ":178,"ò":179,"ó":180,"ô":181,"õ":182,"ö":183,"÷":184,"ø":185,"ù":186,"ú":187,"û":188,"ü":189,"ý":190,"þ":191,"ÿ":192,"Ā":193,"ā":194,"Ă":195,"ă":196,"Ą":197,"ą":198,"Ć":199,"ć":200,"Ĉ":201,"ĉ":202,"Ċ":203,"ċ":204,"Č":205,"č":206,"Ď":207,"ď":208,"Đ":209,"đ":210,"Ē":211,"ē":212,"Ĕ":213,"ĕ":214,"Ė":215,"ė":216,"Ę":217,"ę":218,"Ě":219,"ě":220,"Ĝ":221,"ĝ":222,"Ğ":223,"ğ":224,"Ġ":225,"ġ":226,"Ģ":227,"ģ":228,"Ĥ":229,"ĥ":230,"Ħ":231,"ħ":232,"Ĩ":233,"ĩ":234,"Ī":235,"ī":236,"Ĭ":237,"ĭ":238,"Į":239,"į":240,"İ":241,"ı":242,"Ĳ":243,"ĳ":244,"Ĵ":245,"ĵ":246,"Ķ":247,"ķ":248,"ĸ":249,"Ĺ":250,"ĺ":251,"Ļ":252,"ļ":253,"Ľ":254,"ľ":255,"Ŀ":256,"ŀ":257,"Ł":258,"ł":259,"Ń":260,"Ġt":261,"Ġa":262,"in":263,"he":264,"re":265,"on":266,"er":267,"Ġthe":268,"Ġs":269,"at":270,"Ġo":271,"Ġc":272,"nd":273,"Ġw":274,"es":275,"it":276,"en":277,"ing":278,"or":279,"ou":280,"Ġp":281,"is":282,"Ġf":283,"Ġb":284,"al":285,"an":286,"Ġto":287,"Ġand":288,"ed":289,"Ġm":290,"Ġin":291,"ar":292,"Ġof":293,"Ġd":294,"ic":295,"ion":296,"le":297,"om":298,"as":299,"Ġh":300,"ent":301,"Ġth":302,"Ġy":303,"Ġe":304,"il":305,"âĢ":306,"ro":307,"Ġre":308,"Ġyou":309,"ve":310,"ct":311,"st":312,"Ġl":313,"Ġn":314,"et":315,"Ġg":316,"ly":317,"Ġis":318,"Ġfor":319,"id":320,"ĠT":321,"ur":322,"ce":323,"ut":324,"ot":325,"Ġbe":326,"us":327,"Ġon":328,"im":329,"ig":330,"ation":331,"ow":332,"ay":333,"ĠI":334,"ol":335,"ĠS":336,"ra":337,"ith":338,"ch":339,"ers":340,"ĠA":341,"âĢĻ":342,"Ġst":343,"ĠC":344,"Ġthat":345,"el":346,"Ġwith":347,"am":348,"ir":349,"Ġpro":350,"ver":351,"Ġit":352,"ul":353,"ad":354,"ess":355,"Ġal":356,"Ġan":357,"Ġas":358,"Ġcon":359,"if":360,"Ġhe":361,"Ġare":362,"Ġyour":363,"un":364,"ment":365,"se":366,"Ġor":367,"ill":368,"ĠM":369,"Ġcom":370,"ate":371,"ke":372,"ge":373,"Ġwh":374,"ĠP":375,"pp":376,"ab":377,"Ġex":378,"ter":379,"ĠB":380,"Ġwe":381,"ity":382,"est":383,"Ġha":384,"ive":385,"her":386,"ure":387,"oo":388,"ort":389,"Ġcan":390,"ore":391,"Ġv":392,"ĠW":393,"ĠThe":394,"qu":395,"iv":396,"ac":397,"igh":398,"ect":399,"ies":400,"Ġde":401,"Ġne":402,"rom":403,"ant":404,"ist":405,"Ġsu":406,"ĠD":407,"Ġat":408,"Ġse":409,"ĠH":410,"ust":411,"ain":412,"op":413,"ĠF":414,"ial":415,"ld":416,"art":417,"Ġus":418,"oc":419,"Ġr":420,"em":421,"ĠR":422,"th":423,"Ġch":424,"os":425,"and":426,"Ġfrom":427,"um":428,"Ġhave":429,"Ġsh":430,"nt":431,"ĠE":432,"Ġen":433,"ight":434,"ĠL":435,"per":436,"ĠâĢ":437,"Ġle":438,"res":439,"Ġthis":440,"Ġpl":441,"Ġnot":442,"Ġwill":443,"Ġby":444,"pe":445,"Ġu":446,"ud":447,"ĠG":448,"ri":449,"ard":450,"ions":451,"ide":452,"our":453,"ome":454,"out":455,"all":456,"Ġad":457,"pt":458,"king":459,"ĠN":460,"od":461,"ine":462,"Ġwor":463,"Ġwas":464,"Ġ2":465,"Ġcomp":466,"ĠO":467,"ost":468,"are":469,"Ġ1":470,"Ġab":471,"Ġall":472,"rou":473,"able":474,"Ġma":475,"Ġ(":476,"age":477,"ff":478,"Ġtheir":479,"gh":480,"iz":481,"ip":482,"cc":483,"ance":484,"Ġint":485,"ther":486,"ast":487,"Ġim":488,"The":489,"ag":490,"ere":491,"ally":492,"orm":493,"ould":494,"ice":495,"Ġj":496,"ie":497,"ell":498,"act":499,"Ġhas":500,"Ġwhe":501,"du":502,"pl":503,"Ġdo":504,"Ġcont":505,"Ġour":506,"ire":507,"ear":508,"Ġinc":509,"ign":510,"Ġmore":511,"âĢĿ":512,"ks":513,"ans":514,"Ġk":515,"ations":516,"ated":517,"og":518,"ous":519,"ry":520,"Ġout":521,"so":522,"Ġte":523,"ib":524,"ich":525,"ĠU":526,"ind":527,"ĠTh":528,"form":529,"ime":530,"Ġcl":531,"Ġapp":532,"Ġthey":533,"ail":534,"ong":535,"very":536,"ence":537,"Ġres":538,"Ġme":539,"one":540,"Ġoff":541,"ult":542,"Ġun":543,"ack":544,"Ġup":545,"ite":546,"ru":547,"Ġso":548,"Ġman":549,"Ġbut":550,"ĠIn":551,"ep":552,"Ġalso":553,"ike":554,"Ġfe":555,"ood":556,"reat":557,"00":558,"erv":559,"ĠJ":560,"Ġimp":561,"vel":562,"ical":563,"ace":564,"Ġsp":565,"ition":566,"ase":567,"ile":568,"Ġper":569,"ĠY":570,"Ġwhich":571,"ĠâĢľ":572,"Ġabout":573,"ame":574,"Ġone":575,"ach":576,"Ġqu":577,"ia":578,"Ġsa":579,"Ġother":580,"ll":581,"Ġany":582,"Ġpart":583,"ree":584,"Ġev":585,"ents":586,"Ġdis":587,"ors":588,"Ġwho":589,"ount":590,"Ġacc":591,"Ġprov":592,"Ġtime":593,"ress":594,"Ġtra":595,"ary":596,"Ġgo":597,"Ġneed":598,"Ġpre":599,"ap":600,"ays":601,"ue":602,"Ġlike":603,"end":604,"ark":605,"Ġnew":606,"ass":607,"ĠIt":608,"ĠSt":609,"ction":610,"Ġ20":611,"av":612,"Ġits":613,"Ġthem":614,"Ġcomm":615,"ber":616,"now":617,"Ġta":618,"ings":619,"'s":620,"lp":621,"Ġem":622,"ĠK":623,"anc":624,"Ġhelp":625,"ens":626,"Ġrec":627,"ord":628,"Ġspe":629,"ĠThis":630,"ub":631,"Ġtr":632,"nder":633,"Ġar":634,"Ġexper":635,"Ġhis":636,"Ġsome":637,"ments":638,"Ġover":639,"ne":640,"ĠV":641,"ild":642,"Ġsc":643,"ual":644,"ov":645,"Ġro":646,"ook":647,"Ġdes":648,"lud":649,"Ġget":650,"ick":651,"ose":652,"Ġpe":653,"oy":654,"Ġyear":655,"Ġmy":656,"Ġwork":657,"Ġind":658,"Ġadd":659,"Ġinto":660,"red":661,"ater":662,"ove":663,"Ġmay":664,"Ġwhen":665,"Ġif":666,"rough":667,"ific":668,"low":669,"ility":670,"ices":671,"Ġthere":672,"ĠCh":673,"ities":674,"Ġag":675,"ob":676,"Ġhow":677,"Ġserv":678,"ck":679,"ting":680,"Ġpr":681,"pport":682,"Ġcons":683,"ning":684,"ond":685,"Ġinclud":686,"ish":687,"Ġbeen":688,"enc":689,"Ġprodu":690,"ating":691,"Ġbet":692,"Ġknow":693,"ful":694,"Ġmake":695,"ang":696,"Ġwhat":697,"ience":698,"ious":699,"cess":700,"Ġbec":701,"ĠWe":702,"ople":703,"wn":704,"Ġthese":705,"Ġthan":706,"lic":707,"Ġcol":708,"iness":709,"ons":710,"iff":711,"Ġuse":712,"ts":713,"ak":714,"ound":715,"ise":716,"ory":717,"ates":718,"aus":719,"Ġher":720,"oin":721,"te":722,"tern":723,"ures":724,"ough":725,"Ġthrough":726,"lect":727,"Ġjust":728,"Ġact":729,"Ġinv":730,"Ġeff":731,"Ġunder":732,"cial":733,"les":734,"Ġpeople":735,"Ġreg":736,"Ġam":737,"ram":738,"uring":739,"usiness":740,"irst":741,"Ġsy":742,"own":743,"Ġbu":744,"Ġmost":745,"Ġrel":746,"ĠâĢĵ":747,"line":748,"erson":749,"Ġevery":750,"old":751,"Ġplay":752,"Ġwell":753,"Ġrep":754,"Ġdiff":755,"Ġ3":756,"hen":757,"Ġno":758,"ular":759,"Ġwere":760,"fter":761,"alth":762,"ric":763,"Ġke":764,"ject":765,"ract":766,"tain":767,"Ġwould":768,"oth":769,"Ġonly":770,"ft":771,"row":772,"pect":773,"its":774,"ustom":775,"ible":776,"round":777,"Ġass":778,"Ġhad":779,"Ġsuch":780,"bs":781,"hed":782,"amp":783,"Ġpos":784,"Ġbusiness":785,"we":786,"ĠYou":787,"ange":788,"als":789,"ian":790,"ause":791,"velop":792,"Ġinform":793,"Ġhigh":794,"arket":795,"Ġatt":796,"Ġco":797,"Ġbl":798,"ef":799,"Ġfirst":800,"stem":801,"Ġrequ":802,"olog":803,"Ġrem":804,"hip":805,"ife":806,"Ġprovid":807,"Ġdec":808,"rit":809,"Ġph":810,"get":811,"any":812,"iew":813,"ade":814,"Ġwant":815,"Ġac":816,"ential":817,"Ġsee":818,"Ġins":819,"ec":820,"ased":821,"ient":822,"ative":823,"chn":824,"Ġent":825,"Ġwhere":826,"Ġsec":827,"Ġperson":828,"ily":829,"Ġdesign":830,"Ġtrans":831,"Ġtw":832,"Ġsm":833,"Ġmany":834,"ink":835,"Ġra":836,"Ġfin":837,"Ġloc":838,"mer":839,"ward":840,"ren":841,"ality":842,"iss":843,"ower":844,"aw":845,"Ġshould":846,"Ġcustom":847,"eth":848,"Ġinst":849,"In":850,"ational":851,"xt":852,"ss":853,"eg":854,"Ġproduct":855,"Ġway":856,"urn":857,"Ġbest":858,"ph":859,"Ġgu":860,"Ġfl":861,"Ġback":862,"erm":863,"Ġadv":864,"ĠHe":865,"Ġeven":866,"ata":867,"Ġ|":868,"Ġstr":869,"Ġsupport":870,"Ġsaid":871,"Ġshe":872,"Ġdiffere":873,"elf":874,"Ġstud":875,"Ġset":876,"fore":877,"Ġright":878,"Ġav":879,"Ġdevelop":880,"Ġown":881,"ics":882,"Ġopt":883,"Ġprocess":884,"ont":885,"ces":886,"Th":887,"Ġfind":888,"Ġcre":889,"Ġmarket":890,"ew":891,"Ġcas":892,"Ġinformation":893,"ten":894,"gan":895,"ener":896,"day":897,"Ġsystem":898,"ize":899,"ĠPro":900,"ident":901,"Ġyears":902,"Ġcould":903,"Ġsign":904,"ool":905,"hes":906,"ys":907,"Ġdisc":908,"Ġstart":909,"ional":910,"omm":911,"Ġworld":912,"Ġexperience":913,"Ġgood":914,"Ġhealth":915,"Ġ202":916,"rib":917,"Ġtake":918,"Ġvis":919,"Ġens":920,"Ġprof":921,"Ġlong":922,"ivers":923,"Ġtwo":924,"Ġtechn":925,"und":926,"ty":927,"Ġcommun":928,"Ġlead":929,"Ġmed":930,"ives":931,"ĠIf":932,"ied":933,"ues":934,"Ġhome":935,"air":936,"Ġafter":937,"Ġoffer":938,"Ġgam":939,"Ġdet":940,"ness":941,"olut":942,"Ġgreat":943,".âĢĿ":944,"Ġmod":945,"Ġsk":946,"ted":947,"Ġvery":948,"uch":949,"Ġvar":950,"arch":951,"Ġimport":952,"Ġcare":953,"Ġsim":954,"ĠWh":955,"up":956,"Ġext":957,"Ġcar":958,"Ġ5":959,"ble":960,"Ġbr":961,"Ġdel":962,"Ġteam":963,"Ġexp":964,"iqu":965,"ever":966,"Ġwhile":967,"ited":968,"led":969,"Ġcomple":970,"Ġprog":971,"ines":972,"Ġinter":973,"ock":974,"Ġpres":975,"Ġsur":976,"stand":977,"ĠUn":978,"ling":979,"Ġmon":980,"Ġonline":981,"ety":982,"ath":983,"Ġ4":984,"Ġdifferent":985,"Ġlife":986,"ner":987,"Ġdata":988,"Ġthose":989,"ized":990,"ollow":991,"Ġche":992,"Ġcle":993,"Ġhand":994,"ital":995,"arm":996,"Ġthen":997,"Ġeas":998,"Ġfam":999,"Ġart":1000,"Ġallow":1001,"Ġaut":1002,"com":1003,"ages":1004,"Ġdown":1005,"Ġnow":1006,"ork":1007,"Ġ-":1008,"ven":1009,"Wh":1010,"Ġref":1011,"Ġmin":1012,"Ġdon":1013,"Ġbefore":1014,"âĢľ":1015,"Ġbecause":1016,"other":1017,"We":1018,"Ġprovide":1019,"ually":1020,"Ġty":1021,"Ġ201":1022,"Ġshow":1023,"Ġeach":1024,"Ġused":1025,"ng":1026,"Ġpur":1027,"Ġpol":1028,"ced":1029,"Ġnum":1030,"Ġday":1031,"ving":1032,"gy":1033,"Ġmain":1034,"Ġbeing":1035,"tle":1036,"iving":1037,").":1038,"Ġval":1039,"ake":1040,"cept":1041,"ered":1042,"der":1043,"Ġread":1044,"ĠAnd":1045,"Ġeffect":1046,"Ġmade":1047,"Ġmuch":1048,"Ġdoes":1049,"arn":1050,"kes":1051,"Ġsub":1052,"Ġcur":1053,"Ġend":1054,"less":1055,"Ġrequire":1056,"Ġfeat":1057,"Ġmem":1058,"Ġfree":1059,"Ġform":1060,"Ġincluding":1061,"Ġpay":1062,"atch":1063,"rand":1064,"Ġboth":1065,"irect":1066,"io":1067,"ĠAs":1068,"Ġservices":1069,"Ġaccess":1070,"Ġappro":1071,"ability":1072,"Ġfollow":1073,"ict":1074,"ix":1075,"Ġlook":1076,"Ġfun":1077,"Ġdr":1078,"ween":1079,"Ġed":1080,"ural":1081,"ienc":1082,"ĠFor":1083,"Ġinf":1084,"Ġret":1085,"Ġop":1086,"Ġ&":1087,"ĠThey":1088,"Ġimportant":1089,"Ġpartic":1090,"ier":1091,"ĠRe":1092,"ins":1093,"Ġreal":1094,"Ġhere":1095,"Ġavail":1096,"els":1097,"ider":1098,"ull":1099,"dition":1100,"Ġagain":1101,"Ġusing":1102,"Ġgl":1103,"ple":1104,"ason":1105,"Ġconf":1106,"ology":1107,"orts":1108,"Ġcount":1109,"ps":1110,"ooking":1111,"Ġ\"":1112,"ection":1113,"Ġ19":1114,"ee":1115,"Ġbetween":1116,"Ġkeep":1117,"Ġcall":1118,"Ġchar":1119,"view":1120,"ploy":1121,"ĠAd":1122,"ash":1123,"ants":1124,"Ġtoo":1125,"nce":1126,"Ġinvest":1127,"Ġsaf":1128,"ather":1129,"ale":1130,"Ġgame":1131,"over":1132,",âĢĿ":1133,"Ġaround":1134,"Ġresult":1135,"uc":1136,"Ġpub":1137,"Ġspec":1138,"Ġgener":1139,"Ġincre":1140,"ino":1141,"Ġprogram":1142,"ivid":1143,"Ġorgan":1144,"Ġprot":1145,"Ġresp":1146,"Ġ$":1147,"Ġplan":1148,"riend":1149,"Ġwithout":1150,"ware":1151,"Ġposs":1152,"Ġcompany":1153,"Ġsoc":1154,"ccess":1155,"enef":1156,"ically":1157,"Ġbuild":1158,"chool":1159,"Ġeng":1160,"Ġplace":1161,"Ġproject":1162,"Ġperform":1163,"Ġduring":1164,"This":1165,"Ġgrow":1166,"Ġhim":1167,"way":1168,"ouse":1169,"Ġcost":1170,"ross":1171,"Ġdef":1172,"Ġiss":1173,"Ġexpl":1174,"Ġchild":1175,"Ġcour":1176,"ets":1177,"ining":1178,"ĠHow":1179,"ĠSh":1180,"Ġcontin":1181,"Ġwebs":1182,"Ġsl":1183,"Ġmaking":1184,"ways":1185,"Ġtop":1186,"ank":1187,"cer":1188,"ĠAl":1189,"eng":1190,"lease":1191,"Ġavailable":1192,"Ġstand":1193,"Ġprom":1194,"Ġservice":1195,"imes":1196,"ave":1197,"Ġfeel":1198,"Ġimpro":1199,"read":1200,"ruct":1201,"ves":1202,"ince":1203,"Ġunderstand":1204,"Ġwater":1205,"ved":1206,"Ġdid":1207,"erest":1208,"Ġproper":1209,"az":1210,"Ġaddition":1211,"),":1212,"ients":1213,"Ġprofess":1214,"Ġlar":1215,"Ġpat":1216,"agement":1217,"Ġfact":1218,"Ġwithin":1219,"iron":1220,"ĠAn":1221,"pr":1222,"oint":1223,"bers":1224,"Ġpersonal":1225,"ify":1226,"ody":1227,"Ġob":1228,"Ġindust":1229,"Ġmust":1230,"Ġser":1231,"vent":1232,"Ġpot":1233,"'t":1234,"ex":1235,"Ġwee":1236,"gg":1237,"Ġbo":1238,"ividual":1239,"rent":1240,"Ġsom":1241,"Ġcreat":1242,"..":1243,"Ġpower":1244,"Ġoper":1245,"ars":1246,"Ġcor":1247,"oad":1248,"Ġbenef":1249,"land":1250,"Ġstate":1251,"oney":1252,"Ġlast":1253,"ĠCl":1254,"Ġsame":1255,"ists":1256,"Ġlot":1257,"ique":1258,"Ġlevel":1259,"ĠPl":1260,"Ġfound":1261,"ense":1262,"Ġneeds":1263,"ration":1264,"Ġlit":1265,"Ġsit":1266,"ĠEx":1267,"ĠDe":1268,"Ġ6":1269,"oun":1270,"Ġmight":1271,"Ġfew":1272,"ms":1273,"ribut":1274,"Ġcer":1275,"Ġpract":1276,"Ġindividual":1277,"Ġrece":1278,"pos":1279,"Ġnat":1280,"pend":1281,"iel":1282,"Ġdist":1283,"000":1284,"Ġrest":1285,"Ġide":1286,"If":1287,"ocus":1288,"ĠBut":1289,"ĠWith":1290,"Ġstill":1291,"Ġinterest":1292,"Ġleg":1293,"viron":1294,"Ġest":1295,"Ġve":1296,"joy":1297,"Ġbetter":1298,"Ġsmall":1299,"Ġopen":1300,"aut":1301,"Ġoften":1302,"ĠNew":1303,"Ġbel":1304,"Ġspecial":1305,"ills":1306,"cl":1307,"Ġlist":1308,"Ġcreate":1309,"uss":1310,"Ġpass":1311,"Ġconn":1312,"Ġtest":1313,"It":1314,"rol":1315,"Ġaff":1316,"Ġproducts":1317,"Ġmonth":1318,"itive":1319,"ared":1320,"con":1321,"arly":1322,"ision":1323,"Ġintern":1324,"Ġsuccess":1325,"self":1326,"ĠThese":1327,"Ġoffers":1328,"ately":1329,"Ġhapp":1330,"Ġcome":1331,"Ġapplic":1332,"Ġcent":1333,"Ġgoing":1334,"ards":1335,"Ġdirect":1336,"Ġalways":1337,"Ġorder":1338,"Ġensure":1339,"Ġaccount":1340,"itions":1341,"Ġfamily":1342,"ral":1343,"orth":1344,"Ġgra":1345,"ĠCom":1346,"Ġpop":1347,"Ġmus":1348,"ĠAr":1349,"Ġsure":1350,"Ġquality":1351,"Ġquest":1352,"ah":1353,"Ġwebsite":1354,"Ġnumber":1355,"Ġemploy":1356,"Ġreally":1357,"Ġrun":1358,"ization":1359,"Ġfil":1360,"urity":1361,"ĠThere":1362,"oss":1363,"Ġrese":1364,"Ġpost":1365,"ĠInd":1366,"Ġthings":1367,"Ġlove":1368,"Ġ10":1369,"atform":1370,"ample":1371,"Ġlaw":1372,"pportun":1373,"Ġthough":1374,"Ġspecific":1375,"Ġris":1376,"Ġthink":1377,"apt":1378,"ances":1379,"Ġable":1380,"fect":1381,"aterial":1382,"Ġactiv":1383,"Ġdem":1384,"Ġequ":1385,"Ġtool":1386,"Ġstrate":1387,"iety":1388,"Ġsolut":1389,"Ġsupp":1390,"ug":1391,"de":1392,"Ġfac":1393,"ights":1394,"Ġfocus":1395,"Ġenviron":1396,"ield":1397,"thing":1398,"to":1399,"Ġenjoy":1400,"Ġredu":1401,"Ġthree":1402,"ering":1403,"Ġcap":1404,"pping":1405,"ream":1406,"Ġmat":1407,"ney":1408,"Ġ7":1409,"Ġopportun":1410,"ĠSo":1411,"oor":1412,"ined":1413,"ished":1414,"ton":1415,"Ġbre":1416,"Ġlocal":1417,"Ġmeet":1418,"Ġpotential":1419,"reen":1420,"ĠâĢĺ":1421,"ior":1422,"Ġwin":1423,"Ġtyp":1424,"Ġmoney":1425,"the":1426,"ently":1427,"ieve":1428,"ĠTo":1429,"fort":1430,"Ġgrou":1431,"iven":1432,"Ġproble":1433,"oot":1434,"ead":1435,"Ġcontent":1436,"Ġess":1437,"ething":1438,"Ġgames":1439,"Ġconsider":1440,"Ġsocial":1441,"ism":1442,"por":1443,"Ġvide":1444,"Ġbrand":1445,"meric":1446,"ĠQ":1447,"Ġkey":1448,"Ġinclude":1449,"Ġcommunity":1450,"Ġtreat":1451,"Ġsignific":1452,"Ġplatform":1453,"Ġdev":1454,"Ġele":1455,"ger":1456,"Ġchall":1457,"Ġpublic":1458,"Ġlooking":1459,"Ġenh":1460,"Ġbig":1461,"iting":1462,"ancial":1463,"Ġtry":1464,"alk":1465,"ention":1466,"port":1467,"uture":1468,"ote":1469,"Ġworking":1470,"Ġsay":1471,"Ġmaterial":1472,"vers":1473,"âĢĶ":1474,"iver":1475,"Ġfull":1476,"Ġnext":1477,"Ġlet":1478,"ium":1479,"Ġclass":1480,"Ġdetail":1481,"Ġfriend":1482,"Ġanother":1483,"Ġcurrent":1484,"Ġsomething":1485,"Ġindustry":1486,"ots":1487,"Ġ8":1488,"Ġgive":1489,"Ġmet":1490,"ination":1491,"Ġschool":1492,"Ġconst":1493,"Ġput":1494,"aking":1495,"Ġvarious":1496,"Ġhum":1497,"ibility":1498,"ĠSc":1499,"ified":1500,"Ġdays":1501,"Ġfood":1502,"be":1503,"oose":1504,"Ġfeatures":1505,"ours":1506,"Ġchang":1507,"ĠBl":1508,"ands":1509,"What":1510,"me":1511,"Ġless":1512,"Ġenvironment":1513,"Ġel":1514,"ency":1515,"Ġmult":1516,"icle":1517,"lish":1518,"Ġunique":1519,"ission":1520,"ĠAmeric":1521,"Ġbeh":1522,"aging":1523,"Ġtoday":1524,"iversity":1525,"med":1526,"ilities":1527,"Ġeasy":1528,"ĠSp":1529,"ains":1530,"man":1531,"Ġarea":1532,"Ġcr":1533,"ax":1534,"Ġbro":1535,"oice":1536,"Ġperfect":1537,"Ġterm":1538,"vern":1539,"As":1540,"ories":1541,"Ġdevelopment":1542,"au":1543,"Ġacross":1544,"Ġstep":1545,"Ġsoft":1546,"ĠTe":1547,"Ġwom":1548,"Ġlight":1549,"ised":1550,"Ġhard":1551,"Ġident":1552,"Ġsignificant":1553,"work":1554,"Ġhead":1555,"Ġlearn":1556,"ĠOn":1557,"Ġreport":1558,"let":1559,"Ġhist":1560,"cent":1561,"ems":1562,"Ġchange":1563,"ĠCon":1564,"here":1565,"Ġcustomers":1566,"of":1567,"Ġeffective":1568,"Ġair":1569,"ries":1570,"Ġwrit":1571,"illion":1572,"Ġbecome":1573,"Ġes":1574,"Ġ9":1575,"Ġsite":1576,"ĠZ":1577,"Ġelect":1578,"Ġsal":1579,"hor":1580,"You":1581,"Ġlittle":1582,"How":1583,"yle":1584,"Ġgovern":1585,"Ġfuture":1586,"Ġagainst":1587,"Ġsince":1588,"Ġener":1589,"Ġgr":1590,"20":1591,"Ġimpact":1592,"Ġclean":1593,"ĠIs":1594,"inal":1595,"Ġresearch":1596,"Ġanal":1597,"Ġstudents":1598,"Ġrange":1599,"ird":1600,"ator":1601,"ĠTr":1602,"orn":1603,"Ġlim":1604,"urther":1605,"Ġinvol":1606,"Ġcase":1607,"ats":1608,"Ġdig":1609,"Ġimprove":1610,"ĠSe":1611,"ĠAll":1612,"Ġtre":1613,"ĠOur":1614,"Ġmov":1615,"Ġevent":1616,"pecial":1617,"Ġquick":1618,"Ġbased":1619,"ĠBe":1620,"ĠHowever":1621,"oh":1622,"Ġpossible":1623,"ising":1624,"Ġoptions":1625,"Ġview":1626,"Ġcompan":1627,"Ġemail":1628,"Ġtru":1629,"ĠYour":1630,"ĠShe":1631,"ethod":1632,"oci":1633,"Ġexpect":1634,"ury":1635,"Ġfund":1636,"Ġfinancial":1637,"Ġparticular":1638,"ners":1639,"aring":1640,"Ġdi":1641,"ording":1642,"Ġtechnology":1643,"Ġcomplete":1644,"Ġexperienc":1645,"Ġwhy":1646,"fact":1647,"aster":1648,"ured":1649,"Ġsever":1650,"Ġspace":1651,"gether":1652,"int":1653,"Ġtogether":1654,"Ġjob":1655,"ok":1656,"wards":1657,"ern":1658,"Ġcontrol":1659,"Ġeduc":1660,"nov":1661,"ron":1662,"Ġlarge":1663,"Ġconnect":1664,"Ġlive":1665,"ĠAt":1666,"St":1667,"Ġmove":1668,"Ġcasino":1669,"ĠâĢĶ":1670,"lection":1671,"Ġcomes":1672,"Ġbas":1673,"ication":1674,"Ġessential":1675,"Ġmeans":1676,"Ġmakes":1677,"Ġprovides":1678,"ources":1679,"part":1680,"Ġaddress":1681,"gin":1682,"Ġbody":1683,"cing":1684,"Ġmind":1685,"Ġcult":1686,"ĠUS":1687,"Ġbuy":1688,"ental":1689,"Ġpain":1690,"ush":1691,"ember":1692,"acy":1693,"ired":1694,"Ġcontact":1695,"Ġchildren":1696,"Ġpresent":1697,"Ġnet":1698,"Ġnever":1699,"Ġprotect":1700,"ret":1701,"aim":1702,"Ġcompet":1703,"ĠRes":1704,"ĠCol":1705,"Ġcustomer":1706,"itut":1707,"ĠWhen":1708,"ĠComm":1709,"Ġcertain":1710,"Ġseveral":1711,"Ġann":1712,"for":1713,"Ġissues":1714,"Ġenergy":1715,"br":1716,"Ġrespons":1717,"ored":1718,"Ġold":1719,"rap":1720,"izing":1721,"Ġvisit":1722,"Ġcomb":1723,"Ġalong":1724,"ode":1725,"rist":1726,"Ġturn":1727,"Ġaway":1728,"Ġmanagement":1729,"ann":1730,"conom":1731,"Ġcommit":1732,"Ġeffic":1733,"Ġperformance":1734,"Ġcheck":1735,"ived":1736,"Ġdra":1737,"Ġsecond":1738,"Ġpurch":1739,"Ġrelations":1740,"li":1741,"Ġhig":1742,"Ġbeaut":1743,"Ġmethod":1744,"Ġprofessional":1745,"oid":1746,"ĠBy":1747,"ER":1748,"Ġmembers":1749,"Ġmar":1750,"ption":1751,"Ġvideo":1752,"abor":1753,"ĠMan":1754,"mb":1755,"Ġreview":1756,"Ġenc":1757,"ommend":1758,"ding":1759,"ips":1760,"For":1761,"Ġfollowing":1762,"Ġaud":1763,"Ġhaving":1764,"uro":1765,"Ġcompanies":1766,"Ġsecurity":1767,"Ġcourse":1768,"duct":1769,"Ġweek":1770,"Ġroom":1771,"ape":1772,"oring":1773,"arning":1774,"asing":1775,"Ġjour":1776,"Ġusers":1777,"Ġstrong":1778,"ĠPh":1779,"Ġothers":1780,"Ġpri":1781,"af":1782,"ope":1783,"arent":1784,"ffic":1785,"Ġsw":1786,"Ġsol":1787,"Ġocc":1788,"Ġtimes":1789,"side":1790,"ump":1791,"anced":1792,"Ġvers":1793,"til":1794,"pped":1795,"Ġfr":1796,"min":1797,"Ġbook":1798,"outh":1799,"ged":1800,"mit":1801,"Ġpast":1802,"ina":1803,"Ġask":1804,"ĠLe":1805,"ĠApp":1806,"ably":1807,"ĠEn":1808,"Ġreturn":1809,"fer":1810,"ĠSu":1811,"Ġname":1812,"ĠOr":1813,"ift":1814,"Ġchalleng":1815,"Ġexample":1816,"When":1817,"aff":1818,"ooks":1819,"Ġtem":1820,"Ġsing":1821,"ĠThat":1822,"Ġplayers":1823,"ik":1824,"aces":1825,"Ġach":1826,"ledge":1827,"Ġ200":1828,"Ġbring":1829,"Ġworks":1830,"Ġpar":1831,"Ġrecommend":1832,"jor":1833,"Ġkind":1834,"Ġpriv":1835,"Ġpa":1836,"Ġcountry":1837,"Ġgot":1838,"Ġnon":1839,"Ġmaintain":1840,"Ġphot":1841,"ogn":1842,"âĢ¦":1843,"imate":1844,"bo":1845,"Ġenter":1846,"Ġvalue":1847,"Ġmedia":1848,"ases":1849,"ĠCan":1850,"raph":1851,"ĠServ":1852,"cell":1853,"Ġpopular":1854,"Ġcommon":1855,"Ġexc":1856,"Ġdue":1857,"Ġrelationship":1858,"Ġshare":1859,"onus":1860,"Ġdesigned":1861,"Ġbenefits":1862,"Ġfore":1863,"sel":1864,"Ġgroup":1865,"Ġcred":1866,"Ġrole":1867,"Ġcond":1868,"cy":1869,"Ġcomfort":1870,"ides":1871,"Ġhouse":1872,"Ġmean":1873,"iod":1874,"avor":1875,"Ġresults":1876,"ready":1877,"Ġshort":1878,"osp":1879,"Ġnecess":1880,"ĠInst":1881,"Ġknown":1882,"Ġstay":1883,"obal":1884,"Ġconcer":1885,"pro":1886,"Ġdam":1887,"Ġpolic":1888,"Ġlow":1889,"Ġtravel":1890,"inc":1891,"Ġproviding":1892,"Ġinstall":1893,"Ġdeal":1894,"Ġamount":1895,"Ġpoint":1896,"Ġareas":1897,"ids":1898,"ĠWhat":1899,"urance":1900,"Ġarr":1901,"Ġcover":1902,"Ġhold":1903,"sing":1904,"Ġrisk":1905,"itc":1906,"Ġcamp":1907,"Ġnatural":1908,"Ġline":1909,"load":1910,"Ġsystems":1911,"ĠFr":1912,"pecially":1913,"Ġdigital":1914,"Ġeconom":1915,"Ġstrateg":1916,"cle":1917,"Ġweb":1918,"ĠPr":1919,"vious":1920,"Ġinfl":1921,"Ġseason":1922,"Ġfurther":1923,"Ġgrowth":1924,"Ġsafe":1925,"Ġinteg":1926,"Ġla":1927,"atic":1928,"rop":1929,"Ġconsum":1930,"Ġassist":1931,"by":1932,"Ġside":1933,"ĠTra":1934,"arr":1935,"ees":1936,"Ġrele":1937,"Ġphys":1938,"Ġfunction":1939,"Ġmajor":1940,"Ġprep":1941,"ource":1942,"Ġfour":1943,"Ġcra":1944,"elling":1945,"ĠCont":1946,"Ġalready":1947,"Ġapproach":1948,"Ġcoll":1949,"ones":1950,"Ġchoose":1951,"ging":1952,"ken":1953,"isc":1954,"Ġtax":1955,"resh":1956,"Ġallows":1957,"Ġtools":1958,"Ġcut":1959,"Ġtraining":1960,"ery":1961,"Ġwhether":1962,"obile":1963,"Ġgovernment":1964,"Ġrecord":1965,"ulation":1966,"Ġuser":1967,"Ġmom":1968,"Ġi":1969,"room":1970,"Ġheart":1971,"Ġoffic":1972,"Ġcrit":1973,"ocu":1974,"ges":1975,"ĠComp":1976,"ĠCent":1977,"Ġcru":1978,"Ġproperty":1979,"Ġwomen":1980,"ĠEng":1981,"idence":1982,"Ġgetting":1983,"Ġhuman":1984,"Ġdiscuss":1985,"Ġthing":1986,"ds":1987,"ai":1988,"Ġcharact":1989,"lement":1990,"Ġey":1991,"resent":1992,"irt":1993,"Ġmusic":1994,"ters":1995,"50":1996,"Ġsoftware":1997,"lex":1998,"nam":1999,"ites":2000,"Ġpack":2001,"Ġinnov":2002,"Ġfre":2003,"ane":2004,"Ġamong":2005,"Ġbuilding":2006,"Ġtri":2007,"IN":2008,"Ġparticip":2009,"Ġbegin":2010,"Ġtype":2011,"Ġmarketing":2012,"Ġindividuals":2013,"Ġcontribut":2014,"Ġuntil":2015,"ply":2016,"place":2017,"irm":2018,"Ġprevent":2019,"Ġstory":2020,"Ġinit":2021,"not":2022,"Ġmeas":2023,"There":2024,"ns":2025,"ensive":2026,"Ġpress":2027,"Ġsearch":2028,"Ġautom":2029,"iate":2030,"Ġsolutions":2031,"ert":2032,"Ġquestions":2033,"Ġskills":2034,"Ġespecially":2035,"Ġwide":2036,"Ġsays":2037,"'re":2038,"Ġprice":2039,"Ġport":2040,"ĠChrist":2041,"ires":2042,"Ġant":2043,"Ġever":2044,"Ġestab":2045,"Ġincrease":2046,"Ġfit":2047,"Ġ12":2048,"Ġupd":2049,"Ġenough":2050,"Ġorig":2051,"Ġselect":2052,"come":2053,"Ġpage":2054,"Ġenhance":2055,"ditional":2056,"Ġexpert":2057,"ott":2058,"uck":2059,"Ġappear":2060,"Ġmen":2061,"fully":2062,"Ġauthor":2063,"10":2064,"Ġhours":2065,"Ġce":2066,"Ġcal":2067,"Ġsafety":2068,"Ġknowledge":2069,"Ġactually":2070,"ises":2071,"oura":2072,"Ġfield":2073,"illed":2074,"Ġmach":2075,"Ġclaim":2076,"play":2077,"Ġnews":2078,"ification":2079,"ature":2080,"ĠUniversity":2081,"ister":2082,"ests":2083,"Ġbonus":2084,"Ġlegal":2085,"Ġdone":2086,"ĠMed":2087,"Ġbusinesses":2088,"ĠGod":2089,"Ġcity":2090,"Ġlearning":2091,"To":2092,"Ġsimple":2093,"rict":2094,"iple":2095,"roll":2096,"ĠAI":2097,"Ġstore":2098,"ians":2099,"ators":2100,"Ġperiod":2101,"ufact":2102,"Ġrequired":2103,"Ġclear":2104,"Ġonce":2105,"Ġreason":2106,"Ġways":2107,"Ġpie":2108,"Ġyoung":2109,"ograph":2110,"Ġregard":2111,"Ġclients":2112,"Ġdepend":2113,"ES":2114,"crib":2115,"Ġmil":2116,"Ġmot":2117,"Ġyourself":2118,"Ġstudy":2119,"lished":2120,"Ġextra":2121,"ĠAm":2122,"AT":2123,"Ġconditions":2124,"Ġactivities":2125,"Ġ30":2126,"arget":2127,"Ġhelps":2128,"Ġclose":2129,"ON":2130,"Ġprior":2131,"Ġearly":2132,"Ġskin":2133,"Ġleft":2134,"rain":2135,"sw":2136,"ief":2137,"icult":2138,"Ġevents":2139,"Ġmess":2140,"ley":2141,"err":2142,"hether":2143,"ilt":2144,"une":2145,"Ġhistory":2146,"Ġeverything":2147,"ene":2148,"omes":2149,"osed":2150,"ĠNo":2151,"Ġchoice":2152,"ĠIm":2153,"Ġage":2154,"xim":2155,"time":2156,"Ġmonths":2157,"Ġdocu":2158,"most":2159,"ĠEuro":2160,"icated":2161,"Ġ18":2162,"Ġtrust":2163,"Ġfar":2164,"Ġself":2165,"ivity":2166,"Ġdoing":2167,"Ġut":2168,"Ġcollect":2169,"go":2170,"Ġjoin":2171,"cri":2172,"ĠAss":2173,"Ġminut":2174,"An":2175,"Ġmillion":2176,"Ġtaking":2177,"Ġtal":2178,"clus":2179,"Ġdoesn":2180,"Ġlat":2181,"19":2182,"Ġregular":2183,"urs":2184,"bling":2185,"Ġcard":2186,"rodu":2187,"Ġcalled":2188,"alf":2189,"ches":2190,"app":2191,"Our":2192,"Ġsitu":2193,"Ġhy":2194,"ruction":2195,"Ġloss":2196,"ĠDo":2197,"ony":2198,"Ġstarted":2199,"Ġbelow":2200,"eal":2201,"Ġincludes":2202,"ĠWor":2203,"Ġsuper":2204,"ither":2205,"ĠFl":2206,"ows":2207,"Ġvariety":2208,"ued":2209,"ĠMar":2210,"aged":2211,"Ġtreatment":2212,"ĠOne":2213,"Ġvol":2214,"Ġwind":2215,"iful":2216,"selves":2217,"Ġsat":2218,"Ġreceive":2219,"Ġsum":2220,"Ġface":2221,"Ġensuring":2222,"Ġoptim":2223,"tt":2224,"Ġrecogn":2225,"vert":2226,"Ġ100":2227,"Ġemb":2228,"Ġful":2229,"Ġmaterials":2230,"Ġ2024":2231,"Ġdeterm":2232,"idd":2233,"gle":2234,"Ġhot":2235,"ĠCo":2236,"Ġbat":2237,"ouch":2238,"Ġreach":2239,"Ġveh":2240,"Ġopportunity":2241,"Ġlog":2242,"Ġability":2243,"Ġwr":2244,"Ġfriends":2245,"Ġadditional":2246,"Ġproblem":2247,"iable":2248,"ĠSy":2249,"sh":2250,"ables":2251,"ler":2252,"ening":2253,"Ġbal":2254,"Ġded":2255,"Ġassoci":2256,"Ġnight":2257,"Ġchanges":2258,"Ġplease":2259,"Ġcrucial":2260,"Ġprovided":2261,"irc":2262,"Ġland":2263,"Ġposition":2264,"unch":2265,"Ġdifficult":2266,"Ġjourney":2267,"Ġleast":2268,"Ġoption":2269,"mber":2270,"Ġeveryone":2271,"Ġunderstanding":2272,"eral":2273,"use":2274,"Ġtot":2275,"ĠCar":2276,"Ġmedical":2277,"Ġstyle":2278,"Ġsust":2279,"Ġhigher":2280,"Ġnecessary":2281,"ibr":2282,"Ġwa":2283,"Ġsingle":2284,"Ġcreating":2285,"ched":2286,"Ġminim":2287,"Ġcosts":2288,"Ġcontinue":2289,"ĠX":2290,"Ġdetails":2291,"Ġapplication":2292,"Ġsimply":2293,"Ġyet":2294,"ww":2295,".\"":2296,"Ch":2297,"AR":2298,"Ġliving":2299,"Ġthroughout":2300,"ĠUnited":2301,"Ġneeded":2302,"angu":2303,"ames":2304,"nds":2305,"Ġcou":2306,"ructure":2307,"Ġlikely":2308,"hers":2309,"Ġsound":2310,"rate":2311,"reng":2312,"Ġsustain":2313,"Ġregul":2314,"Ġexcell":2315,"Ġtarget":2316,"Ġ15":2317,"ilar":2318,"Ġexist":2319,"ĠRep":2320,"aps":2321,"Ġmanufact":2322,"Ġtext":2323,"Ġentire":2324,"Ġtypes":2325,"Ġavoid":2326,"Ġengine":2327,"ĠEurope":2328,"ĠGu":2329,"Ġexam":2330,"Ġdeep":2331,"ĠDes":2332,"hens":2333,"Ġsomeone":2334,"ux":2335,"Ġwon":2336,"ey":2337,"Ġquickly":2338,"based":2339,"ĠDr":2340,"Ġcomplex":2341,"Ġrequirements":2342,"Ġpromot":2343,"Ġresources":2344,"Ġitems":2345,"face":2346,"back":2347,"oll":2348,"Ġaction":2349,"Ġstaff":2350,"ĠAmerican":2351,"Ġgiven":2352,"Ġrepresent":2353,"Ġbar":2354,"Ġsize":2355,"ival":2356,"Ġopportunities":2357,"Ġglobal":2358,"olution":2359,"Ġaffect":2360,"Ġflow":2361,"Ġoil":2362,"par":2363,"erg":2364,"With":2365,"Ġpoin":2366,"Ġabove":2367,"Ġmodern":2368,"ager":2369,"ĠMy":2370,"Ġbit":2371,"Ġcontract":2372,"Ġimm":2373,"ze":2374,"Ġbeautiful":2375,"ĠWhile":2376,"Ġchallenges":2377,"Ġcaus":2378,"aily":2379,"rect":2380,"though":2381,"Ġready":2382,"Ġeducation":2383,"Ġproblems":2384,"Ġsle":2385,"just":2386,"Ġleading":2387,"Ġoverall":2388,"light":2389,"Ġleaders":2390,"Ġsales":2391,"Ġoffering":2392,"acks":2393,"ules":2394,"irl":2395,"Ġprojects":2396,"Ġcy":2397,"ĠReg":2398,"Ġansw":2399,"AN":2400,"ĠAust":2401,"Ġmobile":2402,"ecut":2403,"Ġpartners":2404,"Ġexplore":2405,"Ġadded":2406,"ĠIntern":2407,"ipment":2408,"Ġcredit":2409,"erc":2410,"erence":2411,"Ġbreak":2412,"Ġfive":2413,"Ġterms":2414,"EO":2415,"Ġz":2416,"ĠNe":2417,"Ġguid":2418,"Ġdidn":2419,"Ġsugg":2420,"Ġachieve":2421,"Ġhost":2422,"ĠSec":2423,"atory":2424,"Ġremain":2425,"Ġthought":2426,"ĠHere":2427,"Ġsens":2428,"Ġlater":2429,"ĠAfter":2430,"OR":2431,"inking":2432,"Ġlay":2433,"Ġsmo":2434,"Ġaccept":2435,"ancing":2436,"Ġseen":2437,"ask":2438,"Ġmodel":2439,"ĠMin":2440,"ĠChe":2441,"Ġdeliver":2442,"new":2443,"Ġfamil":2444,"Ġtour":2445,"itor":2446,"ĠSome":2447,"Ġstreng":2448,"ned":2449,"Ġtraditional":2450,"Ġfavor":2451,"Ġthird":2452,"Ġwhole":2453,"Ġmultiple":2454,"ended":2455,"Ġbelieve":2456,"put":2457,"aving":2458,"Ġusually":2459,"Ġdecision":2460,"Ġinteract":2461,"oved":2462,"astic":2463,"Ġproduction":2464,"30":2465,"hing":2466,"Ġsolution":2467,"Ġlevels":2468,"Ġtell":2469,"Ġeasily":2470,"Ġfoot":2471,"ĠMay":2472,"Ġlif":2473,"icro":2474,"Ġcapt":2475,"Ġarticle":2476,"Ġdog":2477,"gest":2478,"Ġparent":2479,"Ġpers":2480,"...":2481,"Ġapply":2482,"Ġste":2483,"Ġsecure":2484,"Ġinsurance":2485,"Ġattention":2486,"istic":2487,"Ġsect":2488,"ĠFrom":2489,"iet":2490,"Ġcame":2491,"Ġoffice":2492,"Ġwatch":2493,"Ġspend":2494,"Ġcomput":2495,"Ġcause":2496,"Ġquestion":2497,"Ġagree":2498,"Ġfall":2499,"augh":2500,"ster":2501,"Ġadvant":2502,"Ġaim":2503,"ĠFe":2504,"Ġdeb":2505,"Ġhowever":2506,"Ġcharacter":2507,"reme":2508,"book":2509,"Ġinflu":2510,"Ġfast":2511,"wh":2512,"co":2513,"Ġcolor":2514,"Ġneg":2515,"iday":2516,"Ġmag":2517,"Ġforward":2518,"Ġpercent":2519,"atives":2520,"Ġ0":2521,"Ġreduce":2522,"Ġpractice":2523,"isions":2524,"ĠÂ":2525,"Ġstat":2526,"ball":2527,"izes":2528,"ivery":2529,"Ġcele":2530,"ĠCons":2531,"Ġlatest":2532,"Ġencoura":2533,"ox":2534,"Ġlonger":2535,"istration":2536,"Ġnear":2537,"Ġpolit":2538,"ĠPre":2539,"ĠPart":2540,"Ġsense":2541,"alu":2542,"ĠEm":2543,"Ġtook":2544,"Ġinvestment":2545,"Ġmatter":2546,"ĠAg":2547,"Ġmiss":2548,"Ġdate":2549,"wor":2550,"ring":2551,"emic":2552,"Ġweight":2553,"Ġprofession":2554,"ysis":2555,"Ġissue":2556,"Ġpositive":2557,"Ġfresh":2558,"Ġseries":2559,"head":2560,"ression":2561,"Ġinside":2562,"Ġofficial":2563,"Ġred":2564,"Ġrespect":2565,"oogle":2566,"Ġimplement":2567,"Ġlo":2568,"att":2569,"Ġaccording":2570,"oud":2571,"ipping":2572,"Ġcollabor":2573,"Ġplaying":2574,"Ġtransform":2575,"Ġprob":2576,"Ġfail":2577,"Ġminutes":2578,"Ġvia":2579,"Ġblack":2580,"ĠHealth":2581,"Ġsubject":2582,"Ġtouch":2583,"uff":2584,"Ġcell":2585,"Ġnetwork":2586,"ried":2587,"erous":2588,"Ġ[":2589,"Ġinternational":2590,"vant":2591,"ops":2592,"ively":2593,"Ġbud":2594,"Ġtakes":2595,"hold":2596,"Ġtable":2597,"reet":2598,"Ġinj":2599,"Ġidea":2600,"itable":2601,"Ġinsp":2602,"Ġphone":2603,"Ġpolicy":2604,"Ġabs":2605,"Ġcreated":2606,"Ġanaly":2607,"ED":2608,"Ġlink":2609,"Ġcirc":2610,"iring":2611,"Ġpayment":2612,"nces":2613,"ĠState":2614,"rehens":2615,"ĠWhether":2616,"iency":2617,"Ġpurchase":2618,"gra":2619,"Ġobject":2620,"AS":2621,"Ġprograms":2622,"Ġworth":2623,"Ġsports":2624,"Ġhair":2625,"inks":2626,"Ġphysical":2627,"Ġtalk":2628,"ID":2629,"Ġlangu":2630,"On":2631,"ĠQu":2632,"Ġcareer":2633,"eds":2634,"elt":2635,"inos":2636,"Ġgoals":2637,"Ġsex":2638,"Ġefficient":2639,"Ġprevious":2640,"ming":2641,"ĠAf":2642,"ened":2643,"Ġ.":2644,"Ġcases":2645,"lege":2646,"Ġdownload":2647,"care":2648,"Ġgain":2649,"Ġcontain":2650,"Ġresid":2651,"irit":2652,"Ġrecent":2653,"sc":2654,"Ġdest":2655,"Ġconsist":2656,"Ġet":2657,"urch":2658,"Ġsimilar":2659,"Ġprivate":2660,"Ġlives":2661,"verage":2662,"icles":2663,"Ġfront":2664,"Ġmatch":2665,"IT":2666,"itch":2667,".,":2668,"Ġattract":2669,"Ġcannot":2670,"ĠGl":2671,"aign":2672,"Ġisn":2673,"Ġdom":2674,"Ġeither":2675,"Ġtrack":2676,"Ġgen":2677,"anks":2678,"enn":2679,"Ġfeature":2680,"Ġtaken":2681,"pose":2682,"Ġwond":2683,"ĠMe":2684,"oon":2685,"Ġground":2686,"orpor":2687,"Ġrout":2688,"Ġrev":2689,"ĠCal":2690,"Ġcry":2691,"Ġ24":2692,"Ġdepos":2693,"Ġparty":2694,"Ġstrategy":2695,"ĠPres":2696,"Ġprim":2697,"Ġstress":2698,"Ġsites":2699,"Ġlower":2700,"ĠPer":2701,"Ġsho":2702,"ĠNational":2703,"Ġ11":2704,"iol":2705,"aur":2706,"Ġconsult":2707,"Ġimmed":2708,"Ġemployees":2709,"Ġrate":2710,"illing":2711,"arl":2712,"cast":2713,"IS":2714,"ĠNot":2715,"overed":2716,"Ġbehind":2717,"ological":2718,"Ġgambling":2719,"Ġinternet":2720,"âĢĵ":2721,"Ġhope":2722,"rown":2723,"He":2724,"het":2725,"ublic":2726,"rated":2727,"Ġguide":2728,"Ġdaily":2729,"Ġsun":2730,"umb":2731,"arant":2732,"ĠAct":2733,"Ġdamage":2734,"Ġemot":2735,"Ġequipment":2736,"aches":2737,"Ġexperiences":2738,"Ġconvers":2739,"iverse":2740,"Ġsoon":2741,"rew":2742,"Ġprec":2743,"Ġlic":2744,"Ġaspect":2745,"ĠCO":2746,"Ġroad":2747,"Ġnature":2748,"Ġsend":2749,"One":2750,"ĠSouth":2751,"Ġstra":2752,"ĠUK":2753,"Ġcoun":2754,"EN":2755,"Ġtowards":2756,"oph":2757,"Ġfire":2758,"ison":2759,"Ġsent":2760,"Ġlocation":2761,"aced":2762,"Ġmoment":2763,"uge":2764,"ume":2765,"Ġdirectly":2766,"erve":2767,"Ġgeneral":2768,"Ġdrive":2769,"Ġcountries":2770,"opy":2771,"Ġrights":2772,"etimes":2773,"Ġalmost":2774,"So":2775,"Ġanim":2776,"yond":2777,"airs":2778,"Ġorganiz":2779,"inary":2780,"At":2781,"Ġwel":2782,"Ġpoints":2783,"Ġexcellent":2784,"Ġoutside":2785,"//":2786,"Ġhol":2787,"Ġhighly":2788,"Ġassess":2789,"Ġstrategies":2790,"ĠCity":2791,"wise":2792,"Ġfinal":2793,"Ġpick":2794,"ĠJoh":2795,"ĠAustral":2796,"Ġfactors":2797,"ĠAb":2798,"Ġrelated":2799,"Ġcondition":2800,"era":2801,"Ġanything":2802,"Ġ50":2803,"ole":2804,"rehensive":2805,"Ġexcept":2806,"icate":2807,"rast":2808,"AC":2809,"Ġintrodu":2810,"Ġaccur":2811,"Ġrather":2812,"Ġtrue":2813,"Ġcoming":2814,"Ġpatients":2815,"ĠStates":2816,"Ġidentify":2817,"iation":2818,"Ġdevice":2819,"where":2820,"But":2821,"ana":2822,"ĠHis":2823,"Al":2824,"pri":2825,"sy":2826,"ĠDep":2827,"Ġapplications":2828,"rs":2829,"ĠFin":2830,"avig":2831,"ĠCas":2832,"Ġleave":2833,"ground":2834,"Ġdou":2835,"ĠAcc":2836,"Ġwhite":2837,"Ġrequest":2838,"Ġseem":2839,"Ġhon":2840,"Ġlands":2841,"rec":2842,"Ġfeed":2843,"ties":2844,"Ġsatis":2845,"ober":2846,"rug":2847,"Ġreflect":2848,"Ġ2023":2849,"Ġaware":2850,"ada":2851,"ĠGoogle":2852,"asons":2853,"Ġqual":2854,"Ġbehav":2855,"Ġbuilt":2856,"Ġplanning":2857,"Ġfram":2858,"ples":2859,"ĠWorld":2860,"aching":2861,"Ġmor":2862,"Ġupon":2863,"onst":2864,"IC":2865,"Ad":2866,"Ġorganization":2867,"hib":2868,"Ġmember":2869,"Ġsuccessful":2870,"Ġwent":2871,"Ġsell":2872,"ditionally":2873,"And":2874,"yl":2875,"Ġstream":2876,"Ġplans":2877,"Ġinde":2878,"Ġincreasing":2879,"AL":2880,"Ġple":2881,"Ġsess":2882,"Ġbi":2883,"Ġquite":2884,"Ġtold":2885,"tenance":2886,"Ġthemselves":2887,"Ġcampaign":2888,"://":2889,"Ġ'":2890,"ĠSm":2891,"Ġpan":2892,"Ġthr":2893,"Ġdevices":2894,"Ġmass":2895,"ille":2896,"Ġsche":2897,"Ġfilm":2898,"cking":2899,"ĠBu":2900,"Ġstandard":2901,"Ġsuggest":2902,"Ġshows":2903,"Ġwriting":2904,"Ġhealthy":2905,"cks":2906,"Ġcommer":2907,"ĠAut":2908,"Ġdise":2909,"ĠInt":2910,"Ġdemand":2911,"org":2912,"ung":2913,"ĠPol":2914,"Ġreceived":2915,"Ġtrying":2916,"ĠStud":2917,"Ġearn":2918,"orage":2919,"Ġdelivery":2920,"Ġblood":2921,"Ġtit":2922,"Ġsteps":2923,"Ġgoal":2924,"su":2925,"akes":2926,"ĠCount":2927,"ĠInc":2928,"Ġinvolved":2929,"Ġ14":2930,"Ġexact":2931,"Ġcash":2932,"Ġpo":2933,"ĠPe":2934,"Ġdraw":2935,"ĠRec":2936,"Ġallowing":2937,"Ġpaper":2938,"Ġpict":2939,"Ġblog":2940,"Ġutil":2941,"Ġaltern":2942,",\"":2943,"like":2944,"Ġheav":2945,"ĠSchool":2946,"Ġcand":2947,"Ġnorm":2948,"Ġmanage":2949,"Ġchance":2950,"friend":2951,"Ex":2952,"Ġbase":2953,"Ġill":2954,"Ġcert":2955,"hest":2956,"Ġculture":2957,"Ġmethods":2958,"Ġmaxim":2959,"term":2960,"ications":2961,"Ġprem":2962,"12":2963,"Ġdefin":2964,"Ġones":2965,"Ġadmin":2966,"Ġprotection":2967,"Ġparticularly":2968,"word":2969,"Ġconven":2970,"Ġswe":2971,"Ġhalf":2972,"Ġord":2973,"iques":2974,"Ġsix":2975,"Ġbudget":2976,"arth":2977,"Ġtypically":2978,"Ġoriginal":2979,"ĠNorth":2980,"pre":2981,"pper":2982,"Ġwall":2983,"Ġsubst":2984,"hel":2985,"ĠMore":2986,"Ġadjust":2987,"Ġaudience":2988,"Ġcommunication":2989,"ĠBr":2990,"cape":2991,"Ġbox":2992,"Ġelse":2993,"Ġvac":2994,"Ġpath":2995,"Ġpractices":2996,"ĠHigh":2997,"Ġsubs":2998,"Pro":2999,"Ġrunning":3000,"earch":3001,"oms":3002,"ĠServices":3003,"Ġcollection":3004,"ĠOff":3005,"Ġcelebr":3006,"ades":3007,"Ġsupply":3008,"Ġbenefit":3009,"Ġtotal":3010,"Ġcat":3011,"Ġcritical":3012,"Ġble":3013,"empt":3014,"standing":3015,"Ġprofessionals":3016,"Ġcurrently":3017,"quality":3018,"Ġbed":3019,"hood":3020,"ĠDon":3021,"Ġplant":3022,"Ġgaming":3023,"Ġideal":3024,"ĠTH":3025,"Ġprogress":3026,"Ġanalysis":3027,"ĠIndia":3028,"ceed":3029,"Ġbeyond":3030,"Ġproced":3031,"Ġestablish":3032,"itation":3033,"RE":3034,"Ġlimited":3035,"Ġconduct":3036,"Ġwords":3037,"Ã©":3038,"Ġexerc":3039,"Ġ16":3040,"Ġur":3041,"Ġbank":3042,"ĠAfric":3043,"Ġdy":3044,"tery":3045,"ishing":3046,"Ġdeg":3047,"Ġbroad":3048,"Ġmix":3049,"ided":3050,"Ġeffort":3051,"Ġfully":3052,"Ġhands":3053,"Ġdocument":3054,"Ġeffects":3055,"Ġscreen":3056,"Ġnational":3057,"ĠUs":3058,"Ġideas":3059,"ĠJust":3060,"Ġcode":3061,"ams":3062,"onse":3063,"ha":3064,"ese":3065,"Ġcommercial":3066,"Ġcomprehensive":3067,"Ġfig":3068,"Ġcool":3069,"ĠNet":3070,"cription":3071,"Ġparts":3072,"Ġsave":3073,"Ġlab":3074,"Ġsil":3075,"Ġasked":3076,"ension":3077,"Ġregarding":3078,"ologies":3079,"Ġpowerful":3080,"Ġassociated":3081,"Ġbad":3082,"ĠYork":3083,"Ġanyone":3084,"Ġitself":3085,"Ġgrowing":3086,"Ġclos":3087,"While":3088,"Ġsituation":3089,"Ġclick":3090,"Ġplatforms":3091,"agn":3092,"Ġfrequ":3093,"Ġcourt":3094,"Ġincluded":3095,"Ġflex":3096,"Ġsmart":3097,"Ġult":3098,"Ġexperienced":3099,"uel":3100,"Ġfa":3101,"vest":3102,"Ġvehicle":3103,"idered":3104,"Ġ25":3105,"'ll":3106,"force":3107,"Ġcommitment":3108,"Ġpartner":3109,"Ġbetting":3110,"Ġmeeting":3111,"Ġcasinos":3112,"Ġmachine":3113,"Ġheld":3114,"Ġstop":3115,"Ġversion":3116,"Ġguarant":3117,"overy":3118,"oost":3119,"ĠTw":3120,"Ġweeks":3121,"Ġdep":3122,"Ġplayer":3123,"Ġcook":3124,"Ġnut":3125,"reg":3126,"aly":3127,"Ġwalk":3128,"year":3129,"Ġlanguage":3130,"Ġharm":3131,"my":3132,"Ġarch":3133,"ĠPar":3134,"aries":3135,"Ġetc":3136,"Ġvalu":3137,"Ġexecut":3138,"Ġdisplay":3139,"ĠBo":3140,"Ġclient":3141,"Ġing":3142,"abilities":3143,"Ġviol":3144,"raw":3145,"Ġ/":3146,"Ġwarm":3147,"Ġgiving":3148,"Ġsource":3149,"Ġdur":3150,"Ġgives":3151,"Ġexpress":3152,"Ġrates":3153,"Ġwanted":3154,"Ġsleep":3155,"Ġhappy":3156,"Ġspeak":3157,"pite":3158,"Ġdeath":3159,"oming":3160,"Ġ199":3161,"Ġeconomic":3162,"Ġago":3163,"Ġresponsible":3164,"Ġcompon":3165,"Ġtips":3166,"Ġwood":3167,"Ġ2022":3168,"ales":3169,"Ġgirl":3170,"Ġconstruction":3171,"rapy":3172,"Ġcorrect":3173,"Ġtransport":3174,"Ġrad":3175,"Ġdream":3176,"Ġtast":3177,"Ġopp":3178,"Ġstudent":3179,"Ġdistribut":3180,"Ġtemper":3181,"Ġobtain":3182,"Ġrequires":3183,"Ġexpertise":3184,"rel":3185,"Ġ2020":3186,"Ġspirit":3187,"roup":3188,"Ġextreme":3189,"ĠPlay":3190,"tings":3191,"Ġnote":3192,"Ġnavig":3193,"Ġhtt":3194,"Ġadvanced":3195,"na":3196,"Ġcam":3197,"eter":3198,"Ġver":3199,"Ġactivity":3200,"Ġdry":3201,"ĠBlack":3202,"Ġfavorite":3203,"Ġgroups":3204,"ĠArt":3205,"ek":3206,"Ġboard":3207,"Ġtail":3208,"Ġobs":3209,"Ġpattern":3210,"Ġserious":3211,"nal":3212,"Ġpiece":3213,"ude":3214,"Ġensures":3215,"Ġprobably":3216,"ĠBusiness":3217,"enge":3218,"OS":3219,"'ve":3220,"Ġprefer":3221,"cil":3222,"chan":3223,"ibly":3224,"Ġhelping":3225,"ĠMarket":3226,"Ġhit":3227,"Ġep":3228,"idge":3229,"Ġslot":3230,"ateg":3231,"Ġmeaning":3232,"Ġdedicated":3233,"Ġeasier":3234,"ĠSoc":3235,"Ġfair":3236,"By":3237,"aves":3238,"Ġconsidered":3239,"Ġpressure":3240,"ĠSw":3241,"azing":3242,"ederal":3243,"gram":3244,"oices":3245,"All":3246,"ĠHer":3247,"board":3248,"Ġconcept":3249,"antly":3250,"ĠService":3251,"Ġpurpose":3252,"Ġinstitut":3253,"Ġorganizations":3254,"Ġeye":3255,"lim":3256,"ĠDirect":3257,"Ġefficiency":3258,"Ġoutd":3259,"Ġappropri":3260,"Ġshall":3261,"Ġdecisions":3262,"ashion":3263,"wide":3264,"ky":3265,"ĠEd":3266,"Ġmaintenance":3267,"Ġsepar":3268,"erences":3269,"Ġpred":3270,"Ġowners":3271,"Ġblock":3272,"Ġinvestig":3273,"ĠAre":3274,"Ġround":3275,"Ġincreased":3276,"Ġefforts":3277,"iles":3278,"Ġeffectively":3279,"Ġadvice":3280,"Ġsection":3281,"Ġconnection":3282,"ached":3283,"Ġafford":3284,"Ġcomfortable":3285,"ĠPresident":3286,"Ġkids":3287,"Ġreve":3288,"Ġfirm":3289,"Ġstandards":3290,"Ġwar":3291,"ĠNow":3292,"Ġheat":3293,"Sh":3294,"Ġstru":3295,"Ġdiv":3296,"Ġ13":3297,"Ġworked":3298,"Ġoperations":3299,"Ġprices":3300,"Ġteams":3301,"Ġrecently":3302,"Ġnothing":3303,"Ġsmooth":3304,"Ġremember":3305,"Ġregion":3306,"Ġadapt":3307,"Ġthreat":3308,"11":3309,"ously":3310,"Ġdeposit":3311,"Ġexpand":3312,"iding":3313,"Ġrent":3314,"Ġbur":3315,"vey":3316,"ĠPark":3317,"Ġgreen":3318,"Ġdescrib":3319,"Ġrelease":3320,"Ġsn":3321,"Ġcontinu":3322,"val":3323,"Ġstrength":3324,"Ġstorage":3325,"Ġvirt":3326,"istics":3327,"ĠTechn":3328,"iction":3329,"Ġslow":3330,"arb":3331,"Ġbalance":3332,"ctions":3333,"irth":3334,"Ġspeed":3335,"ĠMost":3336,"Ġhistor":3337,"Ġexpected":3338,"ĠCenter":3339,"Ġparents":3340,"ĠCommun":3341,"ils":3342,"ĠAir":3343,"Ġtechniques":3344,"Ġadvert":3345,"Ġinitial":3346,"Ġfix":3347,"Ġmention":3348,"Ġsetting":3349,"Ġimage":3350,"free":3351,"Ġ2021":3352,"ĠJan":3353,"Ġtransact":3354,"Ġlocated":3355,"ĠAc":3356,"Ġ17":3357,"Ġcompletely":3358,"Ġfloor":3359,"ĠProf":3360,"Ġserve":3361,"Ġinstead":3362,"Ġevalu":3363,"ule":3364,"Ġdeveloped":3365,"ĠKe":3366,"eria":3367,"ĠAmerica":3368,"Ġgoes":3369,"Ġresponse":3370,"ĠUse":3371,"icip":3372,"Ġund":3373,"Ġcouple":3374,"oosing":3375,"Ġwal":3376,"Ġsty":3377,"Ġinsights":3378,"Ġsummer":3379,"Ġstri":3380,"sequ":3381,"ĠRuss":3382,"Ġcomputer":3383,"Ġuses":3384,"Ġacqu":3385,"Ġreading":3386,"ĠLet":3387,"enses":3388,"Ġreliable":3389,"mission":3390,"Ġdiverse":3391,"Ġdrug":3392,"sych":3393,"Ġprocesses":3394,"itary":3395,"Ġexisting":3396,"Ġdiscover":3397,"ĠRed":3398,"Ġelements":3399,"Ġpret":3400,"Ġhuge":3401,"ences":3402,"Ġdifference":3403,"fl":3404,"Ġfamilies":3405,"ĠDay":3406,"Ġdoor":3407,"Ġtown":3408,"Ġcommunities":3409,"Ġfile":3410,"iddle":3411,"Ġmental":3412,"Ġstage":3413,"Ġelectric":3414,"ruit":3415,"Ġstarting":3416,"Ġgold":3417,"Ġfarm":3418,"ĠTrans":3419,"Ġrob":3420,"Ġrepl":3421,"Ġfight":3422,"Ġattend":3423,"aling":3424,"Ġemp":3425,"Ġchat":3426,"Ġrespond":3427,"Ġcarry":3428,"ĠMon":3429,"ĠGe":3430,"Ġtransfer":3431,"Ġpolitical":3432,"enty":3433,"Ġdoct":3434,"ipped":3435,"Ġpeace":3436,"15":3437,"Ġanswer":3438,"Ġbecame":3439,"Ġexperts":3440,"ari":3441,"Ġrelevant":3442,"asks":3443,"ĠCasino":3444,"uary":3445,"ma":3446,"change":3447,"Ġcleaning":3448,"Ġimportance":3449,"Ġmodels":3450,"ĠGener":3451,"Ġbag":3452,"ĠIns":3453,"Ġled":3454,"hips":3455,"Ġpatient":3456,"Ġvict":3457,"Com":3458,"ĠVal":3459,"âĢĿ.":3460,"Ġsym":3461,"ĠJu":3462,"Ġspot":3463,"OU":3464,"prise":3465,"Ġcenter":3466,"iately":3467,"Ġformer":3468,"Ġactive":3469,"gar":3470,"Ġ40":3471,"ĠChina":3472,"Ġindepend":3473,"ronic":3474,"These":3475,"overs":3476,"mon":3477,"more":3478,"Ġshared":3479,"oke":3480,"ĠEl":3481,"arily":3482,"ipe":3483,"mbol":3484,"Ġwonder":3485,"Ġbegan":3486,"ĠMc":3487,"Ġincome":3488,"Ġsurround":3489,"dom":3490,"Ġgradu":3491,"itchen":3492,"Ġvaluable":3493,"ĠWest":3494,"Ġsus":3495,"Ġbus":3496,"Ġlost":3497,"Ġreplace":3498,"Ġdark":3499,"ĠOct":3500,"Ġcross":3501,"Ġhosp":3502,"Ġstates":3503,"ffee":3504,"ĠSim":3505,"aks":3506,"Ġrich":3507,"Ġpropos":3508,"imin":3509,"ellig":3510,"Ġfra":3511,"Ġrelationships":3512,"Ġsong":3513,"Ġrelax":3514,"Ġgard":3515,"ĠGroup":3516,"Ġboost":3517,"After":3518,"icing":3519,"Ġdemonst":3520,"Ġconc":3521,"Ġexplain":3522,"ĠCour":3523,"aby":3524,"Ġlate":3525,"Ġball":3526,"Ġjud":3527,"Ġpet":3528,"ĠJohn":3529,"Ġcharge":3530,"ĠHouse":3531,"artment":3532,"dule":3533,"Ġseeking":3534,"ĠRem":3535,"EC":3536,"Ġpref":3537,"Ġadvantage":3538,"Ġbra":3539,"Ġvisual":3540,"Ġmoving":3541,"cul":3542,"ĠPlease":3543,"Ġapprec":3544,"itect":3545,"Ġroll":3546,"den":3547,"uth":3548,"ĠWill":3549,"Ġrules":3550,"Ġpaid":3551,"Ġreasons":3552,"raft":3553,"ĠUp":3554,"arter":3555,"Ġstraight":3556,"friendly":3557,"rest":3558,"Ġtim":3559,"ancy":3560,"Ġsaw":3561,"ĠAssoci":3562,"ighb":3563,"Ġoffered":3564,"formation":3565,"Ġsqu":3566,"ĠDesign":3567,"ares":3568,"Ġingred":3569,"right":3570,"Ġestate":3571,"ĠInternational":3572,"Ġten":3573,"Ġattempt":3574,"Ġnumerous":3575,"Ġprin":3576,"Ġpen":3577,"ĠMany":3578,"ĠLaw":3579,"Ġcapital":3580,"ĠTV":3581,"itely":3582,"Ġplaces":3583,"Ġtruly":3584,"overn":3585,"Ġbeauty":3586,"Ġpassion":3587,"Ġadvance":3588,"Ġstories":3589,"istry":3590,"AM":3591,"Ġx":3592,"Ġimages":3593,"Ġselection":3594,"Ġwear":3595,"Ġsuff":3596,"ovember":3597,"Ġiniti":3598,"Ġdepart":3599,"Ġsignificantly":3600,"Ġappeal":3601,"ham":3602,"ĠDevelop":3603,"ĠCustom":3604,"Ġwritten":3605,"Ġhealthcare":3606,"Ġfeeling":3607,"acity":3608,"Ġinterested":3609,"Ġimmediately":3610,"Ġadvent":3611,"Ġhor":3612,"ica":3613,"Ġaverage":3614,"Ġhous":3615,"off":3616,"ĠDis":3617,"Ġsometimes":3618,"Ġthinking":3619,"Ġentertain":3620,"rought":3621,"zy":3622,"Ġeyes":3623,"Ġmessage":3624,"Ġhandle":3625,"Ġtur":3626,"ĠOf":3627,"Ġcrypt":3628,"ups":3629,"Ġlooks":3630,"ĠMus":3631,"Ġinnovative":3632,"Ġexclus":3633,"Ġadult":3634,"lying":3635,"Ġcards":3636,"Ġappropriate":3637,"ded":3638,"Ġcateg":3639,"Ġmother":3640,"Ġconcerns":3641,"Ġmis":3642,"ecause":3643,"Ġtechnical":3644,"Ġalign":3645,"ĠCle":3646,"'m":3647,"Ġreput":3648,"set":3649,"ĠCoun":3650,"Ġfab":3651,"Ġfunds":3652,"oyal":3653,"Ġteac":3654,"âĢ¢":3655,"Ġoccur":3656,"Ġtrade":3657,"Ġcreative":3658,"60":3659,"ĠCounty":3660,"hern":3661,"ĠFree":3662,"encies":3663,"ext":3664,"Ġbott":3665,"Ġclin":3666,"Ġsymbol":3667,"Ġcorpor":3668,"ĠOnline":3669,"Ġseems":3670,"haps":3671,"Ġstrugg":3672,"Ġwebsites":3673,"Ġload":3674,"ĠFace":3675,"OT":3676,"arc":3677,"Ġamazing":3678,"Ġlimit":3679,"Ġadop":3680,"Ġinterview":3681,"Ġprinc":3682,"Ġchallenge":3683,"Ġdiet":3684,"Ġvision":3685,"Ġbrow":3686,"ET":3687,"Ġgreater":3688,"ĠEuropean":3689,"duc":3690,"ocol":3691,"Ġreported":3692,"ĠPa":3693,"iber":3694,"ounced":3695,"Ġremains":3696,"Cl":3697,"ara":3698,"Ġmechan":3699,"ĠMr":3700,"Ġtesting":3701,"iability":3702,"Ġsector":3703,"etic":3704,"ength":3705,"Ġnation":3706,"ĠEvery":3707,"Ġbreat":3708,"Ġstock":3709,"vis":3710,"Ġrestaur":3711,"apan":3712,"Ġbooks":3713,"Ġmount":3714,"Ġlux":3715,"Ġnotice":3716,"Ġahead":3717,"ĠExper":3718,"Ġbasic":3719,"Ġdriving":3720,"Ġsustainable":3721,"25":3722,"Ġdisease":3723,"Ġdynam":3724,"Ġapart":3725,"Ġstructure":3726,"house":3727,"Ġmanufacture":3728,"ĠGerm":3729,"nes":3730,"Ġtraffic":3731,"efore":3732,"ĠBet":3733,"Ġreviews":3734,"ĠMarch":3735,"anging":3736,"Ph":3737,"ĠOut":3738,"Is":3739,"Ġwoman":3740,"Ġenvironmental":3741,"itute":3742,"Ġcopy":3743,"Ġfat":3744,"Ġtele":3745,"Ġchann":3746,"Ġaccom":3747,"Ġpros":3748,"Ġinstruct":3749,"ocks":3750,"Ġstatement":3751,"Ġdetermine":3752,"Ġwild":3753,"ĠBrit":3754,"coming":3755,"venue":3756,"Ġproduce":3757,"gu":3758,"ellow":3759,"Ġfans":3760,"Ġrisks":3761,"Ġ2019":3762,"ĠDepartment":3763,"Ġgas":3764,"ĠOnce":3765,"ĠAdditionally":3766,"rial":3767,"ĠAv":3768,"ĠSept":3769,"Ġpretty":3770,"Ġshipping":3771,"Ġexactly":3772,"ĠProgram":3773,"down":3774,"Ġevidence":3775,"Ġhomes":3776,"Ġcandid":3777,"odes":3778,"amless":3779,"Ġsurface":3780,"ĠFirst":3781,"ament":3782,"ĠSystem":3783,"ray":3784,"Ġspread":3785,"Ġhighest":3786,"Ġword":3787,"Ġoccas":3788,"Ġtechnologies":3789,"Ġneighb":3790,"ĠDel":3791,"Ġglass":3792,"going":3793,"rupt":3794,"ipp":3795,"Ġmark":3796,"Why":3797,"ipl":3798,"oul":3799,"Ġinnovation":3800,"ague":3801,"Ġexciting":3802,"name":3803,"ĠGet":3804,"Ġrepair":3805,"used":3806,"Do":3807,"Ġappl":3808,"US":3809,"iforn":3810,"Ġprimary":3811,"lig":3812,"pril":3813,"Ġincred":3814,"ĠThen":3815,"iar":3816,"Ġsold":3817,"Ġmeasures":3818,"Ġpresence":3819,"ĠEach":3820,"Ġmeasure":3821,"oe":3822,"des":3823,"Ġfelt":3824,"anking":3825,"ĠEnglish":3826,"Ġpublished":3827,"Ġremov":3828,"ĠSl":3829,"ffect":3830,"cel":3831,"Ġadding":3832,"Ġcultural":3833,"undred":3834,"Ġworkers":3835,"Ġgift":3836,"Ġwrong":3837,"Ġlarger":3838,"ses":3839,"ĠNovember":3840,"ĠTheir":3841,"wood":3842,"ING":3843,"ube":3844,"ĠKing":3845,"ĠPay":3846,"Ġweather":3847,"Ġfashion":3848,"Ġthous":3849,"oday":3850,"ashing":3851,"asc":3852,"ĠBro":3853,"asts":3854,"ĠCanada":3855,"mas":3856,"ography":3857,"Ġ#":3858,"ban":3859,"Ġparties":3860,"ifying":3861,"ĠCompany":3862,"Ġchem":3863,"Ġaward":3864,"Ġdead":3865,"Ġter":3866,"Ġcontinues":3867,"ought":3868,"Ġincorpor":3869,"Ġmorning":3870,"Ġvalues":3871,"zz":3872,"Ġdeveloping":3873,"ĠAug":3874,"ĠOver":3875,"Ġhappen":3876,"umm":3877,"Ġcompared":3878,"ores":3879,"Ġwish":3880,"ivil":3881,"aint":3882,"ĠJune":3883,"Ġkeeping":3884,"che":3885,"ĠAustralia":3886,"rael":3887,"Ġstruct":3888,"Ġassistance":3889,"ifornia":3890,"Ġclimate":3891,"cember":3892,"Here":3893,"Ġbelie":3894,"ĠManagement":3895,"bon":3896,"nect":3897,"Ġinformed":3898,"Ġcertainly":3899,"enior":3900,"ressive":3901,"icon":3902,"IP":3903,"Ġsubmit":3904,"Ġfinding":3905,"Ġtick":3906,"AP":3907,"olute":3908,"anch":3909,"Ġfine":3910,"Ġachie":3911,"Ġretail":3912,"Ġprovider":3913,"icks":3914,"Ġhttps":3915,"Ġlandscape":3916,"Ġslots":3917,"Ġinteresting":3918,"bit":3919,"Ġhear":3920,"Ġloved":3921,"Ġtrip":3922,"Ġsuppl":3923,"Ġplayed":3924,"porary":3925,"Ġproperties":3926,"Ġwed":3927,"Ġitem":3928,"order":3929,"Ġkitchen":3930,"ĠBar":3931,"Ġmovement":3932,"pen":3933,"ondon":3934,"omen":3935,"usion":3936,"Ġotherwise":3937,"Your":3938,"urt":3939,"Ġimag":3940,"aker":3941,"acing":3942,"Ġseamless":3943,"Ġestablished":3944,"Ġbackground":3945,"ĠHome":3946,"phas":3947,"rig":3948,"Ġreports":3949,"ĠMod":3950,"ĠSat":3951,"Ġfurn":3952,"Ġvary":3953,"iance":3954,"being":3955,"atively":3956,"VID":3957,"iant":3958,"Ġdecided":3959,"Ġdefinitely":3960,"Ġnumbers":3961,"ĠÂ£":3962,"ĠBest":3963,"Un":3964,"ĠJapan":3965,"arlier":3966,"ira":3967,"atically":3968,"inct":3969,"Ġroof":3970,"Ġgets":3971,"Ġmission":3972,"Ġmid":3973,"Ġtasks":3974,"Ġcompetitive":3975,"Ġtrial":3976,"amm":3977,"Ġremove":3978,"amed":3979,"Ġpool":3980,"Ġclub":3981,"Ġextensive":3982,"Ġmer":3983,"pective":3984,"key":3985,"Ġbrought":3986,"Ġlines":3987,"Ġbillion":3988,"Ġbasis":3989,"Ġmarkets":3990,"Ġacad":3991,"ĠDav":3992,"ĠData":3993,"ĠEven":3994,"ris":3995,"hus":3996,"Ġmaster":3997,"unning":3998,"ĠIT":3999,"Ġloan":4000,"liance":4001,"ama":4002,"Ġcommitted":4003,"ĠOctober":4004,"Ġaspects":4005,"Ġscient":4006,"Ġhighlight":4007,"olf":4008,"18":4009,"Ġpolicies":4010,"ĠAN":4011,"Ġschools":4012,"race":4013,"Ġfees":4014,"eries":4015,"icious":4016,"Ġstatus":4017,"Ġemerg":4018,"Ġseek":4019,"24":4020,"ĠPat":4021,"orough":4022,"Ġstudies":4023,"Ġlack":4024,"Ġdegree":4025,"Ġlaws":4026,"Ġbeginning":4027,"Ġdepending":4028,"tee":4029,"ION":4030,"ĠGo":4031,"Ġbehavior":4032,"Ġaw":4033,"Ġproviders":4034,"ĠSan":4035,"Ġimpl":4036,"hent":4037,"Ġgenerally":4038,"ĠSte":4039,"Ġuseful":4040,"Ġsources":4041,"ĠCare":4042,"Ġbirth":4043,"Ġdesigns":4044,"Ġleadership":4045,"Ġpolice":4046,"Ġerr":4047,"Ġsale":4048,"rastructure":4049,"Ġinstallation":4050,"ĠGovern":4051,"ocal":4052,"Ġwait":4053,"Ġcoffee":4054,"Re":4055,"Ġhundred":4056,"Ġvital":4057,"Ġcolors":4058,"ĠCalifornia":4059,"itors":4060,"ĠJuly":4061,"Ġactions":4062,"My":4063,"Ġ21":4064,"Ġwrite":4065,"Ġshape":4066,"Ġnice":4067,"iling":4068,"Ġcapacity":4069,"ute":4070,"ĠFacebook":4071,"ĠApril":4072,"MS":4073,"Ġ2018":4074,"Ġpromote":4075,"ĠIndian":4076,"iveness":4077,"Ġprocessing":4078,"Ġbath":4079,"ĠMake":4080,"Ġsaying":4081,"Ġexercise":4082,"Ġ,":4083,"issions":4084,"ĠTrump":4085,"Ġpieces":4086,"osure":4087,"Ġvibr":4088,"Ġreleased":4089,"Ġsolid":4090,"Ġscience":4091,"unt":4092,"Ġrap":4093,"ersonal":4094,"Ġapps":4095,"No":4096,"Ġintegr":4097,"ptoms":4098,"nown":4099,"Ġresist":4100,"iam":4101,"Ġdecor":4102,"ĠUnder":4103,"Ġpsych":4104,"Ġphotos":4105,"Ġwelcome":4106,"Ġpractical":4107,"ĠWind":4108,"Ġregulations":4109,"Ġschedule":4110,"Ġclassic":4111,"Ġfost":4112,"Ġdress":4113,"Ġtend":4114,"ĠSeptember":4115,"fit":4116,"Ġingredients":4117,".)":4118,"Ġscen":4119,"iment":4120,"Ġextremely":4121,"Ġalone":4122,"Ġeth":4123,"ĠRead":4124,"amin":4125,"icy":4126,"Ġplus":4127,"Ġsociety":4128,"ios":4129,"Ġpages":4130,"ender":4131,"Ġsuitable":4132,"Ġtrends":4133,"ĠIN":4134,"ĠDecember":4135,"Ġannounced":4136,"Ġfabric":4137,"Ġbrands":4138,"ĠWar":4139,"Ġpow":4140,"ĠGr":4141,"ĠLear":4142,"ĠPlan":4143,"osing":4144,"ĠSk":4145,"othing":4146,"oom":4147,"Ġvoice":4148,"itiz":4149,"EL":4150,"Ġbecomes":4151,"ĠLondon":4152,"Ġblend":4153,"eed":4154,"draw":4155,"Ġallowed":4156,"Ġengagement":4157,"Ġnormal":4158,"ĠJanuary":4159,"elines":4160,"Ġplants":4161,"uk":4162,"bur":4163,"Ġmaintaining":4164,"Ġreality":4165,"ibilities":4166,"Ġwaste":4167,"Ġchoices":4168,"Ġ:":4169,"14":4170,"Ġdang":4171,"Ġlargest":4172,"ero":4173,"ĠIsrael":4174,"ĠAng":4175,"Ġdetailed":4176,"uries":4177,"Ġinvolves":4178,"ommod":4179,"ĠCor":4180,"They":4181,"Ġcombination":4182,"ifications":4183,"Ġconfidence":4184,"ĠAP":4185,"ĠSEO":4186,"husi":4187,"atures":4188,"Ġemphas":4189,"Ġoutdoor":4190,"ĠIts":4191,"Ġbecoming":4192,"Ġmicro":4193,"Ġrefer":4194,"ĠAlso":4195,"example":4196,"ĠWork":4197,"Ġforms":4198,"rench":4199,"Ġalternative":4200,"Ġdocuments":4201,"Ġfear":4202,"Ġmilitary":4203,"ĠVis":4204,"Ġenthusi":4205,"Ġvideos":4206,"Ġmyself":4207,"works":4208,"Pl":4209,"Ġarchitect":4210,"80":4211,"Ġsav":4212,"esus":4213,"Ġfeet":4214,"bl":4215,"ĠLa":4216,"fficient":4217,"Ġstrategic":4218,"Ġemer":4219,"Ġcompleted":4220,"Ġcoverage":4221,"RO":4222,"ilit":4223,"ĠEduc":4224,"That":4225,"Ġfocused":4226,"Ġfinish":4227,"Ġengage":4228,"ĠPal":4229,"Ġir":4230,"reed":4231,"Ġcore":4232,"unction":4233,"iture":4234,"Ġforce":4235,"irus":4236,"itude":4237,"itter":4238,"Ġhour":4239,"Ġpok":4240,"Ġlaunch":4241,"icine":4242,"Ġcold":4243,"azon":4244,"Ġspent":4245,"ĠWell":4246,"Ġfem":4247,"Ġcomponents":4248,"ĠBra":4249,"vere":4250,"poses":4251,"ault":4252,"ĠPort":4253,"isation":4254,"sec":4255,"oly":4256,"roid":4257,"Ġdoll":4258,"Ġinfluence":4259,"Ġreducing":4260,"Ġtalent":4261,"ĠProfess":4262,"Ġeconomy":4263,"Ġtask":4264,"16":4265,"PS":4266,"Ġreact":4267,"Ġshowc":4268,"ĠResearch":4269,"Ġaren":4270,"ĠCourt":4271,"Ġdating":4272,"Ġguidance":4273,"ida":4274,"Ġsort":4275,"Ġhelped":4276,"Ġshop":4277,"Ġbrain":4278,"Ġattack":4279,"ester":4280,"aj":4281,"bu":4282,"itoring":4283,"Ġkn":4284,"agram":4285,"Ġbutton":4286,"Ġwants":4287,"Ġencourage":4288,"band":4289,"iced":4290,"eless":4291,"ĠDem":4292,"Ġvot":4293,"Ġupdates":4294,"aled":4295,"Ġheard":4296,"Ġcovered":4297,"Ġ60":4298,"river":4299,"Ġvirtual":4300,"IL":4301,"Ġge":4302,"However":4303,"Ġindic":4304,"hetic":4305,"ny":4306,"body":4307,"Ġemotional":4308,"Ġnearly":4309,"Ġintellig":4310,"rency":4311,"Ġfeedback":4312,"iny":4313,"erved":4314,"asure":4315,"ervation":4316,"ĠAugust":4317,"Ġtherefore":4318,"Ġbrings":4319,"AD":4320,"mar":4321,"ternal":4322,"Ġsettings":4323,"Ġrace":4324,"Ġbaby":4325,"Ġsharing":4326,"ĠSur":4327,"Ġod":4328,"ĠInter":4329,"Ġrecommended":4330,"last":4331,"Ġevol":4332,"ĠOther":4333,"Ġaccessible":4334,"gen":4335,"ying":4336,"Ġec":4337,"alt":4338,"Ġgraph":4339,"Ġlength":4340,"Ġclaims":4341,"Ġcancer":4342,"Ġsurv":4343,"Ġalle":4344,"isl":4345,"Ġleader":4346,"Ġpurposes":4347,"ĠGold":4348,"fol":4349,"ĠCouncil":4350,"Ġassets":4351,"Ġsigns":4352,"Ġtemperature":4353,"dy":4354,"Ġhab":4355,"Ġconsumers":4356,"Ġchallenging":4357,"icking":4358,"Ġdro":4359,"ĠEv":4360,"Ġcontinued":4361,"ĠNews":4362,"Ġshown":4363,"Ġsymptoms":4364,"Ġchoosing":4365,"istr":4366,"Ġcontribute":4367,"Ġpush":4368,"Ġfederal":4369,"Ġtrading":4370,"Ġfacilities":4371,"Ġfant":4372,"Ġearlier":4373,"Ġheavy":4374,"arge":4375,"Ġwasn":4376,"Ġ22":4377,"Ġremind":4378,"rim":4379,"estyle":4380,"Ġannual":4381,"ĠMich":4382,"ĠChristmas":4383,"roud":4384,"Ġvisitors":4385,"Ġcompetition":4386,"ails":4387,"Ġsweet":4388,"Ġflu":4389,"Ġturned":4390,"ĠTy":4391,"ĠFriday":4392,"Please":4393,"Ġorigin":4394,"Ġfather":4395,"orrow":4396,"istered":4397,"rief":4398,"Ġslight":4399,"ĠSpe":4400,"ĠDirector":4401,"13":4402,"ĠHar":4403,"Ġexhib":4404,"Ġinfrastructure":4405,"Ġgave":4406,"Ġeat":4407,"iences":4408,"Now":4409,"Ġsession":4410,"ĠJesus":4411,"Ġtrou":4412,"ĠFound":4413,"ocr":4414,"ĠAny":4415,"Ġband":4416,"Ġwinning":4417,"Ġhimself":4418,"Ġcomment":4419,"phone":4420,"Ġviews":4421,"Ġcollaboration":4422,"ĠSaf":4423,"Ġinspect":4424,"estern":4425,"Ġmale":4426,"Ġresidents":4427,"Ġaccommod":4428,"lin":4429,"Ġprepared":4430,"ibrary":4431,"Ġcloud":4432,"Ġinstance":4433,"Ġagreement":4434,"Ġ2017":4435,"atever":4436,"Ġopin":4437,"Ġtaste":4438,"mat":4439,"oration":4440,"outs":4441,"Ġproperly":4442,"Ġtherapy":4443,"ront":4444,"Ġtrain":4445,"Ġprincip":4446,"ĠFeb":4447,"Ġjobs":4448,"Ġcaused":4449,"ums":4450,"Ġliter":4451,"Ġowner":4452,"Ġsimpl":4453,"40":4454,"Ġfiles":4455,"ran":4456,"ðŁ":4457,"ĠTHE":4458,"ĠHol":4459,"Ġextend":4460,"tra":4461,"Ġdiagn":4462,"Ġcollege":4463,"Ġengaging":4464,"17":4465,"Ġrapid":4466,"Ġaf":4467,"oist":4468,"Ġexchange":4469,"sp":4470,"Ġactual":4471,"inner":4472,"Ġrelig":4473,"dr":4474,"inese":4475,"lines":4476,"Ġfill":4477,"Ġchanging":4478,"asy":4479,"andemic":4480,"mm":4481,"Ġcentral":4482,"Ġappearance":4483,"Ġversat":4484,"Ġparticipants":4485,"ĠGreen":4486,"ĠCollege":4487,"Ġlinks":4488,"life":4489,"ĠEast":4490,"Ġ+":4491,"ĠCOVID":4492,"Ġguests":4493,"comes":4494,"Ġagency":4495,"ounce":4496,"Ġabsolute":4497,"Ġbonuses":4498,"ĠSub":4499,"chol":4500,"Ġinterests":4501,"Ġguarantee":4502,"Ġcompliance":4503,"Ġchanged":4504,"Ġcircum":4505,"Ġauthent":4506,"Ġfunding":4507,"vision":4508,"ĠDist":4509,"Ġincl":4510,"Ġleads":4511,"Ġshopping":4512,"Ġprivacy":4513,"Ġresponsibility":4514,"EM":4515,"Ġinjury":4516,"Ġwithdraw":4517,"Ġconnected":4518,"Ġcris":4519,"Ġvehicles":4520,"Ġspecifically":4521,"ĠMicro":4522,"Ġoperating":4523,"Ġremote":4524,"Get":4525,"ĠPhil":4526,"imately":4527,"Ġpossess":4528,"Ġprompt":4529,"que":4530,"âĤ":4531,"itness":4532,"ĠCheck":4533,"âĢĿ,":4534,"Ġanti":4535,"Ġpremium":4536,"Ġtrad":4537,"Ġsupporting":4538,"Ġcapabilities":4539,"Ġsatisf":4540,"Some":4541,"ĠAfrica":4542,"Ġgather":4543,"Ġwat":4544,"Ġfaith":4545,"Ġspaces":4546,"Ġ2016":4547,"Ġwindow":4548,"CC":4549,"Ġshap":4550,"ĠBoard":4551,"ĠSuper":4552,"Ġaccounts":4553,"box":4554,"Ġvalid":4555,"Ġknew":4556,"Ġidentity":4557,"ech":4558,"Ġaccurate":4559,"Ġbul":4560,"Ġmovie":4561,"Ġdat":4562,"Ġorders":4563,"ald":4564,"Ġblue":4565,"Ġfulf":4566,"ĠWeb":4567,"tion":4568,"Ġpreferences":4569,"ST":4570,"Ġpicture":4571,"Ġemployee":4572,"Ġfee":4573,"Ġplaced":4574,"flow":4575,"faction":4576,"amb":4577,"rical":4578,"Ġmanaging":4579,"ĠInformation":4580,"Ġplenty":4581,"Con":4582,"ĠSund":4583,"Ġgrant":4584,"ev":4585,"ĠRel":4586,"agers":4587,"Ġfuel":4588,"cious":4589,"Ġwedding":4590,"Ġinvestors":4591,"Ġcounter":4592,"Ġtitle":4593,"Ġworry":4594,"Ġsmaller":4595,"Ġmanufacturing":4596,"tics":4597,"Ġunit":4598,"Ġconvenient":4599,"Ġmachines":4600,"Ġcraft":4601,"ishes":4602,"99":4603,"Ġgarden":4604,"ooper":4605,"Ġaffordable":4606,"icial":4607,"unk":4608,"ugh":4609,"gn":4610,"Ġenable":4611,"Ġbiggest":4612,"pan":4613,"Ġhop":4614,"Ġprint":4615,"arrant":4616,"ĠAssociation":4617,"Ġgar":4618,"Ġtransl":4619,"ville":4620,"Ġgrand":4621,"ĠApple":4622,"gment":4623,"Ġtailored":4624,"Ġaccident":4625,"Ġsexual":4626,"Ġcutting":4627,"Ġmist":4628,"ĠMet":4629,"gery":4630,"Ġmaximum":4631,"ĠTex":4632,"cript":4633,"Ġappoint":4634,"Ġpayments":4635,"Ġbuying":4636,"Ġtalking":4637,"ĠRet":4638,"Ġproud":4639,"Ġfinally":4640,"Ġtransp":4641,"Ġdirector":4642,"Ġopening":4643,"ulate":4644,"Ġrise":4645,"Ġsched":4646,"Ġongoing":4647,"ĠDevelopment":4648,"estic":4649,"Â®":4650,"Ġregularly":4651,"Ġdouble":4652,"Ġtoward":4653,"Ġpoor":4654,"ĠBel":4655,"Ġhar":4656,"Ġserved":4657,"Ġdoctor":4658,"ĠPost":4659,"Ġelev":4660,"Ġden":4661,"Ġrecovery":4662,"Ġcompl":4663,"ula":4664,"ser":4665,"Ġanx":4666,"www":4667,"Acc":4668,"Ġwhose":4669,"Ġcourses":4670,"ounds":4671,"ĠWater":4672,"ĠPower":4673,"Ġimproving":4674,"irection":4675,"clusion":4676,"ĠSet":4677,"Ġconsumer":4678,"Ġpatterns":4679,"Ġvill":4680,"Ġdecide":4681,"?âĢĿ":4682,"Ġprofile":4683,"Ġlots":4684,"Ġgoods":4685,"Ġmetal":4686,"!!":4687,"Ġfan":4688,"emy":4689,"Ġroutine":4690,"ĠSecurity":4691,"Ġeducational":4692,"unte":4693,"Ġcarefully":4694,"Ġfav":4695,"Ġsport":4696,"ruary":4697,"Ġvibrant":4698,"Ġcalls":4699,"Ġwinter":4700,"Ġquant":4701,"yer":4702,"ilding":4703,"ĠGreat":4704,"Ġassign":4705,"lands":4706,"Ġperhaps":4707,"Ġupdate":4708,"ĠSocial":4709,"Ġupgra":4710,"Ġenab":4711,"known":4712,"Ġpersonalized":4713,"100":4714,"Ġbottom":4715,"Ġovers":4716,"Ġthanks":4717,"ĠOffice":4718,"ford":4719,"Ġgeneration":4720,"aughter":4721,"acking":4722,"Ġminimum":4723,"Ġboy":4724,"Ġexceptional":4725,"Ġchemical":4726,"Ġimproved":4727,"ĠWhite":4728,"App":4729,"orge":4730,"Ġmentioned":4731,"Ġlose":4732,"Ġnavigate":4733,"Ġrecords":4734,"Ġmotor":4735,"Ġson":4736,"Ġcontroll":4737,"Ġalthough":4738,"Ab":4739,"Ġthorough":4740,"Ġseeing":4741,"Im":4742,"22":4743,"Ġsuit":4744,"Ġpackage":4745,"Ġlocations":4746,"prene":4747,"Ġfunctions":4748,"Ġanc":4749,"Ġindependent":4750,"Ġoperation":4751,"Ġattor":4752,"Ġscale":4753,"ĠHy":4754,"Ġspending":4755,"Ġdecl":4756,"Ġadvertising":4757,"Ġbattery":4758,"Ġstands":4759,"Ġfriendly":4760,"Ġforeign":4761,"Ġfigure":4762,"Ġweeke":4763,"Ġtruth":4764,"Ġpopulation":4765,"Ġdrop":4766,"Ġsets":4767,"ĠProt":4768,"Ġolder":4769,"Ġconsidering":4770,"ĠBank":4771,"eper":4772,"Ġselling":4773,"Ġdiscount":4774,"ĠAdd":4775,"onday":4776,"ĠChinese":4777,"Ġrestrict":4778,"ĠGam":4779,"ĠProduct":4780,"Ġlooked":4781,"ĠAmazon":4782,"Ġshoot":4783,"igital":4784,"Ġbill":4785,"unately":4786,"reprene":4787,"Ġhelpful":4788,"ĠProv":4789,"Ġthousands":4790,"ĠSince":4791,"Ġleaving":4792,"ĠDisc":4793,"ij":4794,"ĠHel":4795,"Ġdoub":4796,"Ġmotiv":4797,"ifts":4798,"70":4799,"Ġemergency":4800,"Ġpandemic":4801,"Ġhotel":4802,"Ġmulti":4803,"pa":4804,"akers":4805,"Ġpresident":4806,"Ġholiday":4807,"ĠYear":4808,"Ġbeg":4809,"Ġcharacters":4810,"Ġinternal":4811,"Ġrevenue":4812,"Ġcircumst":4813,"merce":4814,"Ġmiddle":4815,"cap":4816,"ĠGeneral":4817,"Ġproduced":4818,"Ġeleg":4819,"Ġteaching":4820,"Ġicon":4821,"rier":4822,"cles":4823,"Ġlaun":4824,"ym":4825,"Ġmill":4826,"ĠStreet":4827,"ĠBecause":4828,"Ġmaybe":4829,"ĠLife":4830,"Ġfacilit":4831,"Ġworldwide":4832,"semb":4833,"Be":4834,"Ġseven":4835,"ĠFlor":4836,"Ġcivil":4837,"ĠSupport":4838,"ĠTime":4839,"ĠGood":4840,"Ġlifestyle":4841,"ĠPeople":4842,"mosp":4843,"Ġchurch":4844,"Ġship":4845,"Ġbright":4846,"Ġhyd":4847,"ĠAnt":4848,"Ġcontains":4849,"ĠCap":4850,"Ġfaster":4851,"Ġsugar":4852,"Ġcast":4853,"Ġfollowed":4854,"Ġprotected":4855,"From":4856,"Ġfol":4857,"ĠGra":4858,"ĠFrench":4859,"Ġacademic":4860,"Ġfest":4861,"Ġcitiz":4862,"alls":4863,"ĠCB":4864,"Ġscene":4865,"Ġcorporate":4866,"rote":4867,"Ġtree":4868,"ker":4869,"ĠAtt":4870,"Ġtrend":4871,"ohol":4872,"ags":4873,"ĠSing":4874,"idden":4875,"DA":4876,"Ġjoy":4877,"Ġstuff":4878,"umin":4879,"Ġjack":4880,"ception":4881,"eline":4882,"IM":4883,"Ġprote":4884,"nel":4885,"Ġvent":4886,"Ġaest":4887,"ĠMat":4888,"cohol":4889,"ĠPC":4890,"top":4891,"ĠCEO":4892,"soft":4893,"Ġsurpr":4894,"Ġphoto":4895,"ĠEducation":4896,"Ġdynamic":4897,"ĠOpt":4898,"Ġmonitoring":4899,"Ġfish":4900,"related":4901,"idents":4902,"ulated":4903,"Don":4904,"Ġhom":4905,"itcoin":4906,"ĠBritish":4907,"Ġscore":4908,"ico":4909,"Ġadds":4910,"osition":4911,"bet":4912,"Ġchain":4913,"Ġjournal":4914,"uman":4915,"Another":4916,"ayer":4917,"ĠOF":4918,"ĠDec":4919,"Ġlearned":4920,"ĠInvest":4921,"Ġwife":4922,"vention":4923,"field":4924,"Ġstar":4925,"Ġartists":4926,"Ġexpectations":4927,"ummies":4928,"Ġforget":4929,"Ġtech":4930,"Ġdriver":4931,"ĠFam":4932,"Ġstunning":4933,"Ġsessions":4934,"son":4935,"Ġ2015":4936,"Ġprocedures":4937,"Ġtried":4938,"idential":4939,"Ġexpensive":4940,"Ġcab":4941,"urday":4942,"ĠRepublic":4943,"Ġadvantages":4944,"Ġpriorit":4945,"Ġrock":4946,"Ġplays":4947,"pot":4948,"Ġentertainment":4949,"iers":4950,"ĠCommission":4951,"Ġfamous":4952,"inations":4953,"odies":4954,"ĠEst":4955,"ĠConf":4956,"Ġeight":4957,"Cont":4958,"Ġpark":4959,"uty":4960,"Ġestim":4961,"Ġcamera":4962,"Ġexclusive":4963,"Ġrare":4964,"ĠTexas":4965,"PA":4966,"Ġlad":4967,"Ġtransition":4968,"pass":4969,"ĠFebruary":4970,"Ġelimin":4971,"Ġease":4972,"Ġsatisfaction":4973,"ĠMain":4974,"Are":4975,"Ġonto":4976,"Ġcontext":4977,"ĠProject":4978,"Ġmort":4979,"Ġcreation":4980,"ivered":4981,"ĠMor":4982,"ĠAlthough":4983,"Ġhappens":4984,"ordin":4985,"Ġatmosp":4986,"LE":4987,"Ġluxury":4988,"oes":4989,"Ġselected":4990,"rition":4991,"Ġ23":4992,"Ġserves":4993,"Ġbound":4994,"BC":4995,"Ġrooms":4996,"Ġconsistent":4997,"Ġnegative":4998,"uality":4999,"Ġcells":5000,"ĠCur":5001,"Ġnames":5002,"Ġpul":5003,"Ġpal":5004,"Ġadvis":5005,"ĠInstitute":5006,"Ġprepare":5007,"oors":5008,"ĠOpen":5009,"ĠSunday":5010,"Ġadventure":5011,"za":5012,"Ġbond":5013,"hy":5014,"Ġinvolve":5015,"osis":5016,"Ġteeth":5017,"ugg":5018,"ught":5019,"Ġveget":5020,"Ġlegisl":5021,"Ġwilling":5022,"ĠWed":5023,"Ġsole":5024,"arian":5025,"ĠMem":5026,"Ġfreed":5027,"âĤ¬":5028,"Ġmoved":5029,"icians":5030,"iration":5031,"Ġentry":5032,"Ġamb":5033,"Ġcentury":5034,"Ġmajority":5035,"Ġwonderful":5036,"She":5037,"TS":5038,"Ġconflic":5039,"oves":5040,"Ġrepe":5041,"Ġmanager":5042,"Ġedge":5043,"ĠTake":5044,"Ġsecret":5045,"bed":5046,"Ġlabor":5047,"Ġanimals":5048,"Ġdirection":5049,"Ġpresented":5050,"Ġarrange":5051,"200":5052,"Ġindustrial":5053,"Ġcalcul":5054,"Ġawareness":5055,"bing":5056,"oles":5057,"ĠMac":5058,"Ġcontem":5059,"ashington":5060,"ael":5061,"Ġsteel":5062,"More":5063,"ĠLead":5064,"Des":5065,"Ġunc":5066,"New":5067,"ĠThrough":5068,"CO":5069,"Ġsupports":5070,"En":5071,"ĠKeep":5072,"ĠWord":5073,"Ġpair":5074,"Ġreputation":5075,"Ġrecip":5076,"Ġupdated":5077,"Once":5078,"Ġhospital":5079,"lock":5080,"inger":5081,"Ġrenew":5082,"Ġdistinct":5083,"Ġprocedure":5084,"Ġthank":5085,"Ġoblig":5086,"ĠStart":5087,"ensions":5088,"Ġseparate":5089,"--":5090,"Ġwine":5091,"23":5092,"ĠDet":5093,"ĠClick":5094,"Ġpassed":5095,"UR":5096,"ĠSol":5097,"Ġelig":5098,"Ġpotentially":5099,"500":5100,"ĠElect":5101,"Ġintegration":5102,"nergy":5103,"Ġfunctionality":5104,"Ġfamiliar":5105,"osen":5106,"ĠLeg":5107,"Ġautomatically":5108,"Ġ198":5109,"ĠPublic":5110,"Ġflexibility":5111,"Ġwaiting":5112,"Ġment":5113,"Ġartist":5114,"Ġreward":5115,"Ġwrote":5116,"Ġoutcomes":5117,"Ġluck":5118,"Ġkept":5119,"ĠReal":5120,"Ġborn":5121,"onom":5122,"Ġletter":5123,"Ġinstru":5124,"lets":5125,"Ġclearly":5126,"pet":5127,"Ġconv":5128,"apter":5129,"Ġmoist":5130,"Ġcircumstances":5131,"Ġlock":5132,"ĠCommunity":5133,"Ġfurniture":5134,"ĠMa":5135,"Read":5136,"ros":5137,"Ġleaves":5138,"ĠUk":5139,"Ġnamed":5140,"Ġmanaged":5141,"Ġbird":5142,"Ġepis":5143,"Ġresource":5144,"Ġplastic":5145,"Ġtransactions":5146,"Ġfrequently":5147,"ĠWhy":5148,"Ġrobust":5149,"IV":5150,"Ġaid":5151,"Ġfacility":5152,"Ġregistration":5153,"Ġconfirm":5154,"Ġfilled":5155,"Ġexpenses":5156,"Ġclasses":5157,"Ġcomments":5158,"ĠInstagram":5159,"ĠMal":5160,"Ġinstructions":5161,"ĠTur":5162,"ĠIP":5163,"ĠClub":5164,"Ar":5165,"Ġsand":5166,"Ġpreviously":5167,"Ġbringing":5168,"Ġcrow":5169,"Ġinvent":5170,"Can":5171,"ĠFore":5172,"ĠDuring":5173,"Ġpartnership":5174,"Ġflat":5175,"Ġcouldn":5176,"Ġobvious":5177,"Ġexcited":5178,"craft":5179,"Ġindustries":5180,"Ġfactor":5181,"Ġcomplic":5182,"Ġflav":5183,"Ġhappened":5184,"ona":5185,"ĠMonday":5186,"ĠReview":5187,"Yes":5188,"ulner":5189,"Ġglob":5190,"iled":5191,"ĠInternet":5192,"BA":5193,"Ġdental":5194,"Ġthus":5195,"Ġdebt":5196,"Ġstick":5197,"Ġfoundation":5198,"Ġconsequ":5199,"Ġconversation":5200,"Ġspecies":5201,"aren":5202,"hab":5203,"Ġwealth":5204,"Ġsolar":5205,"rees":5206,"Ġdelivered":5207,"ĠII":5208,"Ġintended":5209,"Ġmemory":5210,"ĠClass":5211,"ĠEngine":5212,"ĠST":5213,"ĠHot":5214,"ĠChar":5215,"Ġconcent":5216,"Ġdesire":5217,"Ġearth":5218,"ricult":5219,"Ġcolle":5220,"Ġlisted":5221,"pm":5222,"Ġexcess":5223,"Ġapplied":5224,"ĠFoundation":5225,"Ġourselves":5226,"Ġbreath":5227,"making":5228,"ĠIS":5229,"ocation":5230,"Ġlicens":5231,"LC":5232,"Ġadvoc":5233,"Ġserving":5234,"Ġthoughts":5235,"Ġsituations":5236,"De":5237,"Ġenables":5238,"riage":5239,"Ġdetect":5240,"Ġcompens":5241,"Ġcauses":5242,"win":5243,"Ġwarrant":5244,"mental":5245,"Ġvictim":5246,"Ġframew":5247,"odcast":5248,"ĠSpr":5249,"ocking":5250,"Ġnotes":5251,"PR":5252,"erse":5253,"Ġvacc":5254,"Ġnovel":5255,"Step":5256,"Ġcarbon":5257,"Ġskill":5258,"Ġbow":5259,"mp":5260,"Ġinstitutions":5261,"Ġreduced":5262,"Ġvit":5263,"ĠAC":5264,"ĠDavid":5265,"Ġdelight":5266,"Ġhus":5267,"net":5268,"ĠDef":5269,"Ġpictures":5270,"equ":5271,"ivate":5272,"antic":5273,"Ġath":5274,"Ġfeels":5275,"Ġregister":5276,"Ġinterface":5277,"Ġdecades":5278,"urally":5279,"ĠHall":5280,"Ġresearc":5281,"Ġsurvey":5282,"iors":5283,"Ġmessages":5284,"Ġdram":5285,"Ġraised":5286,"Ġlisten":5287,"Ġfootball":5288,"Ġstores":5289,"ĠWashington":5290,"Ġcream":5291,"ĠAndroid":5292,"Ġang":5293,"Ġadministration":5294,"Ġspect":5295,"ĠWindows":5296,"ĠSee":5297,"Ġsenior":5298,"ounder":5299,"Ġcars":5300,"ĠChild":5301,"Ġmeant":5302,"Ġaffil":5303,"ĠCong":5304,"Ġdespite":5305,"Ġliqu":5306,"Ġenhancing":5307,"):":5308,"Ġchances":5309,"bre":5310,"Ġstarts":5311,"Ġlicense":5312,"Ġsupported":5313,"water":5314,"Ġ90":5315,"Ġcatch":5316,"orial":5317,"cknow":5318,"Ġcities":5319,"rab":5320,"ĠJew":5321,"Ġstated":5322,"Ġspins":5323,"ĠCommit":5324,"Ġquarter":5325,"Ġdisapp":5326,"Ġvolunte":5327,"oman":5328,"ximately":5329,"Ġdestination":5330,"Ġdogs":5331,"hi":5332,"Ġanywhere":5333,"Ġcorner":5334,"Ġcharges":5335,"ĠTechnology":5336,"Ġarticles":5337,"Ġswitch":5338,"Ġsizes":5339,"According":5340,"ĠLord":5341,"Ġknowing":5342,"Ġconnections":5343,"Ġ80":5344,"Ġstake":5345,"Ġtheme":5346,"anges":5347,"Ġworksh":5348,"Ġatmosphere":5349,"Ġalb":5350,"mitted":5351,"ĠFlorida":5352,"ixt":5353,"ĠGovernment":5354,"Ġ26":5355,"Ġrat":5356,"Ġopened":5357,"ĠToday":5358,"mes":5359,"Ġguidelines":5360,"ĠSaturday":5361,"Ġshowing":5362,"Ġ28":5363,"Ġweak":5364,"Ġslightly":5365,"ulations":5366,"Ġ2014":5367,"RA":5368,"Ġtracking":5369,"ĠTO":5370,"Ġconvenience":5371,"ĠID":5372,"ĠTop":5373,"ĠFood":5374,"Ġcharm":5375,"ya":5376,"Ġretain":5377,"Ġmoments":5378,"la":5379,"holders":5380,"Ġpoll":5381,"Ġpanel":5382,"Ġgone":5383,"ĠUSA":5384,"ĠOrgan":5385,"Ġlighting":5386,"Ġwhatever":5387,"oving":5388,"Ġspl":5389,"Ġsevere":5390,"Ġhistorical":5391,"Ġflavor":5392,"pected":5393,"Ġformat":5394,"ĠMaster":5395,"Ġhaven":5396,"ĠDan":5397,"Ġrain":5398,"Ġtotally":5399,"ĠForm":5400,"Ġshel":5401,"Ġfields":5402,"rooms":5403,"Ġmonthly":5404,"Ġshot":5405,"ĠTeam":5406,"istan":5407,"Ġtrig":5408,"Ġsea":5409,"ĠOb":5410,"ĠSun":5411,"aration":5412,"ĠâĢ¦":5413,"Ġflexible":5414,"Ġhousing":5415,"ĠChurch":5416,"Ġweekend":5417,"Ġmonitor":5418,"Ġgirls":5419,"Ġdesk":5420,"Ġrefund":5421,"ĠWin":5422,"Ġparticipate":5423,"ffective":5424,"Ġimprovement":5425,"osy":5426,"Ġengineering":5427,"Ġintelligence":5428,"omb":5429,"Ġentreprene":5430,"ĠSpecial":5431,"Ġvulner":5432,"Ġaffected":5433,"Ġcompar":5434,"men":5435,"Ġfoods":5436,"lights":5437,"umn":5438,"Ġportfol":5439,"road":5440,"Ġvast":5441,"ĠSal":5442,"Ġresol":5443,"ston":5444,"Ġmanner":5445,"Ġexternal":5446,"Ġposts":5447,"Ġcombined":5448,"Ġsubstant":5449,"Ġrule":5450,"Ġlayer":5451,"Ġdatab":5452,"Ġtight":5453,"Ġdecre":5454,"Ġ27":5455,"ĠGlobal":5456,"Ġtests":5457,"Under":5458,"ĠPaul":5459,"Ġunw":5460,"ĠSen":5461,"Ġanxiety":5462,"press":5463,"ĠLike":5464,"ĠPersonal":5465,"Ġconstantly":5466,"Ġdiscl":5467,"Ġign":5468,"Ġyouth":5469,"urthermore":5470,"Ġlaunched":5471,"Dr":5472,"Ġagencies":5473,"Ġmedium":5474,"Ġbets":5475,"inding":5476,"ĠScience":5477,"Ġreturns":5478,"Ġroles":5479,"Ġspring":5480,"ript":5481,"rics":5482,"ĠChristian":5483,"ĠTrust":5484,"uled":5485,"Ġunits":5486,"Ġtreatments":5487,"Ġmenu":5488,"ampions":5489,"Ġsurrounding":5490,"Ġaccompl":5491,"ĠBig":5492,"Ġsurgery":5493,"Ġelement":5494,"iated":5495,"Ġknows":5496,"active":5497,"pes":5498,"Ġgenerate":5499,"ĠMag":5500,"Ġjew":5501,"Ġsustainability":5502,"TH":5503,"Ġtow":5504,"omet":5505,"Ġloyal":5506,"Ġorganic":5507,"Ġcooking":5508,"Ġprecise":5509,"Not":5510,"Ġice":5511,"yc":5512,"ĠLim":5513,"umber":5514,"oop":5515,"Ġevening":5516,"ocur":5517,"ĠTest":5518,"Ġincreasingly":5519,"Ġtopic":5520,"Ġexploring":5521,"Ġoccasion":5522,"Ġstyles":5523,"ĠRoad":5524,"gr":5525,"yn":5526,"Ġbelong":5527,"Ġdoors":5528,"ado":5529,"Ġoperate":5530,"ror":5531,"rete":5532,"ĠTherefore":5533,"Ġtrees":5534,"Ġcreates":5535,"Ġperspective":5536,"Ġegg":5537,"Ġemployment":5538,"ka":5539,"mail":5540,"Ġconfident":5541,"Ġcart":5542,"Over":5543,"ificial":5544,"Ġregistered":5545,"ota":5546,"Ġdelivering":5547,"Ġfreedom":5548,"Ġappe":5549,"Ġbattle":5550,"Ġfinished":5551,"Ġmatters":5552,"ĠAccording":5553,"ĠSil":5554,"Ġrein":5555,"Ġelectronic":5556,"Ġchosen":5557,"Ġdu":5558,"Ġtransportation":5559,"Ġsettle":5560,"Let":5561,"never":5562,"ĠBre":5563,"Ġstation":5564,"ta":5565,"reate":5566,"Ġhonest":5567,"Ġprop":5568,"ĠTre":5569,"Ġuns":5570,"OL":5571,"Ġacknow":5572,"Ġconfig":5573,"Ġconference":5574,"Ġprofit":5575,"Ġsuccessfully":5576,"Ġaudio":5577,"ĠCard":5578,"Ġappreciate":5579,"Ġunf":5580,"Ġrecommendations":5581,"uine":5582,"Ġsoph":5583,"Ġpaint":5584,"ĠLook":5585,"Ġspiritual":5586,"Ġraise":5587,"Ġjoint":5588,"Ġban":5589,"Ġplug":5590,"Ġtopics":5591,"IA":5592,"Ġdistribution":5593,"Ġeating":5594,"Ġcup":5595,"Ġbrother":5596,"Ġpaying":5597,"Ġvolume":5598,"ĠCam":5599,"Ġpills":5600,"Ġrestaurant":5601,"Ġtrail":5602,"Ġinjuries":5603,"Ġinfluenc":5604,"icken":5605,"ĠRiver":5606,"Ġputting":5607,"ĠConsider":5608,"ĠContact":5609,"Ġadults":5610,"cholars":5611,"acc":5612,"Ġcreativity":5613,"Ġauthentic":5614,"Ġdeals":5615,"ĠSign":5616,"Ġwitness":5617,"Ġassessment":5618,"Ġclinical":5619,"Ġneighbor":5620,"Ġbrief":5621,"aser":5622,"Ġhusband":5623,"ĠAfrican":5624,"Ġsavings":5625,"Ġpromoting":5626,"ifies":5627,"Ġdele":5628,"Ġdescribed":5629,"Ġdepth":5630,"Ġfantastic":5631,"Ġpoker":5632,"Ġincent":5633,"ĠAdv":5634,"Ġcoin":5635,"Ġcovers":5636,"ĠCamp":5637,"iders":5638,"Ġmouth":5639,"âĦ":5640,"rip":5641,"weight":5642,"Ġkeeps":5643,"Ġanimal":5644,"Ġruns":5645,"Ġcrisis":5646,"Ġincredible":5647,"uesday":5648,"Ġstreet":5649,"celer":5650,"Ġclar":5651,"Ġserver":5652,"Ġbot":5653,"ĠDown":5654,"Ġbeach":5655,"ĠUN":5656,"ĠJe":5657,"ĠConst":5658,"Ġperfectly":5659,"Ġreturned":5660,"Ġhousehold":5661,"ursday":5662,"Ġreaders":5663,"Ġpredict":5664,"Ġfunctional":5665,"Ġagg":5666,"ĠStand":5667,"ĠAngel":5668,"Me":5669,"met":5670,"Ġpassword":5671,"ago":5672,"Ġdepartment":5673,"Ġrevolution":5674,"gage":5675,"ĠDigital":5676,"Ġhearing":5677,"bal":5678,"Ġapproved":5679,"irms":5680,"Ġscr":5681,"Ġsnow":5682,"Ġnetworks":5683,"Ġresil":5684,"Ġdevelopers":5685,"Ġdrink":5686,"Ġelection":5687,"Ġminimal":5688,"Ġnegot":5689,"Ġdefend":5690,"Ġanticip":5691,"fts":5692,"ĠEU":5693,"Ġalcohol":5694,"Ġpricing":5695,"ĠSa":5696,"Ġcolour":5697,"ĠFort":5698,"anta":5699,"Ġclosed":5700,"ĠRef":5701,"luding":5702,"Ġsoil":5703,"Ġreporting":5704,"Many":5705,"Ġappears":5706,"ĠMad":5707,"Ġagent":5708,"Ġminor":5709,"ĠBay":5710,"Ġannounce":5711,"gor":5712,"otic":5713,"Ġride":5714,"ĠMedia":5715,"Ġunless":5716,"Se":5717,"Ġdeploy":5718,"ĠRob":5719,"65":5720,"ĠChoose":5721,"Ġer":5722,"Ġclosely":5723,"Ġcater":5724,"Ġclim":5725,"Ġdeeper":5726,"Ġbeneficial":5727,"Ġwindows":5728,"olic":5729,"ĠAccess":5730,"Ġwww":5731,"Ġshift":5732,"Ġempower":5733,"Ġteachers":5734,"Every":5735,"Ġdistance":5736,"ĠIndust":5737,"Ġfruit":5738,"rag":5739,"Ġbelief":5740,"list":5741,"Ġsurf":5742,"ĠMount":5743,"Ġintroduced":5744,"ĠSom":5745,"ĠMex":5746,"Ġven":5747,"Ġveter":5748,"ĠPlus":5749,"Ġmode":5750,"front":5751,"Ġeveryday":5752,"ĠAcad":5753,"ĠMinister":5754,"Ġthick":5755,"bd":5756,"reens":5757,"ĠFund":5758,"Ġreached":5759,"Ġsem":5760,"SA":5761,"olutions":5762,"ulty":5763,"Ġcitizens":5764,"hand":5765,"Ġexamples":5766,"itage":5767,"igration":5768,"Ġreceiving":5769,"Ġmiles":5770,"Ġconstruct":5771,"ĠLight":5772,"ĠClean":5773,"ĠTwitter":5774,"Int":5775,"Ġspons":5776,"Ġdelicious":5777,"Ġvari":5778,"âĦ¢":5779,"Ġexpans":5780,"lette":5781,"ĠJour":5782,"while":5783,"Ġapproximately":5784,"outhern":5785,"ĠYes":5786,"ĠAND":5787,"Ġpregn":5788,"nesday":5789,"Ġwalking":5790,"21":5791,"Ġintegrated":5792,"ĠTerm":5793,"Ġgreatest":5794,"Ġenterprise":5795,"Ġrecognized":5796,"Ġaims":5797,"ĠPet":5798,"oto":5799,"Ġburn":5800,"Ġinterior":5801,"lor":5802,"Ġterr":5803,"ĠSch":5804,"ĠHead":5805,"Ġimpressive":5806,"Ġvs":5807,"Ġconcern":5808,"fast":5809,"Ġfitness":5810,"Ġshowed":5811,"chain":5812,"erves":5813,"ario":5814,"spe":5815,"Ġperformed":5816,"Ġbuildings":5817,"Ġspin":5818,"Res":5819,"gal":5820,"Ġinstalled":5821,"Ġwatching":5822,"Ġancient":5823,"**":5824,"Ġultimately":5825,"ĠKey":5826,"Ġmeal":5827,"Ġasking":5828,"Ġinspired":5829,"Ġ70":5830,"Ġtrusted":5831,"Ġdial":5832,"Ġforces":5833,"IG":5834,"Ġunivers":5835,"ander":5836,"Ġefficiently":5837,"ĠAM":5838,"Ġinvesting":5839,"Ġresulting":5840,"rey":5841,"ĠEnergy":5842,"Ġsto":5843,"Ġjoined":5844,"Ġfort":5845,"ĠHist":5846,"Ġsubstantial":5847,"Ġstret":5848,"night":5849,"ĠLake":5850,"Ġsensitive":5851,"ĠCentral":5852,"Ġroot":5853,"zer":5854,"Ġincreases":5855,"Ġframe":5856,"Ġswim":5857,"Ġ2013":5858,"arp":5859,"ĠExt":5860,"Ġabsolutely":5861,"ĠExpl":5862,"Ġtea":5863,"Ġloans":5864,"Ġimmediate":5865,"Ġhandling":5866,"ĠMil":5867,"CH":5868,"ĠInstead":5869,"Ġoccup":5870,"Ġperman":5871,"Ġholds":5872,"Ġsan":5873,"Ġconclusion":5874,"Ġdiscussion":5875,"cean":5876,"ĠEnter":5877,"ĠMart":5878,"ette":5879,"oma":5880,"Ġproceed":5881,"âĢĺ":5882,"Ġphil":5883,"Ġ--":5884,"unting":5885,"Ġoptimal":5886,"ĠMedical":5887,"Ġfle":5888,"omin":5889,"Ġfacing":5890,"Ġkid":5891,"Ġsophist":5892,"Ġargu":5893,"Ġofficials":5894,"pond":5895,"Ġcookies":5896,"Ġexposure":5897,"ĠOffic":5898,"Ġjump":5899,"Ġbusy":5900,"Ġbrowser":5901,"Ġdefense":5902,"Ġprinciples":5903,"Ġavailability":5904,"ĠSam":5905,"ĠBook":5906,"Tr":5907,"ĠUsing":5908,"Ġkinds":5909,"Ġnoted":5910,"Ġremark":5911,"Ġpu":5912,"ĠMiss":5913,"ocket":5914,"Ġdesired":5915,"Ġcooper":5916,"Ġpossibly":5917,"Ġcycle":5918,"Ġteach":5919,"working":5920,"Ġreplacement":5921,"ĠWebs":5922,"About":5923,"well":5924,"ikes":5925,"Ġfinance":5926,"ĠNat":5927,"rian":5928,"ĠCy":5929,"ĠMary":5930,"Ġgenuine":5931,"Ġauthority":5932,"ĠNig":5933,"Ġsounds":5934,"Sc":5935,"uit":5936,"Ġdining":5937,"Ġpositions":5938,"75":5939,"Ġshares":5940,"oga":5941,"alle":5942,"Ġeventually":5943,"fortunately":5944,"ĠAustralian":5945,"Ġlabel":5946,"look":5947,"ĠIsland":5948,"Ġrelief":5949,"gers":5950,"Ġlights":5951,"Ġfavour":5952,"ĠStep":5953,"Ġcompat":5954,"Ġsigned":5955,"Ġchannels":5956,"Ġnarr":5957,"Ġrot":5958,"Ġadministr":5959,"AI":5960,"Ġfold":5961,"Ġdrivers":5962,"ĠLong":5963,"Ġoverw":5964,"ĠMicrosoft":5965,"ĠCommittee":5966,"iat":5967,"Ġfemale":5968,"Ġmut":5969,"Ġpursu":5970,"Ġpackaging":5971,"Ġ2012":5972,"ĠAccount":5973,"ĠEngland":5974,"Ġpull":5975,"enefits":5976,"ĠCost":5977,"ĠAnn":5978,"Ġmere":5979,"Ġuniversity":5980,"Ġcampaigns":5981,"ighter":5982,"Ġneck":5983,"han":5984,"mark":5985,"osystem":5986,"Ġproductivity":5987,"Ġcandidates":5988,"Ġenvironments":5989,"Ġportfolio":5990,"Ġrom":5991,"ĠRich":5992,"Ġidentified":5993,"Ġ29":5994,"Ġscientific":5995,"Ġversatile":5996,"Ġregional":5997,"Ġextended":5998,"illa":5999,"ounter":6000,"ĠBack":6001,"Ġstability":6002,"Ġappointment":6003,"Ġmuscle":6004,"Ġrental":6005,"asp":6006,"NA":6007,"Ġinitiatives":6008,"Ġcryptocur":6009,"ĠCert":6010,"Ġfailure":6011,"Ġsoul":6012,"rating":6013,"Ġdurable":6014,"Ġinvestments":6015,"Ġenforce":6016,"ĠGame":6017,"Tra":6018,"ĠRussia":6019,"Ġwire":6020,"elcome":6021,"Ġauthorities":6022,"ENT":6023,"Ġgun":6024,"Ġ500":6025,"ician":6026,"Ġcoast":6027,"gorith":6028,"ĠJames":6029,"ether":6030,"Ġenhancement":6031,"Ġresidential":6032,"Ġdepends":6033,"ĠMarketing":6034,"add":6035,"pat":6036,"apers":6037,"Ġthrow":6038,"Ġcapture":6039,"Ġsac":6040,"Ġskilled":6041,"Ġgear":6042,"Ġregulatory":6043,"Su":6044,"Ġmedicine":6045,"Ġchair":6046,"Ġcommission":6047,"Ġtempl":6048,"ala":6049,"made":6050,"orders":6051,"Ġpun":6052,"ĠOnly":6053,"Ġhidden":6054,"ĠPen":6055,"irgin":6056,"Ġtechnique":6057,"Ġcrim":6058,"CA":6059,"Ġheight":6060,"ĠCanad":6061,"DF":6062,"Ġwalls":6063,"Ġteacher":6064,"Ġviolence":6065,"Ġdim":6066,"Ġcontrast":6067,"ĠUnion":6068,"Ġapplicable":6069,"Ġlimits":6070,"Ġhundreds":6071,"ĠMel":6072,"orter":6073,"45":6074,"ĠTuesday":6075,"Ġresearchers":6076,"Ġaccuracy":6077,"Ġprotein":6078,"à¤":6079,"ĠManager":6080,"date":6081,"Ġforest":6082,"Tube":6083,"ĠFire":6084,"ĠThursday":6085,"Ġfasc":6086,"Ġshut":6087,"Ġsud":6088,"Ġremoved":6089,"otal":6090,"zing":6091,"anda":6092,"ĠWomen":6093,"Ġequipped":6094,"roy":6095,"ĠLat":6096,"Ġarm":6097,"gl":6098,"Ġinfect":6099,"Ġattorney":6100,"Ġholding":6101,"oses":6102,"ait":6103,"Ġillust":6104,"ĠSoft":6105,"Ġalongside":6106,"Ġmissing":6107,"ĠRussian":6108,"with":6109,"Ġhealing":6110,"Ġpump":6111,"inder":6112,"ora":6113,"Ġtransaction":6114,"Ġdish":6115,"ĠAsia":6116,"amic":6117,"Ġdemands":6118,"ĠBlue":6119,"Ġanalytics":6120,"ĠLit":6121,"Ġimplementation":6122,"Ġremoval":6123,"ĠOper":6124,"Ġconsumption":6125,"Ġwhom":6126,"Ġweap":6127,"ini":6128,"ĠBefore":6129,"Ġdiscovered":6130,"ĠGermany":6131,"irmed":6132,"Ġmassive":6133,"Ġbegins":6134,"ĠPri":6135,"Ġasset":6136,"Ġchannel":6137,"Ġupl":6138,"Bl":6139,"Ġcategory":6140,"Ġreasonable":6141,"Ġenabling":6142,"orthern":6143,"ius":6144,"Whether":6145,"Ġstim":6146,"Le":6147,"ĠBitcoin":6148,"FT":6149,"Ġusage":6150,"Ġagents":6151,"then":6152,"Ġquiet":6153,"Ġwheel":6154,"ĠCustomer":6155,"Ġrecognize":6156,"Ġgender":6157,"Ġretire":6158,"rie":6159,"ĠFamily":6160,"Ġresistance":6161,"ĠLab":6162,"Ġcontemporary":6163,"rich":6164,"ĠMer":6165,"arsh":6166,"ĠCreat":6167,"ads":6168,"Ġopinion":6169,"Ġinput":6170,"Ġmal":6171,"ĠUl":6172,"Ġdaughter":6173,"zen":6174,"usive":6175,"ĠSite":6176,"ĠLou":6177,"Ġdance":6178,"Ġwouldn":6179,"Ġstone":6180,"Ġju":6181,"Ġsudden":6182,"Ġpure":6183,"Ġcarried":6184,"Ġbuyers":6185,"Ġstanding":6186,"ĠFil":6187,"Ġcommunicate":6188,"Ġrecognition":6189,"ĠId":6190,"cons":6191,"rum":6192,"ĠQue":6193,"ideo":6194,"ĠBen":6195,"iden":6196,"Phone":6197,"cribe":6198,"ocolate":6199,"Ġoperational":6200,"ĠAlex":6201,"Ġframework":6202,"ĠExperience":6203,"ĠParty":6204,"Ġoverwhel":6205,"Ġnor":6206,"ĠTour":6207,"ĠAff":6208,"ĠWednesday":6209,"orable":6210,"ĠCall":6211,"Ġexcite":6212,"Ġmagn":6213,"Ġgummies":6214,"ĠStrate":6215,"Ġkeyword":6216,"Ġdurability":6217,"Ġelectrical":6218,"Ġdollars":6219,"entle":6220,"Ġspeaking":6221,"Ġflight":6222,"resents":6223,"90":6224,"Ġphase":6225,"writ":6226,"Ġmostly":6227,"Ġder":6228,"Ġdetermined":6229,"Ġissued":6230,"ĠCongress":6231,"ĠKore":6232,"Ġrub":6233,"umes":6234,"Ġpreferred":6235,"ĠVol":6236,"Ġbigger":6237,"ĠBoth":6238,"lements":6239,"ĠKnow":6240,"ae":6241,"Ġalbum":6242,"Reg":6243,"ĠTem":6244,"ĠWestern":6245,"Ġliquid":6246,"Ġvisiting":6247,"ĠChief":6248,"raine":6249,"ĠOR":6250,"ĠBeach":6251,"Ġended":6252,"Ġcloser":6253,"Ġcalling":6254,"Ġeligible":6255,"eration":6256,"Ġseat":6257,"Ġathlet":6258,"SP":6259,"Ġfraud":6260,"Ġdent":6261,"Che":6262,"Ġupcoming":6263,"Ġtrained":6264,"certain":6265,"etime":6266,"Ġfilter":6267,"reek":6268,"liers":6269,"Ġpurchasing":6270,"oulette":6271,"ĠLive":6272,"aught":6273,"Ġdiam":6274,"kin":6275,"Ġchart":6276,"Ġfeelings":6277,"Ġmarriage":6278,"Ġtough":6279,"nings":6280,"Ġlik":6281,"Ġultimate":6282,"35":6283,"ĠGen":6284,"Ġpill":6285,"ĠRest":6286,"Ġtap":6287,"ownt":6288,"ĠArch":6289,"Ġton":6290,"ĠDistrict":6291,"OW":6292,"Ġfell":6293,"Ġpoly":6294,"ĠDub":6295,"abet":6296,"ĠDev":6297,"Ġnutrition":6298,"Ġrelatively":6299,"oral":6300,"requ":6301,"ograp":6302,"Most":6303,"Ġqualified":6304,"Ġlibrary":6305,"Ġcriminal":6306,"!âĢĿ":6307,"ĠMark":6308,"Ġcomprom":6309,"Ġpriority":6310,"Ġmeetings":6311,"Ġcompensation":6312,"ogue":6313,"Ġking":6314,"Before":6315,"ship":6316,"Ġcere":6317,"ĠAud":6318,"Ġminute":6319,"Ġfixed":6320,"how":6321,"Ġmit":6322,"Ġrand":6323,"Ġproven":6324,"Ġalgorith":6325,"uce":6326,"ĠRight":6327,"Ġecosystem":6328,"rd":6329,"ĠAdmin":6330,"ett":6331,"ĠTor":6332,"ĠYOU":6333,"ien":6334,"Ġdedication":6335,"ĠLeague":6336,"Ġcrypto":6337,"ĠColor":6338,"Ġemotions":6339,"Ġisland":6340,"ĠGrand":6341,"Ġattribut":6342,"yers":6343,"Ġcabin":6344,"lessly":6345,"Ġrepairs":6346,"Ġtun":6347,"ĠBud":6348,"Ġrely":6349,"Ind":6350,"Ġconducted":6351,"ĠPract":6352,"Ġsupplies":6353,"Ġbike":6354,"Ġvend":6355,"Ġorganis":6356,"under":6357,"Ġdrugs":6358,"Ġrepresents":6359,"ĠMichael":6360,"ĠGerman":6361,"ĠValley":6362,"ĠProper":6363,"Ġneighborhood":6364,"worth":6365,"rad":6366,"Ġdangerous":6367,"Ġtack":6368,"ĠMuse":6369,"Ġtypical":6370,"PT":6371,"Ġdomin":6372,"ĠNetwork":6373,"uling":6374,"ĠAuthor":6375,"Ġurban":6376,"ĠControl":6377,"aked":6378,"Ġabsor":6379,"ĠSer":6380,"riers":6381,"person":6382,"ĠKen":6383,"Ġdomain":6384,"Ġdomestic":6385,"Ġhire":6386,"ĠStar":6387,"Since":6388,"Ġmeets":6389,"uction":6390,"Ġattacks":6391,"formance":6392,"Ġrandom":6393,"ĠEarth":6394,"Ġfocusing":6395,"Ġsequ":6396,"neys":6397,"Ġpossibilities":6398,"Ġengaged":6399,"Ġentirely":6400,"level":6401,"iest":6402,"ĠFrance":6403,"ĠYouTube":6404,"Ġjustice":6405,"ras":6406,"ĠAward":6407,"Ġaccepted":6408,"Ġclothing":6409,"ĠOh":6410,"quir":6411,"Ġattractive":6412,"Ġrecipe":6413,"Ġguess":6414,"Ġcelebrate":6415,"Ġfeaturing":6416,"Ġcommonly":6417,"ĠGames":6418,"Ġmembership":6419,"agues":6420,"Ġcoach":6421,"Ġenhanced":6422,"ĠDemocr":6423,"gent":6424,"Ġ35":6425,"Ġacceler":6426,"ĠCentre":6427,"Ġexcitement":6428,"Ġmel":6429,"Ġmatches":6430,"Ġshoes":6431,"Ġguy":6432,"Ġpossibility":6433,"Ġmeat":6434,"Ġgrown":6435,"Ġmap":6436,"Ġregions":6437,"ĠFollow":6438,"Ġodds":6439,"Bu":6440,"Ġdoubt":6441,"ĠMot":6442,"ĠHam":6443,"Ġerror":6444,"88":6445,"Ġkill":6446,"Ġwidely":6447,"Ġhosting":6448,"Ġpharm":6449,"Ġcausing":6450,"Ġdiversity":6451,"Ġinsight":6452,"Ġestablishment":6453,"Ġanswers":6454,"ensity":6455,"Ġdealing":6456,"Ġrestaurants":6457,"First":6458,"cont":6459,"Ġarrest":6460,"ushed":6461,"Sp":6462,"ĠDiv":6463,"Ġinvestigation":6464,"Ġpodcast":6465,"ressed":6466,"Ġexecutive":6467,"Bet":6468,"bles":6469,"Ġconsent":6470,"Ġreligious":6471,"ano":6472,"Ġconsultation":6473,"etary":6474,"Ġvote":6475,"erry":6476,"Ġmillions":6477,"Ġpip":6478,"ĠInf":6479,"ĠHave":6480,"ĠWood":6481,"cies":6482,"Ġ2010":6483,"Ġvirus":6484,"Ġring":6485,"redit":6486,"Ġacid":6487,"Ġox":6488,"Ġpurchased":6489,"ĠFinancial":6490,"point":6491,"Ġenhances":6492,"Ġpromotions":6493,"Ġfollows":6494,"ĠBur":6495,"Ġdifferences":6496,"Ġrevealed":6497,"ĠHuman":6498,"pret":6499,"ĠBrand":6500,"Ġflowers":6501,"Ġdelay":6502,"Ġenjoyable":6503,"Ġsyn":6504,"berg":6505,"Ġdied":6506,"wing":6507,"Ġparam":6508,"Ġreb":6509,"PC":6510,"ĠGard":6511,"ĠMusic":6512,"Ġproposed":6513,"Ġbodies":6514,"ola":6515,"Ġequal":6516,"Ġexplained":6517,"ki":6518,"een":6519,"ĠBal":6520,"Ġagricult":6521,"Ġstre":6522,"ĠSum":6523,"Ġscript":6524,"Ġlinked":6525,"Ġepisode":6526,"Ġinteractive":6527,"Ġturning":6528,"Press":6529,"Ġarray":6530,"Ġrig":6531,"Ġregardless":6532,"ĠLearn":6533,"Ġ31":6534,"Ġmob":6535,"Ġsupplement":6536,"Ġpainting":6537,"Ġcomponent":6538,"OM":6539,"ĠLog":6540,"sembly":6541,"owners":6542,"ĠMass":6543,"Ġ197":6544,"Fin":6545,"Ġagreed":6546,"Ġstaying":6547,"Ġwearing":6548,"Ġnur":6549,"Ġtreated":6550,"ogether":6551,"Ġreference":6552,"Ġnewest":6553,"Ġrestrictions":6554,"Ġrealize":6555,"Ġclot":6556,"Ġtaxes":6557,"ĠAmericans":6558,"Ġorganized":6559,"Ġcapable":6560,"Ġlies":6561,"Ġmeaningful":6562,"Ġconsideration":6563,"Ġ@":6564,"Ġdinner":6565,"ĠWal":6566,"Ġamounts":6567,"Ġmanual":6568,"Ġmail":6569,"Ġmanufacturers":6570,"ĠPrem":6571,"ĠEqu":6572,"Ġappeared":6573,".âĢĻ":6574,"ĠJack":6575,"Ġbooking":6576,"Ġdatabase":6577,"Ġ2011":6578,"Up":6579,"Ġenjoyed":6580,"ĠThanks":6581,"ĠReport":6582,"Ġlasting":6583,"van":6584,"AB":6585,"Ġcro":6586,"ĠCr":6587,"stone":6588,"long":6589,"Ġoutcome":6590,"forward":6591,"Ġcop":6592,"Ġmeals":6593,"Ġunex":6594,"rypt":6595,"Ġproof":6596,"Pr":6597,"ificate":6598,"ĠBill":6599,"verse":6600,"Ġparking":6601,"Ġstrict":6602,"col":6603,"Ġconcerned":6604,"Ġprimarily":6605,"Ġachieved":6606,"erving":6607,"Ġcommand":6608,"Ġeffectiveness":6609,"Ġdistrict":6610,"During":6611,"âĢĻ.":6612,"'d":6613,"Ġsides":6614,"Ġcollected":6615,"Ġhardware":6616,"aming":6617,"Ġguest":6618,"Ġrewards":6619,"cific":6620,"ossible":6621,"SC":6622,"ĠShow":6623,"Ġmilk":6624,"Ġsquare":6625,"anger":6626,"osh":6627,"Ġbask":6628,"Ġtables":6629,"Ġtruck":6630,"Ġsongs":6631,"Ġseconds":6632,"Ġ2025":6633,"Ġstatements":6634,"ĠAtl":6635,"Ġmovies":6636,"Ġphotograph":6637,"ĠCat":6638,"Ġcertified":6639,"Ġads":6640,"Ġcentre":6641,"ĠExecut":6642,"GB":6643,"Ġhighlights":6644,"ĠJapanese":6645,"ĠCBD":6646,"Ġoutput":6647,"SE":6648,"Ġbroken":6649,"Ġguys":6650,"Ġbeat":6651,"urd":6652,"ucle":6653,"ĠFind":6654,"ĠConnect":6655,"Ġvisibility":6656,"ĠWebsite":6657,"Ġimmers":6658,"Ġmanufacturer":6659,"Ġstable":6660,"ĠCode":6661,"ĠFranc":6662,"but":6663,"Ġeditor":6664,"Ġapproaches":6665,"Ġinspiration":6666,"ĠEmploy":6667,"ĠCarol":6668,"Ġcul":6669,"CT":6670,"alian":6671,"Ġcann":6672,"Ġremaining":6673,"jack":6674,"inent":6675,"Ġille":6676,"Ġcheap":6677,"icul":6678,"amental":6679,"ĠHosp":6680,"Ġauto":6681,"Just":6682,"Ġintegrity":6683,"egu":6684,"rome":6685,"Ġcodes":6686,"Ġstructures":6687,"ĠEconom":6688,"ĠPress":6689,"secut":6690,"Ġselecting":6691,"ĠMax":6692,"istant":6693,"Ġarg":6694,"ĠMult":6695,"Ġmand":6696,"MP":6697,"ending":6698,"what":6699,"AG":6700,"Ġintric":6701,"Ġfirms":6702,"luded":6703,"Ġinteractions":6704,"azine":6705,"Ġnaturally":6706,"IF":6707,"Ġroute":6708,"arency":6709,"Ġcontinuous":6710,"ĠTom":6711,"Ġsearching":6712,"Ġspecialized":6713,"edge":6714,"ĠApplic":6715,"Ġcategories":6716,"Ġaccessories":6717,"ellect":6718,"Ġincident":6719,"otton":6720,"iche":6721,"ĠSecret":6722,"Ġtiss":6723,"ivating":6724,"Ġtargeted":6725,"ĠBi":6726,"party":6727,"ĠMont":6728,"ĠCanadian":6729,"Ġemails":6730,"ĠBas":6731,"ĠInsurance":6732,"Ġmagic":6733,"Last":6734,"osoph":6735,"Ġsitting":6736,"Ġcriteria":6737,"Ġoutstanding":6738,"Ġobjectives":6739,"Ġpersonality":6740,"lastname":6741,"ingu":6742,"Ġtexture":6743,"Ġcampus":6744,"ĠGuide":6745,"ĠQuest":6746,"Ġinvolving":6747,"Ġsuc":6748,"ading":6749,"Ġquot":6750,"Ġmanagers":6751,"ĠContent":6752,"Ġdamaged":6753,"Ġconflict":6754,"Ġtransformation":6755,"Ġunable":6756,"Ġap":6757,"ĠRober":6758,"Ġdefined":6759,"Ġdiseases":6760,"letter":6761,"Ġsmile":6762,"Ġworkplace":6763,"Ġenthusiasts":6764,"Ġincredibly":6765,"ĠFest":6766,"Ġabuse":6767,"arrow":6768,"Ġvan":6769,"ĠLove":6770,"Ġcrime":6771,"Ġutilize":6772,"Ġbanks":6773,"Ġcareful":6774,"Ġlosing":6775,"ĠBat":6776,"Ġera":6777,"onym":6778,"class":6779,"Ġenjoying":6780,"Ġtickets":6781,"Ġprogramme":6782,"Ġarchitecture":6783,"Or":6784,"Ġpreparation":6785,"Ġdeeply":6786,"icit":6787,"Ġadm":6788,"Ġlawyer":6789,"Ġforg":6790,"ĠWild":6791,"Ġleather":6792,"OC":6793,"owered":6794,"ords":6795,"Ġbathroom":6796,"Ġtitles":6797,"Ġhospit":6798,"Ġcandidate":6799,"Ġticket":6800,"Ġmotion":6801,"Ġboat":6802,"Ġprospect":6803,"ĠArab":6804,"Ġ45":6805,"Ġgolf":6806,"osm":6807,"Ġcounsel":6808,"see":6809,"ĠHand":6810,"Ġrequests":6811,"Ġtherap":6812,"Ġhorse":6813,"Ġactively":6814,"Ġwhenever":6815,"Ġpresents":6816,"osit":6817,"Ġconcrete":6818,"uration":6819,"Ġartificial":6820,"Ġresolution":6821,"Ġoptimize":6822,"ointed":6823,"ailable":6824,"ĠThank":6825,"ĠClin":6826,"Ġautomation":6827,"Pre":6828,"ĠVict":6829,"Ġapplying":6830,"Ġposted":6831,"ĠWhere":6832,"Ġmerch":6833,"Ġcasual":6834,"ĠLocal":6835,"Ġpublish":6836,"Ġradio":6837,"Ġplanned":6838,"ĠLink":6839,"Ġmoisture":6840,"Ġnutri":6841,"Am":6842,"Te":6843,"Ġped":6844,"ĠHill":6845,"ĠRock":6846,"Ġconsequences":6847,"dep":6848,"bi":6849,"Ġdates":6850,"Ġreson":6851,"Ġmold":6852,"urious":6853,"Rec":6854,"Ġther":6855,"no":6856,"ĠSociety":6857,"Ġbags":6858,"Ġexperiment":6859,"Ġreduction":6860,"Ġast":6861,"Although":6862,"Ġpopularity":6863,"ĠSafety":6864,"Ġstain":6865,"Ġobst":6866,"Ġexcellence":6867,"alled":6868,"Ġgentle":6869,"Fi":6870,"Ġseemed":6871,"Ġsaving":6872,"Ġextract":6873,"gend":6874,"Ġplanet":6875,"ĠAbout":6876,"novation":6877,"vity":6878,"ĠTwo":6879,"ĠMuseum":6880,"ĠSports":6881,"Ġstylish":6882,"Ġcharged":6883,"Ġgall":6884,"Ġcharacteristics":6885,"26":6886,"Ġencounter":6887,"ĠProfessional":6888,"ĠVirgin":6889,"Ġhiring":6890,"Ġfaced":6891,"ĠSupp":6892,"Ġfocuses":6893,"Ġtooth":6894,"ubs":6895,"Ġsusp":6896,"Ġfo":6897,"Ġsuggests":6898,"respond":6899,"UN":6900,"ĠPan":6901,"Ġcoordin":6902,"ĠThom":6903,"ĠEnviron":6904,"Ġrapidly":6905,"Ġstruggle":6906,"Ġzero":6907,"Ġreliability":6908,"umps":6909,"Ġtells":6910,"Ġwriter":6911,"Ġpleasure":6912,"Ġsky":6913,"Ġconver":6914,"Ġstreaming":6915,"Ġlicensed":6916,"pie":6917,"elry":6918,"isher":6919,"Ġsalt":6920,"Ġthreats":6921,"arks":6922,"ĠDi":6923,"Ġturns":6924,"ĠRE":6925,"pending":6926,"ĠPack":6927,"pons":6928,"Ġlived":6929,"Ġmemories":6930,"ita":6931,"Ġsolve":6932,"ĠDoes":6933,"Ġhappening":6934,"Ġfailed":6935,"Ġintent":6936,"Ġconfirmed":6937,"Ġlessons":6938,"isk":6939,"Ġspeech":6940,"Ġliability":6941,"Ġiconic":6942,"Ġmortgage":6943,"ua":6944,"edy":6945,"Ġages":6946,"ĠAD":6947,"Ġexpression":6948,"Ġlegit":6949,"cher":6950,"Ġnorth":6951,"Ġillness":6952,"Ġconstant":6953,"Ġobjects":6954,"Ġnative":6955,"ĠiPhone":6956,"Ġheating":6957,"ste":6958,"Ġcommunications":6959,"Ġdreams":6960,"Ġpresentation":6961,"ĠSolutions":6962,"ĠÃ":6963,"Ġiron":6964,"Ġhouses":6965,"wear":6966,"ĠðŁ":6967,"Ġpurs":6968,"Ġspr":6969,"Ġprecision":6970,"driven":6971,"Ġbold":6972,"Ġabilities":6973,"Ġlosses":6974,"Ġaddressing":6975,"eping":6976,"SS":6977,"Ġpil":6978,"Ġkit":6979,"ĠAnother":6980,"afe":6981,"Ġexpansion":6982,"proof":6983,"Ġsouth":6984,"ĠAcademy":6985,"Ġlistening":6986,"ĠProm":6987,"Ġpride":6988,"MA":6989,"Ġcurrency":6990,"Ġhabit":6991,"ĠPolicy":6992,"Ġstudio":6993,"Ġtact":6994,"Ġstars":6995,"ĠCond":6996,"ĠCorpor":6997,"endar":6998,"Ġgained":6999,"amples":7000,"Ġportion":7001,"profit":7002,"Ġsufficient":7003,"Ġguard":7004,"Ġkick":7005,"Ġblow":7006,"33":7007,"Ġtear":7008,"Ġtested":7009,"pact":7010,"ĠWho":7011,"Ġlever":7012,"Ġsafely":7013,"Ġpersonally":7014,"ĠVeg":7015,"Ġprotocol":7016,"Ġsuperior":7017,"Ġfrust":7018,"ii":7019,"Ġpin":7020,"ĠIr":7021,"Ġkilled":7022,"ench":7023,"ventional":7024,"ĠColl":7025,"ĠList":7026,"nowned":7027,"ani":7028,"ĠRev":7029,"lined":7030,"table":7031,"Ġscholars":7032,"ĠChic":7033,"FL":7034,"Ġimprovements":7035,"ĠRemember":7036,"Ġfundamental":7037,"Ġhistoric":7038,"iking":7039,"ĠMoreover":7040,"zes":7041,"Ġnoise":7042,"Ġstrengthen":7043,"ĠRad":7044,"step":7045,"Ġexpressed":7046,"Ġformal":7047,"Ġdie":7048,"ĠLast":7049,"ĠScott":7050,"Ġearned":7051,"Ġclothes":7052,"27":7053,"Ġgro":7054,"Ġdiss":7055,"ĠTim":7056,"Ġembrace":7057,"Ġfif":7058,"Ġfirstname":7059,"avy":7060,"Ġhumans":7061,"ĠTraining":7062,"Ġends":7063,"Rem":7064,"ĠBer":7065,"reement":7066,"ĠUkraine":7067,"Ġinitiative":7068,"Ġdispos":7069,"igr":7070,"Ġdisput":7071,"anged":7072,"Ġapproval":7073,"Ġachieving":7074,"Ġwid":7075,"Ġmood":7076,"Ġaesthetic":7077,"ĠLos":7078,"Ġnearby":7079,"ĠAnaly":7080,"Ġbact":7081,"inating":7082,"Ġflood":7083,"Ġsilver":7084,"lers":7085,"teries":7086,"28":7087,"Ġinteraction":7088,"Ġtab":7089,"Ġmarried":7090,"Cons":7091,"ĠCra":7092,"ĠTax":7093,"ĠEns":7094,"Ġsubscription":7095,"Ġgifts":7096,"Ġstorm":7097,"Ġdecade":7098,"ĠPass":7099,"Ġdiscussed":7100,"Ġfly":7101,"Ġalt":7102,"ĠAsk":7103,"Ġ300":7104,"Ġunlike":7105,"weet":7106,"Ġunexpected":7107,"Qu":7108,"TC":7109,"itar":7110,"hors":7111,"Ġcustomized":7112,"Ġfigures":7113,"Ġinventory":7114,"Ġrough":7115,"ATION":7116,"Ġchief":7117,"Ġcbd":7118,"Ġstored":7119,"ĠTimes":7120,"Ġpercentage":7121,"ials":7122,"Ġinstant":7123,"iner":7124,"othe":7125,"Ġbutter":7126,"Ġmusical":7127,"Ġentr":7128,"\".":7129,"ĠFederal":7130,"Ġspecialist":7131,"brid":7132,"%.":7133,"Ġjudge":7134,"IR":7135,"Ġarts":7136,"ĠOld":7137,"Ġconversations":7138,"Ġutilizing":7139,"Ġmaximize":7140,"Ġfro":7141,"ĠConsult":7142,"Ġsucceed":7143,"ena":7144,"Ġsumm":7145,"Ġnine":7146,"Ġinner":7147,"athy":7148,"Ġpermanent":7149,"Ġbalanced":7150,"Ġtournam":7151,"Ġperforming":7152,"Ġexceed":7153,"LA":7154,"irty":7155,"achel":7156,"ĠPM":7157,"Ġuncertain":7158,"Ġversions":7159,"Ġlend":7160,"igan":7161,"Ġforced":7162,"Ġpromise":7163,"Ġofficer":7164,"ĠLt":7165,"Ġfellow":7166,"Ġperm":7167,"Ġdisrupt":7168,"Ġfeatured":7169,"ria":7170,"Ġacts":7171,"ĠProcess":7172,"Ġdust":7173,"Ġcenters":7174,"Ġfilms":7175,"Ġstronger":7176,"Ġsectors":7177,"Ġcomplain":7178,"bration":7179,"Ġbought":7180,"ilst":7181,"Ġcaught":7182,"Ġelectricity":7183,"which":7184,"Ġremarkable":7185,"Ġreferred":7186,"Ġwellness":7187,"Ġbrown":7188,"Ġbelieved":7189,"Ġalike":7190,"Ġexperiencing":7191,"Ġinfo":7192,"Ġtrouble":7193,"eah":7194,"iary":7195,"Ġsetup":7196,"Ġimplementing":7197,"Ġimpossible":7198,"uts":7199,"ĠSales":7200,"Ġdriven":7201,"Ġgrass":7202,"Ġowned":7203,"ls":7204,"Ġrid":7205,"Ġthemes":7206,"ĠCR":7207,"Ġchicken":7208,"CE":7209,"azz":7210,"Ġinches":7211,"Ġrising":7212,"asant":7213,"ustain":7214,"Ġcontributions":7215,"ographic":7216,"rence":7217,"Ġsurprise":7218,"ĠMill":7219,"Ġrecorded":7220,"Ġlogo":7221,"ĠStore":7222,"Ġmitig":7223,"Ġintense":7224,"ĠSmith":7225,"ĠBrown":7226,"Ġmir":7227,"ĠCup":7228,"Ġvictory":7229,"ĠAT":7230,"ĠItalian":7231,"anish":7232,"Ġdownt":7233,"ĠRegular":7234,"ĠEnd":7235,"urning":7236,"Ġcomplement":7237,"Ġgraphics":7238,"Ġear":7239,"Ġhero":7240,"Ġfishing":7241,"Ġmountain":7242,"ĠWatch":7243,"Ġwash":7244,"Ġlegislation":7245,"okes":7246,"Even":7247,"OP":7248,"Ġobtained":7249,"Ġemissions":7250,"Ġextent":7251,"Ġpenal":7252,"makers":7253,"Ġtank":7254,"Ġbanking":7255,"ĠExecutive":7256,"Ġtou":7257,"Ġspark":7258,"Ġbehalf":7259,"kay":7260,"eto":7261,"Ġundert":7262,"ĠPR":7263,"Ġtheory":7264,"Ġprocessed":7265,"Ġsafegu":7266,"ĠArts":7267,"ĠCD":7268,"abis":7269,"ĠTown":7270,"ifting":7271,"Ġjoining":7272,"Ġretirement":7273,"rid":7274,"Ġerrors":7275,"ĠSeries":7276,"ĠAL":7277,"ĠThose":7278,"Ġfolks":7279,"ĠLand":7280,"Ġfits":7281,"ĠJud":7282,"Ġconcepts":7283,"Ġreduces":7284,"ĠIre":7285,"Ġconsistently":7286,"Ġweekly":7287,"uis":7288,"using":7289,"aying":7290,"Ġtaught":7291,"ĠShop":7292,"Ġprison":7293,"ĠRequ":7294,"Ġemerging":7295,"ĠSand":7296,"orous":7297,"ĠGeorge":7298,"Ġfru":7299,"Ġlandscap":7300,"Ġevaluation":7301,"Ġvisible":7302,"va":7303,"Ġcrew":7304,"ented":7305,"Ġprotecting":7306,"igned":7307,"ourage":7308,"Ġborrow":7309,"ye":7310,"Ġperiods":7311,"Ġasp":7312,"OD":7313,"Where":7314,"ĠMexico":7315,"Ġworse":7316,"Ġdive":7317,"Ġcorrespond":7318,"prises":7319,"Ġsignificance":7320,"Ġrecover":7321,"Ġfacts":7322,"Lear":7323,"Ġconscious":7324,"ĠParis":7325,"ĠNor":7326,"esides":7327,"Pe":7328,"ecurity":7329,"Ġarrived":7330,"ĠTravel":7331,"ĠCult":7332,"Ġimpacts":7333,"Ġmedication":7334,"ĠLearning":7335,"Ġofficers":7336,"Ġproducing":7337,"Ġhabits":7338,"Ġbear":7339,"Ġstretch":7340,"Ġdescription":7341,"Ġsymbols":7342,"commerce":7343,"Ġsubsequ":7344,"Ġparticipation":7345,"eling":7346,"Ġtemperatures":7347,"Ġinterpret":7348,"ĠSmart":7349,"Man":7350,"stream":7351,"Ġreflects":7352,"Ġpassionate":7353,"Ġentered":7354,"Ġranking":7355,"Ġemployer":7356,"ĠJournal":7357,"Ġarrive":7358,"kers":7359,"ĠHelp":7360,"Ġ196":7361,"Ġcorrectly":7362,"eller":7363,"abetes":7364,"ĠAR":7365,"BS":7366,"Ġyes":7367,"Ġrequirement":7368,"Ġalternatives":7369,"po":7370,"Ġevaluate":7371,"Ġcontrols":7372,"ĠNY":7373,"ĠVer":7374,"icket":7375,"Ġyield":7376,"mal":7377,"Ġadequ":7378,"Ġsending":7379,"ĠPot":7380,"Ġstakeholders":7381,"idays":7382,"uct":7383,"Ðµ":7384,"Ġunderst":7385,"uma":7386,"ingly":7387,"Ġdesigner":7388,"Ġstead":7389,"Ġcyber":7390,"29":7391,"imal":7392,"Ġhaz":7393,"ĠQuality":7394,"Ġdegrees":7395,"burg":7396,"Ġbasket":7397,"ĠWall":7398,"hered":7399,"Ġindicate":7400,"you":7401,"ĠChat":7402,"ĠLin":7403,"ellectual":7404,"nic":7405,"osite":7406,"Ġcritic":7407,"uris":7408,"Ġstraightforward":7409,"Ġreject":7410,"Ġsharp":7411,"Ġtradition":7412,"Ġrecruit":7413,"Ġisol":7414,"Ġstages":7415,"ĠNext":7416,"Ġrecyc":7417,"site":7418,"ĠMen":7419,"Ġpasseng":7420,"Ġfounded":7421,"ĠLo":7422,"ĠMobile":7423,"Ġsuffering":7424,"Ġaccord":7425,"ĠAutom":7426,"Ġvillage":7427,"ealand":7428,"Ġtelevision":7429,"ĠNOT":7430,"Ġlunch":7431,"Ġresilience":7432,"Ġchocolate":7433,"Ġdishes":7434,"Ġfinancing":7435,"Ġbills":7436,"Ġtut":7437,"ĠAngeles":7438,"erent":7439,"Ġyounger":7440,"ĠFurthermore":7441,"Ġmuse":7442,"Who":7443,"Ġterrit":7444,"Ġgameplay":7445,"77":7446,"ĠMach":7447,"yan":7448,"appy":7449,"ancer":7450,"can":7451,"Ġinject":7452,"Ġsample":7453,"Ġscheme":7454,"oty":7455,"Ġreaching":7456,"Ġofferings":7457,"ĠChair":7458,"Ġtwice":7459,"ĠLED":7460,"Ġrenowned":7461,"Ġembra":7462,"function":7463,"ĠIran":7464,"Ġflavors":7465,"ĠMiddle":7466,"Ġimagine":7467,"rates":7468,"Ġassum":7469,"ĠChicago":7470,"ĠCloud":7471,"Ġcalm":7472,"UT":7473,"erts":7474,"isms":7475,"Ġ2008":7476,"ĠDen":7477,"Ġlets":7478,"Ġesc":7479,"ĠRoyal":7480,"ĠTool":7481,"alse":7482,"Ġmainly":7483,"Ġscheduled":7484,"Ġlegacy":7485,"plete":7486,"vin":7487,"Ġloyalty":7488,"Ġtro":7489,"Ġforth":7490,"ĠDespite":7491,"Ġfavourite":7492,"Ġupper":7493,"Ġdiscussions":7494,"Ġherself":7495,"isters":7496,"Ġpackages":7497,"Ġ2009":7498,"Ġrating":7499,"orce":7500,"Ġbread":7501,"Ġequity":7502,"ĠLouis":7503,"mans":7504,"Ġcertification":7505,"obby":7506,"Ġheritage":7507,"Ġgrab":7508,"Ġenforcement":7509,"ĠChildren":7510,"Ġscal":7511,"tr":7512,"Ġtone":7513,"Ġpermit":7514,"ele":7515,"phones":7516,"Free":7517,"Ġsuppliers":7518,"Ġwet":7519,"Ġprove":7520,"Ġrefresh":7521,"Ġupload":7522,"asters":7523,"Ġbless":7524,"Ġestimated":7525,"ĠStr":7526,"Ġcrowd":7527,"arat":7528,"ĠON":7529,"ĠIreland":7530,"ĠOl":7531,"ĠGeorg":7532,"Ġillegal":7533,"ĠLtd":7534,"Ġpurchases":7535,"Ġcrafts":7536,"Disc":7537,"Ġownership":7538,"Ġsplit":7539,"Comm":7540,"Ġinterf":7541,"Ġmixed":7542,"ersey":7543,"ulating":7544,"Ġfulfill":7545,"Ġwarranty":7546,"utter":7547,"Ġmoves":7548,"Ġoffices":7549,"Ġraw":7550,"ĠNon":7551,"ternoon":7552,"ĠLLC":7553,"izer":7554,"Ġprinting":7555,"Each":7556,"Ġgrew":7557,"ĠProtection":7558,"ruption":7559,"Ġgenerated":7560,"Ġpace":7561,"Ġ*":7562,"intage":7563,"Ġfostering":7564,"Ġhonor":7565,"ĠIsl":7566,"fting":7567,"rently":7568,"gypt":7569,"Ġadditionally":7570,"Ġprioritize":7571,"Ġbrush":7572,"Ġsurge":7573,"Ġspots":7574,"ĠZealand":7575,"Ġacquis":7576,"Ġintu":7577,"Understanding":7578,"igen":7579,"Ġâ":7580,"ðĿ":7581,"Ġtransparency":7582,"itution":7583,"ĠDownload":7584,"Ġeco":7585,"Ġquote":7586,"away":7587,"ĠFull":7588,"ĠPak":7589,"Ġfighting":7590,"ĠUser":7591,"rencies":7592,"Other":7593,"onge":7594,"gs":7595,"Ġfer":7596,"Wor":7597,"ao":7598,"Ã¡":7599,"Ġborder":7600,"Ke":7601,"Ġautomated":7602,"Ġbreaking":7603,"Ġaudiences":7604,"ĠSqu":7605,"ĠAgreement":7606,"ache":7607,"Fe":7608,"cers":7609,"Ġaccomplish":7610,"Ġvacation":7611,"Ġsolely":7612,"ĠTerms":7613,"host":7614,"Ġexplains":7615,"Ġcontracts":7616,"Ġusual":7617,"Ġpanels":7618,"Ġseamlessly":7619,"ĠBiden":7620,"Ġforecast":7621,"Ġbottle":7622,"See":7623,"real":7624,"ĠVideo":7625,"vy":7626,"Ġcolleagues":7627,"Ġduty":7628,"Ġmarked":7629,"ĠImpro":7630,"effective":7631,"Ġcheese":7632,"uing":7633,"Ġriver":7634,"Ġphilosoph":7635,"ĠSecond":7636,"Ġbreast":7637,"Ġshowcase":7638,"ĠDou":7639,"Ġdocumentation":7640,"ĠPlace":7641,"criptions":7642,"Ġcomplicated":7643,"ĠIll":7644,"ĠSpanish":7645,"Ġentrepreneurs":7646,"inem":7647,"state":7648,"Ġdecent":7649,"âĢĻ,":7650,"Ġlapt":7651,"ĠJohns":7652,"Ġanalyze":7653,"ĠTreat":7654,"Ġfindings":7655,"Ġsignal":7656,"95":7657,"Ġsight":7658,"Ġconsists":7659,"Ġteen":7660,"ĠDiff":7661,"esome":7662,"ura":7663,"Ġvegetables":7664,"ĠEnh":7665,"umbing":7666,"ĠBuilding":7667,"Per":7668,"sem":7669,"Ġbreed":7670,"Ġunlock":7671,"Today":7672,"TP":7673,"erate":7674,"Ġsurve":7675,"Ġessence":7676,"ME":7677,"inity":7678,"Ġcryst":7679,"Ġdrawing":7680,"ĠWeek":7681,"Ġgap":7682,"ĠBonus":7683,"ĠSoftware":7684,"Ġhomeowners":7685,"Ġdamages":7686,"ĠSn":7687,"Ġdemonstrate":7688,"ĠRights":7689,"FA":7690,"Ġrank":7691,"ĠEV":7692,"HS":7693,"Spe":7694,"Ġhes":7695,"Ġchecking":7696,"Ġyellow":7697,"Ġgreatly":7698,"ĠHaw":7699,"Ġscan":7700,"ĠPeter":7701,"ĠInteg":7702,"Ġoral":7703,"Ġlanguages":7704,"ĠSystems":7705,"rogen":7706,"ato":7707,"Ġtechnological":7708,"uclear":7709,"ione":7710,"Ġemployers":7711,"ĠTru":7712,"Ġsophisticated":7713,"ocated":7714,"ĠFestival":7715,"vas":7716,"DS":7717,"Ġboxes":7718,"Ġjewelry":7719,"icted":7720,"acific":7721,"Ġcontrolled":7722,"atre":7723,"ctor":7724,"Ġthin":7725,"Ġcock":7726,"Ġaddresses":7727,"Ġrecording":7728,"Ġbelieves":7729,"Ġgenerations":7730,"Ġharmful":7731,"ĠNov":7732,"Ġcaut":7733,"Ġexercises":7734,"ĠSpace":7735,"uous":7736,"Ġexposed":7737,"ĠHR":7738,"Ġcelebration":7739,"Ġcontinuing":7740,"Ġpreparing":7741,"Ġmarks":7742,"Ġintroduce":7743,"ĠWordPress":7744,"ĠPolice":7745,"ĠBang":7746,"ĠEmb":7747,"Ġbroader":7748,"Any":7749,"Ġovercome":7750,"Ġcrafted":7751,"Ġgod":7752,"Ġelegant":7753,"Ġwins":7754,"Ġcommittee":7755,"ĠItaly":7756,"Ġupgrade":7757,"Ġfarmers":7758,"Ġempt":7759,"Ġwag":7760,"Ġappealing":7761,"ĠPhot":7762,"Ġentering":7763,"Ġwider":7764,"Ġcompare":7765,"Ġsynt":7766,"Ġbridge":7767,"TA":7768,"ĠFrank":7769,"ĠCoast":7770,"Ġnarrow":7771,"Ġfourth":7772,"west":7773,"terior":7774,"ga":7775,"Ġfoster":7776,"Ġgrade":7777,"Ġscope":7778,"page":7779,"Ġplate":7780,"Ġtrick":7781,"Ġcombat":7782,"Ġmuscles":7783,"Ġphen":7784,"law":7785,"Ġphotography":7786,"ieties":7787,"Ġdesigners":7788,"Ġsurfaces":7789,"ĠOil":7790,"Ġimmune":7791,"ĠÐ":7792,"Ġentit":7793,"uls":7794,"ĠAsian":7795,"Ġphr":7796,"Ġminimize":7797,"Ġidentifying":7798,"Ġblockchain":7799,"PN":7800,"Ġnormally":7801,"Ġsour":7802,"isco":7803,"Ġdestroy":7804,"Ġarms":7805,"ĠWay":7806,"Ġtimely":7807,"44":7808,"Ġtelling":7809,"Ġroulette":7810,"Ġcovering":7811,"Ġmovements":7812,"Ġawards":7813,"Ġfrequent":7814,"otive":7815,"Ġextension":7816,"Ġdefault":7817,"Ġbirthday":7818,"Ġslowly":7819,"ulum":7820,"Ġprofound":7821,"Ġpreventing":7822,"Ġbedroom":7823,"asm":7824,"Ġreform":7825,"Ġimper":7826,"Best":7827,"Ġglobe":7828,"Ġengines":7829,"cend":7830,"Ġairport":7831,"Ġsister":7832,"Ġhall":7833,"ĠGrow":7834,"ixture":7835,"ĠFed":7836,"ĠAgency":7837,"Ġmatt":7838,"Ġseriously":7839,"xic":7840,"Ġterror":7841,"uke":7842,"Ġfacilitate":7843,"Ġtemporary":7844,"Ġboundaries":7845,"ĠRo":7846,"ĠHaving":7847,"Ġintroduction":7848,"ĠVictor":7849,"Ġdevelopments":7850,"itate":7851,"Ġedition":7852,"Ġsuggested":7853,"Ġprogramming":7854,"ĠDog":7855,"Ġthrive":7856,"ĠUnderstanding":7857,"Ġ2000":7858,"astern":7859,"Ġaimed":7860,"paper":7861,"ĠEgypt":7862,"Ġlimitations":7863,"ership":7864,"Ġcompass":7865,"Ġprev":7866,"Ġalleged":7867,"sle":7868,"Ġflour":7869,"do":7870,"itt":7871,"ĠSuch":7872,"ĠJoin":7873,"Ġafternoon":7874,"onds":7875,"Ġconversion":7876,"Ġsatisfied":7877,"Ġsought":7878,"Ġstreets":7879,"ĠFarm":7880,"lude":7881,"ĠSelect":7882,"Ġenroll":7883,"isdom":7884,"Ġcharging":7885,"Ġaccounting":7886,"world":7887,"Ġexploration":7888,"Ġnecessarily":7889,"Ġapparent":7890,"Ġpra":7891,"Ġhook":7892,"Ġresponsibilities":7893,"ĠTry":7894,"Ġloves":7895,"Ġtargets":7896,"Ġexpanding":7897,"including":7898,"ĠFOR":7899,"Ġnoticed":7900,"Ġmissed":7901,"urb":7902,"ĠHotel":7903,"Ġgate":7904,"Ġadoption":7905,"market":7906,"ĠSS":7907,"Ġmini":7908,"Part":7909,"Ġevolving":7910,"Ġshops":7911,"Ġrail":7912,"olit":7913,"gi":7914,"Ġmedications":7915,"Ġindeed":7916,"Ġpollut":7917,"Ġacting":7918,"Ġreputable":7919,"ĠCredit":7920,"theless":7921,"Ġperformances":7922,"Ġchemicals":7923,"ĠCarolina":7924,"lywood":7925,"ĠGal":7926,"Also":7927,"Ġsections":7928,"Ġaffiliate":7929,"Ġformed":7930,"manship":7931,"ĠWorks":7932,"Ġobjective":7933,"ĠOfficer":7934,"ession":7935,"Ġelegance":7936,"Ġattached":7937,"orse":7938,"gic":7939,"Ġdisp":7940,"eness":7941,"Ġpowder":7942,"Ġsupposed":7943,"Ġhttp":7944,"ppers":7945,"Ġincorporate":7946,"apore":7947,"comm":7948,"ĠShould":7949,"Ġaccum":7950,"Ġtiny":7951,"Ġimplemented":7952,"olves":7953,"Ġinspire":7954,"Ġfib":7955,"Ġkne":7956,"raid":7957,"Ġdispl":7958,"ĠOrder":7959,"ĠSup":7960,"Ġindoor":7961,"Ġencouraged":7962,"Ġcontributing":7963,"Ġexch":7964,"Ġalter":7965,"sts":7966,"ĠCook":7967,"Ġdescribe":7968,"Ġevolution":7969,"Ġethical":7970,"Ġorganisation":7971,"Ġoccurs":7972,"Ġdrinking":7973,"REE":7974,"ĠCross":7975,"mony":7976,"Use":7977,"Ġdigest":7978,"aver":7979,"Ġtip":7980,"wo":7981,"Ġcoaching":7982,"Ġsuggestions":7983,"Ġpersons":7984,"Ġpassing":7985,"Ġvictims":7986,"Ġstopped":7987,"Ġwinner":7988,"ologist":7989,"ĠHospital":7990,"Ġshower":7991,"ircle":7992,"ĠPrime":7993,"Ġresolve":7994,"raction":7995,"Ġpiv":7996,"berry":7997,"Ġchronic":7998,"Ġsubmitted":7999,"Ġcompetitors":8000,"alysis":8001,"Ġinflation":8002,"Ġinflamm":8003,"urisd":8004,"ja":8005,"born":8006,"zil":8007,"Welcome":8008,"Sim":8009,"Ġmild":8010,"Ġworkflow":8011,"Ġsick":8012,"Ġresponses":8013,"utch":8014,"Follow":8015,"lder":8016,"Ġconcerning":8017,"Ġnone":8018,"Ġoriginally":8019,"Ġtwist":8020,"mercial":8021,"Inst":8022,"Ġbreakfast":8023,"Ġwarn":8024,"stery":8025,"Ġcombine":8026,"Ġinitially":8027,"edia":8028,"ĠKingdom":8029,"Ġ...":8030,"ĠView":8031,"Ġfairly":8032,"Ġdrain":8033,"Ġpets":8034,"Ġworkforce":8035,"Ġcombines":8036,"oven":8037,"Ġspoke":8038,"Ġnarrative":8039,"ĠVirginia":8040,"Ġfaces":8041,"Ġgraduate":8042,"ĠEnt":8043,"anted":8044,"Ġcable":8045,"ipt":8046,"ĠDI":8047,"Ġinstitution":8048,"Ġouts":8049,"Check":8050,"ĠAS":8051,"Ġprohib":8052,"Ġcomply":8053,"Ġeggs":8054,"Ġtag":8055,"Ġsegment":8056,"Ġpermission":8057,"Ġpolitics":8058,"ĠHistory":8059,"ĠJoe":8060,"Ġinfection":8061,"ĠFair":8062,"Ġlifetime":8063,"Ġ=":8064,"Ġprofits":8065,"Ġexception":8066,"Ġescape":8067,"ĠPakistan":8068,"ĠChampions":8069,"Ġtransparent":8070,"atching":8071,"Ġprinted":8072,"ĠDubai":8073,"Ġrealm":8074,"Ġmistakes":8075,"ordinary":8076,"kins":8077,"Ġmerely":8078,"yard":8079,"ĠCreate":8080,"Ġneut":8081,"ults":8082,"Ġfaculty":8083,"Ġda":8084,"Ġpursue":8085,"onic":8086,"ella":8087,"Ġaccordance":8088,"Ġlayout":8089,"Ġdrag":8090,"ĠiOS":8091,"ĠYet":8092,"duate":8093,"ennis":8094,"ĠAri":8095,"lymp":8096,"Ġreveal":8097,"Ġplacing":8098,"Ġcoat":8099,"Ġranging":8100,"Ġenterprises":8101,"osc":8102,"55":8103,"Ġacknowled":8104,"Ġchapter":8105,"Ġdrinks":8106,"Ġinspection":8107,"ĠMo":8108,"Ġhorm":8109,"Ġshock":8110,"Ġpersonnel":8111,"Thank":8112,"rape":8113,"Ġdoctors":8114,"ĠIde":8115,"ican":8116,"istent":8117,"looking":8118,"ivals":8119,"Ġleverage":8120,"ĠInstall":8121,"Ġnewsletter":8122,"Ġpleased":8123,"Ġstruggling":8124,"Ġparticipating":8125,"Ġmemorable":8126,"Ġphotograp":8127,"Ġlargely":8128,"Ġzone":8129,"Ġawarded":8130,"Ġcalendar":8131,"Ġsafeguard":8132,"hem":8133,"Ġdys":8134,"ĠFuture":8135,"Ġfascinating":8136,"Ġsin":8137,"ĠLow":8138,"Ġprovision":8139,"Ġpray":8140,"ĠEngineering":8141,"ĠNeed":8142,"ulf":8143,"Ġoperators":8144,"Ġtraveling":8145,"RS":8146,"Ġvulnerable":8147,"Ġcher":8148,"aza":8149,"haust":8150,"ĠJustice":8151,"ĠSpirit":8152,"Ġaccessibility":8153,"ĠSU":8154,"Ġexport":8155,"Join":8156,"Ġbuyer":8157,"Additionally":8158,"Ġpeak":8159,"Ġorganisations":8160,"uties":8161,"Ġfranch":8162,"Ġstrike":8163,"Ġfewer":8164,"Ġinclusive":8165,"Ġyoga":8166,"Ġindex":8167,"Ġdism":8168,"urities":8169,"ĠFac":8170,"ĠThus":8171,"ĠBox":8172,"Ġsuits":8173,"Ġdepression":8174,"Ġauthors":8175,"Ġtall":8176,"Ġinvited":8177,"Ġconnecting":8178,"Ġlift":8179,"Ġrural":8180,"ĠCP":8181,"Exper":8182,"bor":8183,"Ġdivid":8184,"Ġsett":8185,"agon":8186,"Ġvisits":8187,"Ġseeds":8188,"ĠMid":8189,"Ġwra":8190,"Ġdelivers":8191,"Ġrestore":8192,"34":8193,"ĠTele":8194,"Ġcarrying":8195,"through":8196,"Â°":8197,"Ġlovely":8198,"Ġcooperation":8199,"Ġluxurious":8200,"Ġcotton":8201,"ĠHard":8202,"Ġpartnerships":8203,"Ġstrive":8204,"Ġattach":8205,"orship":8206,"iti":8207,"Ġmassage":8208,"Ġbirds":8209,"Ġrealized":8210,"aper":8211,"ĠCommon":8212,"ERS":8213,"Have":8214,"Custom":8215,"Ġdealer":8216,"Ġcaptivating":8217,"ĠFact":8218,"eras":8219,"charge":8220,"Click":8221,"Ġartistic":8222,"Ġearnings":8223,"Ġsad":8224,"Ġclaimed":8225,"Ġendless":8226,"Ġshooting":8227,"II":8228,"ĠSearch":8229,"Ġcryptocurrency":8230,"Well":8231,"ĠOm":8232,"Ġelevate":8233,"Ġlikes":8234,"ĠCath":8235,"ĠTen":8236,"ĠContin":8237,"Ġpm":8238,"ĠTit":8239,"Ġsupplements":8240,"ĠJose":8241,"ĠEnjoy":8242,"ĠCast":8243,"ĠEss":8244,"print":8245,"Ġdisplayed":8246,"ĠWi":8247,"Ġconvey":8248,"Ġclosing":8249,"Ġdil":8250,"Ġfalse":8251,"Ġsauce":8252,"ĠEr":8253,"Ġshapes":8254,"Ġlegs":8255,"Ġbehavi":8256,"ĠJob":8257,"High":8258,"ĠâĤ¬":8259,"ognitive":8260,"ĠSmall":8261,"Ġapartment":8262,"iral":8263,"ĠCH":8264,"Ġcompr":8265,"Ġbid":8266,"ĠSP":8267,"ĠPartners":8268,"ĠVegas":8269,"Ġbars":8270,"ĠBuild":8271,"pack":8272,"oos":8273,"ĠScot":8274,"Make":8275,"ĠMoney":8276,"hire":8277,"author":8278,"ĠWithout":8279,"ĠSea":8280,"Ġbrill":8281,"ĠCapital":8282,"ĠYoung":8283,"Ġlayers":8284,"Ġcannabis":8285,"Ã¢":8286,"elly":8287,"Ġintricate":8288,"Ġintellectual":8289,"EW":8290,"Ġincorporating":8291,"Ġquantity":8292,"Ġafraid":8293,"Ġlisting":8294,"Ġcompelling":8295,"ĠRen":8296,"Add":8297,"ĠPDF":8298,"Despite":8299,"adow":8300,"Ġshed":8301,"Ġdefe":8302,"Ġfiled":8303,"tech":8304,"Ġoverwhelming":8305,"ĠHD":8306,"ĠPhys":8307,"Ġnewly":8308,"Ġscientists":8309,"Ġsignature":8310,"oding":8311,"Ġrefers":8312,"Ġbacteria":8313,"Ġhyper":8314,"Ġthoroughly":8315,"Ġvisa":8316,"Ġpromotion":8317,"Ġran":8318,"Ġblank":8319,"Sm":8320,"Ġdeck":8321,"izable":8322,"Ġroots":8323,"32":8324,"ĠSky":8325,"Ġtimeless":8326,"Ġpregnancy":8327,"cm":8328,"Ġseed":8329,"Ġallerg":8330,"ĠStudents":8331,"ampion":8332,"Ġalive":8333,"Ġopinions":8334,"ĠAvoid":8335,"ĠRoman":8336,"Ġsheet":8337,"Ġ48":8338,"Ġinstantly":8339,"Ġguitar":8340,"Ġdiabetes":8341,"Ġdirected":8342,"anned":8343,"Ġheads":8344,"oured":8345,"Ġgovernments":8346,"ĠSometimes":8347,"grade":8348,"power":8349,"Ġaside":8350,"Ġguides":8351,"Ġbench":8352,"Ġrepresentation":8353,"Ġjurisd":8354,"Ġvenue":8355,"fall":8356,"that":8357,"ogen":8358,"ĠHarr":8359,"ĠMade":8360,"fulness":8361,"ĠType":8362,"Ġclarity":8363,"Ġtransmission":8364,"36":8365,"FC":8366,"scale":8367,"esh":8368,"Ġpromises":8369,"cycle":8370,"gency":8371,"Ġfounder":8372,"Ġfinest":8373,"Ġrelaxation":8374,"Ġmine":8375,"Ġcopyright":8376,"Ġrice":8377,"Ġconventional":8378,"Ġeliminate":8379,"Ġmeticul":8380,"Ġmattress":8381,"ĠSingapore":8382,"Ġspecialists":8383,"Ġprize":8384,"ĠCharl":8385,"ĠExplore":8386,"ĠMinistry":8387,"Ġwithdrawal":8388,"Ġtissue":8389,"Ġdrawn":8390,"och":8391,"Ġimpression":8392,"UL":8393,"ĠSar":8394,"rolog":8395,"Ġdefine":8396,"Ġaccommodate":8397,"Ġcoc":8398,"ĠEmer":8399,"Ġequally":8400,"Ġworkshop":8401,"mentation":8402,"ĠNever":8403,"Ġunderlying":8404,"ucky":8405,"Aut":8406,"ĠJohnson":8407,"EST":8408,"rations":8409,"Ġrecipes":8410,"ĠOlymp":8411,"Ġinquir":8412,"Ġremoving":8413,"ĠLimited":8414,"liament":8415,"ailing":8416,"Ġhang":8417,"Ġrepeated":8418,"emed":8419,"Ġrow":8420,"Ġprominent":8421,"Ġexistence":8422,"anche":8423,"Ġpicked":8424,"ĠBible":8425,"Ġexplo":8426,"Of":8427,"iox":8428,"racy":8429,"lev":8430,"Ġhur":8431,"Ġamen":8432,"Key":8433,"anwhile":8434,"ĠSouthern":8435,"ĠProfessor":8436,"Ġfestival":8437,"iform":8438,"Ġtom":8439,"Ġvess":8440,"olving":8441,"Ġwaters":8442,"aste":8443,"ĠNigeria":8444,"Ġsmell":8445,"ĠThomas":8446,"Ġfactory":8447,"Ġessay":8448,"Ġbasically":8449,"Ġdraft":8450,"Ġworkshops":8451,"Ġpublication":8452,"Ġ75":8453,"TV":8454,"Ġattended":8455,"ĠProducts":8456,"Ġ150":8457,"Ġfollowers":8458,"Ġshouldn":8459,"Ġcontainer":8460,"ĠWrit":8461,"Ġid":8462,"Ġreplaced":8463,"Ġwave":8464,"Ġkeywords":8465,"bersecurity":8466,"ESS":8467,"Ġmac":8468,"Ġforever":8469,"limited":8470,"Ġoptimization":8471,"Ġgarage":8472,"ĠBow":8473,"Ġaircraft":8474,"Ġtum":8475,"ĠFA":8476,"gies":8477,"aze":8478,"Ġharder":8479,"Ġstudying":8480,"ĠEp":8481,"ĠPok":8482,"Through":8483,"Ġtracks":8484,"riculum":8485,"iams":8486,"rection":8487,"Ġcompact":8488,"RL":8489,"Ġautomatic":8490,"Ġrear":8491,"ĠMeet":8492,"ĠSpring":8493,"Ġbeer":8494,"Ġsupportive":8495,"Ġdebut":8496,"Ġverify":8497,"RC":8498,"Ġincentives":8499,"Ġdefect":8500,"Ġcrack":8501,"Ġcancell":8502,"Ġcompatible":8503,"Ġchecks":8504,"ovid":8505,"taining":8506,"Ġencourages":8507,"EE":8508,"Ġwise":8509,"ĠBenefits":8510,"Ġlightweight":8511,"Ġgrace":8512,"Ġspray":8513,"ietnam":8514,"Ġbroadcast":8515,"Ġdiscounts":8516,"Ġvib":8517,"Ġhack":8518,"Ġcompletion":8519,"Ġwinnings":8520,"Expl":8521,"Ġhel":8522,"Ġunus":8523,"Ġobligations":8524,"ĠGeorgia":8525,"oof":8526,"Ġworst":8527,"Ġcooling":8528,"ĠSecretary":8529,"Ġ2007":8530,"Ġintention":8531,"ĠRobert":8532,"Ġaccidents":8533,"Ġencouraging":8534,"Ġsaved":8535,"bert":8536,"ĠJim":8537,"Take":8538,"ially":8539,"aning":8540,"Ġgranted":8541,"Ġalumin":8542,"Ġletters":8543,"Ġoperates":8544,"Ġfruits":8545,"Ġproposal":8546,"Ġsacr":8547,"Ġimmersive":8548,"ĠPut":8549,"ĠPrice":8550,"Ġweapons":8551,"ĠJewish":8552,"Ġextraordinary":8553,"Ġhassle":8554,"Ġintegrate":8555,"ĠLibrary":8556,"Ġdevot":8557,"ĠNatural":8558,"Ġreturning":8559,"una":8560,"ounded":8561,"ateful":8562,"Ġtestim":8563,"ĠTal":8564,"Ġsurprising":8565,"Ġunfor":8566,"Ġscreens":8567,"Ġthread":8568,"Ġocean":8569,"Ġblocks":8570,"Ġcertificate":8571,"Ġdebate":8572,"irts":8573,"aken":8574,"she":8575,"fe":8576,"RI":8577,"Ġcomparison":8578,"ĠIdent":8579,"Ġoppon":8580,"AY":8581,"Ġhealthier":8582,"Ġholidays":8583,"Ġmur":8584,"Col":8585,"Ġware":8586,"ĠVan":8587,"Ġrequested":8588,"rets":8589,"Ġprofiles":8590,"ĠLevel":8591,"Ġunders":8592,"Ġstring":8593,"gical":8594,"Ġexpanded":8595,"ĠCA":8596,"agen":8597,"ilarly":8598,"ji":8599,"Ġsmartphone":8600,"Ġoccasions":8601,"ba":8602,"ĠArea":8603,"Ġcomplexity":8604,"gener":8605,"ĠStudies":8606,"lo":8607,"Ġfing":8608,"inn":8609,"Ġdeveloper":8610,"38":8611,"Ġawesome":8612,"Ġvisited":8613,"ĠAdministration":8614,"ĠTer":8615,"ĠMah":8616,"Ġblind":8617,"cessary":8618,"Ġcake":8619,"piece":8620,"unn":8621,"iana":8622,"ĠMaterial":8623,"ĠStat":8624,"Ġfinds":8625,"Ġ32":8626,"inter":8627,"umer":8628,"aid":8629,"Ġwriters":8630,"Ġbone":8631,"ĠPlatform":8632,"sters":8633,"ĠVe":8634,"Ġdifficulty":8635,"Ġstrain":8636,"Ġoils":8637,"ceived":8638,"ĠTech":8639,"eters":8640,"Ġpapers":8641,"Ġhat":8642,"Ġnetworking":8643,"Ġaesthet":8644,"Ġgym":8645,"Ġ>":8646,"ĠBrazil":8647,"Ġmetrics":8648,"Ġempty":8649,"ĠPop":8650,"ĠMS":8651,"star":8652,"Ġnom":8653,"48":8654,"\",":8655,"MC":8656,"ĠGall":8657,"inated":8658,"Ġwagering":8659,"Ġseasoned":8660,"Ġordered":8661,"ĠConference":8662,"Ġrepresentative":8663,"iser":8664,"Ġreaction":8665,"Ġsuddenly":8666,"Gu":8667,"Ġ36":8668,"Ġdetection":8669,"ĠChris":8670,"ulpt":8671,"Ġcontained":8672,"Ġexcessive":8673,"Ġunderstood":8674,"ĠEasy":8675,"olec":8676,"Ġwisdom":8677,"ĠHold":8678,"Ġequival":8679,"Ġdecrease":8680,"olid":8681,"Ġsurprised":8682,"Ġinvite":8683,"BI":8684,"Ġswimming":8685,"Ġguaranteed":8686,"Ġcompassion":8687,"Ġacquire":8688,"Ġfrequency":8689,"ĠChall":8690,"inar":8691,"ĠSenior":8692,"Ġregulation":8693,"DP":8694,"Ġremained":8695,"itz":8696,"gettable":8697,"Ġimplications":8698,"Ġalarm":8699,"Ġwildlife":8700,"Ġexhaust":8701,"Start":8702,"Ġphones":8703,"Ġreels":8704,"Ġdivorce":8705,"Then":8706,"ĠJo":8707,"Ġathletes":8708,"....":8709,"Ġlaid":8710,"Ġformula":8711,"ĠAirport":8712,"!)":8713,"ervice":8714,"Ġdelicate":8715,"rem":8716,"Ġsettlement":8717,"Ġfalling":8718,"Ġsubjects":8719,"ĠKh":8720,"iating":8721,"esterday":8722,"Ġconfidential":8723,"Ġnations":8724,"Ġexhibition":8725,"ĠLic":8726,"Ġobstac":8727,"ashes":8728,"arters":8729,"Ġnuclear":8730,"ega":8731,"Ġcosm":8732,"Inc":8733,"Ġaddressed":8734,"ĠEnsure":8735,"Ġhurt":8736,"ĠMichigan":8737,"ĠMedicine":8738,"EA":8739,"Ġcounty":8740,"oil":8741,"Ġaffects":8742,"Ġchose":8743,"Ġsigning":8744,"iot":8745,"Ġcontribution":8746,"Ġheavily":8747,"Ġseats":8748,"ĠâĢ¢":8749,"Ġviewing":8750,"ĠUsers":8751,"Ġcollective":8752,"ultane":8753,"Contact":8754,"Ġwashing":8755,"ĠQuestions":8756,"ĠMrs":8757,"ĠHon":8758,"Ġdash":8759,"Ġclassroom":8760,"Ġtrigger":8761,"ĠSche":8762,"ĠAz":8763,"Ġracing":8764,"Ġmaintained":8765,"Ġopens":8766,"uster":8767,"books":8768,"izations":8769,"Ġaer":8770,"Ġdiscip":8771,"Ġfilling":8772,"ĠSupreme":8773,"acious":8774,"uses":8775,"Ġapplies":8776,"Ġservers":8777,"Ġduration":8778,"Ġeager":8779,"Ġresc":8780,"May":8781,"ĠMur":8782,"quis":8783,"Ġlegend":8784,"Ġacquisition":8785,"Ġlanding":8786,"Ġtackle":8787,"Ġduties":8788,"Ġdefinition":8789,"ĠJersey":8790,"oints":8791,"Ġinterviews":8792,"Ġbowl":8793,"Ġtalks":8794,"ĠName":8795,"Ġgathering":8796,"ali":8797,"ĠIndustry":8798,"ĠVisit":8799,"bour":8800,"sect":8801,"abil":8802,"ĠFriend":8803,"Ġentitled":8804,"Ġhoriz":8805,");":8806,"TM":8807,"Ġsuffer":8808,"uan":8809,"ĠPalest":8810,"Ġlucky":8811,"%,":8812,"Ġnutrients":8813,"ĠPur":8814,"ĠVill":8815,"Ġinjured":8816,"duction":8817,"igation":8818,"Ġindicates":8819,"inch":8820,"ĠGar":8821,"idity":8822,"Ġadvertise":8823,"Ġrequiring":8824,"Ġeverywhere":8825,"Ġhosted":8826,"Ġtrim":8827,"Ġtrips":8828,"ĠWhe":8829,"ĠWhich":8830,"Ġceremony":8831,"Ġcouncil":8832,"ĠPRO":8833,"Ġphenomen":8834,"ĠLas":8835,"ĠRa":8836,"Ġtoler":8837,"Vis":8838,"Ġdesktop":8839,"Ġraising":8840,"ĠRam":8841,"Ġ?":8842,"Ġuniversities":8843,"Ġhotels":8844,"Ġexamine":8845,"Ġseasons":8846,"Ġabund":8847,"Ġcouples":8848,"ĠNight":8849,"Ġhun":8850,"iac":8851,"ĠDC":8852,"Ġintuitive":8853,"Ġpacked":8854,"ĠExp":8855,"Ġlady":8856,"ĠMartin":8857,"wan":8858,"itches":8859,"roduction":8860,"Ġwhilst":8861,"ĠBeing":8862,"unicip":8863,"there":8864,"Ġhearts":8865,"pany":8866,"ppy":8867,"oston":8868,"Ġdecline":8869,"Ġsupplier":8870,"Ġende":8871,"omy":8872,"Ġlottery":8873,"Ġprime":8874,"ĠHeart":8875,"Ġstrongly":8876,"Ġutility":8877,"ĠDam":8878,"Ġstuck":8879,"ĠSav":8880,"Ġlaugh":8881,"ĠEvent":8882,"ĠMembers":8883,"rapeut":8884,"Ġward":8885,"Ġbutt":8886,"ĠSenate":8887,"ongevity":8888,"ested":8889,"ĠArmy":8890,"ĠEs":8891,"Ġdivers":8892,"Ġcollaborative":8893,"Ġaddiction":8894,"Go":8895,"Ġagreements":8896,"ĠLittle":8897,"elled":8898,"Ġcompleting":8899,"Ġrecre":8900,"Ġgolden":8901,"Ġtalked":8902,"Ġromantic":8903,"Ġrose":8904,"Ġamenities":8905,"Ġresort":8906,"Ġnurt":8907,"49":8908,"ouses":8909,"Ġediting":8910,"Ġcultures":8911,"ĠAsh":8912,"oned":8913,"Ġsubtle":8914,"Ġboasts":8915,"bel":8916,"Ġalgorithms":8917,"Because":8918,"Ġventure":8919,"ÃŃ":8920,"Ġspeaker":8921,"Ġlawsu":8922,"ĠSpain":8923,"Us":8924,"Ġreader":8925,"ĠMuslim":8926,"ĠPacific":8927,"ĠEstate":8928,"Ġbreaks":8929,"tical":8930,"Ġroads":8931,"zzle":8932,"Ġpsychological":8933,"ĠFeatures":8934,"Ġattending":8935,"Ġsummary":8936,"Ġdirt":8937,"Ġadjustments":8938,"Ġoccurred":8939,"LY":8940,"Ġversatility":8941,"Ġglobally":8942,"annel":8943,"ĠNorthern":8944,"Ġclock":8945,"month":8946,"Ġunforgettable":8947,"itis":8948,"ĠHim":8949,"Ġwarning":8950,"ĠJul":8951,"Ġmobility":8952,"rog":8953,"rovers":8954,"ĠVietnam":8955,"ĠPerfect":8956,"Find":8957,"ĠMike":8958,"Ġfalls":8959,"irtual":8960,"iversary":8961,"37":8962,"ĠAwards":8963,"tail":8964,"Ġdrives":8965,"Ġtang":8966,"Ġelectron":8967,"oir":8968,"Ġdistingu":8969,"39":8970,"mond":8971,"Ġcolours":8972,"Ġprevention":8973,"pectives":8974,"Ġcuts":8975,"Finally":8976,"ĠDisney":8977,"ĠSH":8978,"Ġhybrid":8979,"Learn":8980,"oster":8981,"Ġdesigning":8982,"Ġassociation":8983,"char":8984,"Ġcameras":8985,"anes":8986,"Ġemotion":8987,"ava":8988,"ĠUlt":8989,"Ġram":8990,"ĠPerformance":8991,"Pal":8992,"RP":8993,"Ġreligion":8994,"Ġcats":8995,"Ġassume":8996,"Ġtub":8997,"Ġadopted":8998,"ĠGambling":8999,"ĠSanta":9000,"ourse":9001,"Ġrespective":9002,"Ġstatistics":9003,"Ġsubsid":9004,"Ġpocket":9005,"ĠAction":9006,"Ġopposite":9007,"Ġloose":9008,"ĠMaybe":9009,"nda":9010,"ĠLee":9011,"Ġarise":9012,"Using":9013,"Ġscenes":9014,"ashed":9015,"cribed":9016,"lasting":9017,"Ġfiber":9018,"Ġbarriers":9019,"maker":9020,"ĠColumb":9021,"Ġgre":9022,"Ġperf":9023,"Ġobserved":9024,"Ġflaw":9025,"Ġadequate":9026,"ĠStay":9027,"Ġprofessor":9028,"Ġvariations":9029,"ĠLine":9030,"Ġdiagnosis":9031,"bar":9032,"Ġlists":9033,"encing":9034,"ĠImpact":9035,"Ġcha":9036,"everal":9037,"earing":9038,"Ġdistributed":9039,"ĠSustain":9040,"Ġvintage":9041,"eren":9042,"Ġarom":9043,"ports":9044,"ĠBoy":9045,"agine":9046,"ĠOrig":9047,"Ġbare":9048,"ricted":9049,"Ġorient":9050,"owers":9051,"Ġresidence":9052,"Ġaccurately":9053,"Ġsuspect":9054,"ĠBuy":9055,"ĠModern":9056,"Ġdivision":9057,"ĠWilliams":9058,"Ġclicking":9059,"igenous":9060,"Ġprogressive":9061,"ĠSuccess":9062,"Ġprivile":9063,"Ġthousand":9064,"Ġlogin":9065,"Ġvert":9066,"Ġsubstance":9067,"Ġmanif":9068,"Ġobviously":9069,"Ġliterature":9070,"employ":9071,"Ġdisorders":9072,"ĠGaming":9073,"leep":9074,"Ġcustomize":9075,"Ġacquired":9076,"ĠColorado":9077,"Ġexplan":9078,"ĠAuto":9079,"fits":9080,"Ġconservation":9081,"Ġtwenty":9082,"Ġstations":9083,"ĠThough":9084,"istance":9085,"Ġdelve":9086,"Ġkeys":9087,"Ġirrit":9088,"Ã¼":9089,"ĠNumber":9090,"ĠJeff":9091,"CL":9092,"Sec":9093,"ĠMP":9094,"300":9095,"Ty":9096,"Ð¾":9097,"ĠNote":9098,"ĠFinally":9099,"Ġ400":9100,"ortion":9101,"Ġhappiness":9102,"depth":9103,"ackson":9104,"ĠFinance":9105,"Ġestimate":9106,"Ġdiscovery":9107,"Ġoverview":9108,"ĠForce":9109,"Ġdeposits":9110,"Ġshell":9111,"Ġvisually":9112,"illy":9113,"Ġspeakers":9114,"Ġru":9115,"ello":9116,"ĠLegal":9117,"Ġnursing":9118,"itivity":9119,"izz":9120,"Ġwooden":9121,"ĠSection":9122,"Ġinn":9123,"Ġcontinuously":9124,"Ġtalented":9125,"Trans":9126,"organ":9127,"Ġpowers":9128,"Note":9129,"ĠUnlike":9130,"Ġcapability":9131,"Ġarrival":9132,"Ġdynamics":9133,"Ġclubs":9134,"ĠCab":9135,"Ġessentially":9136,"ĠAdvis":9137,"Ġgenerous":9138,"ĠStandard":9139,"Ġerect":9140,"compass":9141,"Ġlogistics":9142,"Ġimproves":9143,"Ġstructural":9144,"Ġboys":9145,"Ġdisability":9146,"Ġrenewable":9147,"Looking":9148,"Ġemphasis":9149,"Ġkil":9150,"Ġgamers":9151,"Ġproactive":9152,"Ġtoys":9153,"Ġexperim":9154,"alog":9155,"amber":9156,"Ġverification":9157,"Ġminds":9158,"Like":9159,"Ġinstruction":9160,"Ġsomewhat":9161,"igious":9162,"ĠAPI":9163,"Ġlib":9164,"Ġinstruments":9165,"Ġhub":9166,"Ġtrib":9167,"Ġlie":9168,"Ġleague":9169,"Ġlawyers":9170,"orry":9171,"Ġphilosophy":9172,"iates":9173,"47":9174,"Ġrealistic":9175,"ĠFun":9176,"sole":9177,"aven":9178,"Americ":9179,"Ġdropped":9180,"Ġpractition":9181,"Ġculinary":9182,"Ġ2006":9183,"Ġbes":9184,"CD":9185,"icity":9186,"ĠPain":9187,"ĠCompan":9188,"ĠAp":9189,"ocracy":9190,"Ġlegitimate":9191,"Ġdifficulties":9192,"Ġunknown":9193,"Co":9194,"claim":9195,"Top":9196,"Ġengineers":9197,"Ġoven":9198,"yal":9199,"ĠGarden":9200,"Ġfake":9201,"Ġfilters":9202,"Ġtoile":9203,"Ġpitch":9204,"ador":9205,"Ġsmoke":9206,"Ġoutfit":9207,"Ġprotective":9208,"screen":9209,"tes":9210,"roke":9211,"Ġrewarding":9212,"Ġvolunteers":9213,"Ġviewers":9214,"Ġmechanism":9215,"Ġrepresented":9216,"ĠKn":9217,"ĠUSB":9218,"Ġflooring":9219,"VE":9220,"ht":9221,"obe":9222,"Ġcountless":9223,"Ġgrat":9224,"Ġestablishing":9225,"Sign":9226,"Ġgrateful":9227,"Ġdistinctive":9228,"Ġsees":9229,"Ġvolat":9230,"ĠMatt":9231,"Ġtestament":9232,"Ġretailers":9233,"ĠUr":9234,"Ġmining":9235,"Ġtroubles":9236,"Ġconsulting":9237,"gments":9238,"Ġcontributed":9239,"Ġwalked":9240,"Ġpreserve":9241,"ĠLad":9242,"ĠFoot":9243,"Ġlikewise":9244,"Ġassured":9245,"Ġflo":9246,"Ġexterior":9247,"Ġjudgment":9248,"ĠPlayers":9249,"ĠMess":9250,"Ġmyth":9251,"Ġconvert":9252,"iano":9253,"ĠDream":9254,"Art":9255,"Ġfinger":9256,"ugs":9257,"Ġtor":9258,"Ġstood":9259,"Ġchips":9260,"Ġassistant":9261,"Ġleveraging":9262,"Ġrush":9263,"Ġchildhood":9264,"onymous":9265,"ĠJones":9266,"Ġlaptop":9267,"ias":9268,"Ġnotable":9269,"Ġinclusion":9270,"Ġadministrative":9271,"roph":9272,"ĠAgain":9273,"oup":9274,"Ġauthorized":9275,"style":9276,"utical":9277,"Ġartwork":9278,"ders":9279,"Ġtraditions":9280,"etry":9281,"itting":9282,"ĠKorea":9283,"Ġpromptly":9284,"Ġdisplays":9285,"ĠHen":9286,"Ġdiscom":9287,"Ġ(âĢľ":9288,"Ġharvest":9289,"Ġinvolvement":9290,"ints":9291,"Ġcontractors":9292,"Ġgut":9293,"arios":9294,"Ġgenetic":9295,"ethe":9296,"ĠCN":9297,"31":9298,"Ġcontractor":9299,"ĠRose":9300,"Ġhighlighted":9301,"Ġtourism":9302,"Ġgains":9303,"cture":9304,"ĠBul":9305,"Ġsleek":9306,"Ġequivalent":9307,"Ġrepresentatives":9308,"zona":9309,"Ġaccommodation":9310,"Ġbaking":9311,"Gener":9312,"backs":9313,"Ġtension":9314,"Ġadvancements":9315,"Ġmixture":9316,"Ġmetab":9317,"Ġembark":9318,"Ġlaser":9319,"Ġbab":9320,"Ġgiant":9321,"ih":9322,"Ġcredits":9323,"Ġworn":9324,"liances":9325,"Ġsen":9326,"Ġcourts":9327,"ĠPhilipp":9328,"ĠMic":9329,"Ġabroad":9330,"ĠBoston":9331,"Ġsamples":9332,"Ġboards":9333,"Ġcompete":9334,"ryption":9335,"Ġshoulder":9336,"Ġhoney":9337,"Ġthrill":9338,"Ġspecified":9339,"Ġflower":9340,"Ġuniverse":9341,"iations":9342,"Ġyours":9343,"ĠCON":9344,"ĠBh":9345,"Ġgovernance":9346,"ĠProperty":9347,"ĠVen":9348,"ĠEll":9349,"udes":9350,"Ġmechanical":9351,"Ġseal":9352,"Ġlens":9353,"ĠGirl":9354,"Ġcomplim":9355,"Ġbeloved":9356,"ĠWilliam":9357,"EP":9358,"hyth":9359,"Ġdeserve":9360,"dem":9361,"Ġemployed":9362,"Ġarrangements":9363,"Ġpink":9364,"ayment":9365,"Ġpromotes":9366,"Ġwanting":9367,"Ġencount":9368,"Ġintervention":9369,"Ġprecious":9370,"Ġrefuge":9371,"Ġbehaviour":9372,"ĠOhio":9373,"vania":9374,"Ġriding":9375,"ĠDie":9376,"Ġtradem":9377,"ĠCatholic":9378,"taking":9379,"rep":9380,"onto":9381,"Ġhopes":9382,"ygen":9383,"adium":9384,"ĠJun":9385,"ĠImm":9386,"da":9387,"Ġimportantly":9388,"ĠTri":9389,"Ġbatt":9390,"ĠJon":9391,"teen":9392,"ĠUt":9393,"enny":9394,"ĠOk":9395,"Ġcostly":9396,"izza":9397,"Ġlongevity":9398,"opyright":9399,"Ġcognitive":9400,"Ġinflammation":9401,"ĠAdvanced":9402,"Ġunne":9403,"Ġordinary":9404,"fers":9405,"Remember":9406,"Ġvendors":9407,"Ed":9408,"athered":9409,"anguage":9410,"ĠSeason":9411,"Discover":9412,"Ġkeen":9413,"Ġstreamline":9414,"Ġvine":9415,"Ġdad":9416,"ocial":9417,"ĠVice":9418,"Ġchampions":9419,"Ġstocks":9420,"Ġsafer":9421,"Ġsimultane":9422,"Ġhasn":9423,"bris":9424,"Ġwaves":9425,"Book":9426,"Ġamid":9427,"ĠDaily":9428,"ĠLuc":9429,"Ġappet":9430,"ĠPub":9431,"46":9432,"Ġbatteries":9433,"acon":9434,"Ġconsistency":9435,"Ġknowledgeable":9436,"aylor":9437,"Ġrust":9438,"Ġsecondary":9439,"PM":9440,"uter":9441,"Ġpivotal":9442,"Ġnob":9443,"Ġcozy":9444,"ĠThink":9445,"Ġcurriculum":9446,"ĠEth":9447,"Ġdiscomfort":9448,"uum":9449,"ĠFar":9450,"Ġmatching":9451,"disc":9452,"atin":9453,"ansas":9454,"Ġaccompan":9455,"Dis":9456,"Ġplot":9457,"Ġcolon":9458,"Ġunion":9459,"Ġtomorrow":9460,"Ġprosecut":9461,"ĠDO":9462,"Ġfur":9463,"ĠQuick":9464,"Ġdanger":9465,"Ġcomputers":9466,"ĠShipping":9467,"Ġmask":9468,"Ġassigned":9469,"Ġbeliefs":9470,"EG":9471,"Ġachievements":9472,"Ġreceipt":9473,"Ġacknowledge":9474,"People":9475,"Ġtemplates":9476,"Ġtours":9477,"Ġactors":9478,"ĠRepublican":9479,"achelor":9480,"ati":9481,"ART":9482,"Ġloving":9483,"ĠChange":9484,"Ġsubsequent":9485,"Ġunusual":9486,"Ġresident":9487,"Ġtemplate":9488,"AA":9489,"Ġweigh":9490,"Ġpromising":9491,"ĠFour":9492,"Ġamongst":9493,"Ġproductive":9494,"onav":9495,"Ġbuck":9496,"EX":9497,"epend":9498,"Ġmagazine":9499,"Ġconnectivity":9500,"Ġpokies":9501,"ĠAlways":9502,"Ġprinciple":9503,"leg":9504,"ĠImport":9505,"Ġratio":9506,"Ġdollar":9507,"ĠDIY":9508,"Ġsignals":9509,"Ġ2005":9510,"CS":9511,"rite":9512,"Ġdysfunction":9513,"Ġcomplaint":9514,"Ġfranchise":9515,"Ġstays":9516,"Ġrelating":9517,"Ġfloors":9518,"Ġcoal":9519,"Ġoperator":9520,"Ġputs":9521,"Ġ195":9522,"Ġprayer":9523,"Ġadventures":9524,"worthy":9525,"ĠMountain":9526,"Ġsuffered":9527,"Ġexecution":9528,"ĠTable":9529,"ĠTips":9530,"from":9531,"Ġblackjack":9532,"Ġelections":9533,"Ġhole":9534,"Ġeverybody":9535,"ĠAmong":9536,"Ġcellular":9537,"ju":9538,"Ġports":9539,"Ġcoins":9540,"Ġflash":9541,"ĠShare":9542,"Ġmarketplace":9543,"Ġmanip":9544,"imp":9545,"Ġexpense":9546,"ĠCash":9547,"aya":9548,"ormal":9549,"Ġtelephone":9550,"bow":9551,"Ġcontaining":9552,"Ġsculpt":9553,"zed":9554,"Ġpounds":9555,"ĠMind":9556,"Ġsmoothly":9557,"ĠQueen":9558,"ctu":9559,"Ġcancel":9560,"Ġvirtually":9561,"Ġol":9562,"Ġemerged":9563,"ĠIncre":9564,"Ġappreciation":9565,"ĠFlow":9566,"Ġhoping":9567,"ĠHoly":9568,"Ġpubl":9569,"ĠLiving":9570,"ĠCS":9571,"Rep":9572,"wall":9573,"ĠSwed":9574,"ylvania":9575,"ĠDrive":9576,"Ġsalary":9577,"cure":9578,"Ġdemonstrated":9579,"itative":9580,"ĠOp":9581,"Ġwarmth":9582,"Ġpushing":9583,"Ġpulled":9584,"Ġperspectives":9585,"onna":9586,"Ġreserve":9587,"Ġfleet":9588,"oken":9589,"Ġsurvive":9590,"Ġgradually":9591,"Ġsomewhere":9592,"Ġsed":9593,"estone":9594,"ĠPsych":9595,"Ġshots":9596,"Ġannouncement":9597,"Ġjun":9598,"Ġmuseum":9599,"Ġpermits":9600,"Mr":9601,"Ġuniform":9602,"powered":9603,"ĠGolden":9604,"Online":9605,"Ġstrengths":9606,"Ġliterally":9607,"adel":9608,"Ġflying":9609,"Ġentity":9610,"sen":9611,"Ġshipped":9612,"Em":9613,"VAC":9614,"ĠElectric":9615,"Ġdelays":9616,"lyn":9617,"ĠFrancisco":9618,"Ġbehaviors":9619,"âĢ³":9620,"Ġutilized":9621,"ĠReturn":9622,"Ġreleases":9623,"ĠAttor":9624,"Ġembed":9625,"Ġspectac":9626,"Ġvaccine":9627,"Ġobserv":9628,"Ġscenario":9629,"ĠExpress":9630,"Ġencompass":9631,"hour":9632,"Ġcm":9633,"Ġrelation":9634,"itarian":9635,"Ġidentification":9636,"Ġrefrig":9637,"Ġneuro":9638,"Ġconserv":9639,"Thanks":9640,"Ġbasketball":9641,"ĠUV":9642,"Ġinfections":9643,"rick":9644,"Ġentrance":9645,"Mar":9646,"Ġcontrovers":9647,"Ġstom":9648,"Ġqualify":9649,"acies":9650,"Ġconsiderations":9651,"Ġplumbing":9652,"abled":9653,"ĠSimply":9654,"Ġinstalling":9655,"ĠLi":9656,"Ġtraders":9657,"Ġactor":9658,"ĠMcC":9659,"Ġprotest":9660,"Ġthrilling":9661,"ĠFather":9662,"Ġdisorder":9663,"ĠSilver":9664,"isure":9665,"Ġprovisions":9666,"ĠUSD":9667,"Ġham":9668,"Ġaband":9669,"ĠAuthority":9670,"ften":9671,"Ġjuice":9672,"Ġbust":9673,"specific":9674,"Ġwake":9675,"Ġbol":9676,"Ġcelebrated":9677,"Ġlatter":9678,"Ġrepresenting":9679,"Ġqualities":9680,"ĠLinked":9681,"Ġautomotive":9682,"ĠMu":9683,"email":9684,"Ġvalued":9685,"Ġscenarios":9686,"Ġattempts":9687,"angers":9688,"ĠTransport":9689,"hemat":9690,"Ġlip":9691,"chers":9692,"Ġneither":9693,"Ġdipl":9694,"Ġrelaxed":9695,"onavirus":9696,"Gl":9697,"ĠCru":9698,"Ġharness":9699,"Ġfiling":9700,"Ġdual":9701,"Ġmile":9702,"Ġtailor":9703,"Ġmechanisms":9704,"telling":9705,"Ġacceptance":9706,"Ġtargeting":9707,"Ġpleasant":9708,"dney":9709,"Ġlawn":9710,"aware":9711,"fire":9712,"ĠPu":9713,"Ġretention":9714,"ĠCharles":9715,"ĠJackson":9716,"Ġrehab":9717,"Ġpilot":9718,"aceutical":9719,"Ġbroker":9720,"rible":9721,"Ġstriking":9722,"ĠLabor":9723,"Ġgram":9724,"ĠTurn":9725,"Ġminister":9726,"ventions":9727,"ĠPlanning":9728,"ictions":9729,"Ġdesignated":9730,"Ġnavigating":9731,"mented":9732,"Ġattitude":9733,"Ġguarantees":9734,"Ġmistake":9735,"Av":9736,"odge":9737,"aul":9738,"Ġaffecting":9739,"Ġreminder":9740,"sm":9741,"eli":9742,"ceeds":9743,"Ġpenis":9744,"ĠSon":9745,"Ã³":9746,"Ġholistic":9747,"Ġflag":9748,"Ġgrid":9749,"Ġentrepreneur":9750,"Ġexamination":9751,"paralle":9752,"ĠMember":9753,"orrect":9754,"ivacy":9755,"anna":9756,"Ġshaping":9757,"entials":9758,"Ġbackup":9759,"Ġtired":9760,"Ġformation":9761,"Ġladies":9762,"Ġvoc":9763,"HA":9764,"ghan":9765,"ĠBlu":9766,"Ġfluid":9767,"Ġaudit":9768,"ĠPage":9769,"Ġvolunteer":9770,"Ġyard":9771,"Ġbrid":9772,"Ġmakeup":9773,"ĠStudent":9774,"Ġadvised":9775,"Ġglad":9776,"building":9777,"ĠOwn":9778,"Ġstrange":9779,"Ð°":9780,"orgeous":9781,"aka":9782,"heast":9783,"ĠIntellig":9784,"ĠStudio":9785,"ĠApplication":9786,"ĠThree":9787,"Ġwest":9788,"iy":9789,"Ġpig":9790,"mind":9791,"Ġmeditation":9792,"ĠStock":9793,"ĠBeaut":9794,"ĠResources":9795,"Ġadvise":9796,"Stud":9797,"Ġdebris":9798,"Ġworkout":9799,"Ġofficially":9800,"ĠDa":9801,"Ġvitamin":9802,"Time":9803,"def":9804,"Ġdetermining":9805,"itu":9806,"Ġevil":9807,"ĠArizona":9808,"ĠBall":9809,"Ġcybersecurity":9810,"ĠEmail":9811,"ĠUnfortunately":9812,"Ġpeaceful":9813,"Ġlesson":9814,"ĠIrish":9815,"Ġlovers":9816,"ĠRun":9817,"ĠVar":9818,"iami":9819,"Ġshowcasing":9820,"à¸":9821,"ĠKong":9822,"Ġought":9823,"nsylvania":9824,"amps":9825,"Ġdeter":9826,"Ġoutdoors":9827,",âĢĻ":9828,"ĠIsraeli":9829,"ĠPS":9830,"ĠGreek":9831,"Ġlandscapes":9832,"Ġresulted":9833,"Ġpermitted":9834,"Ġwherever":9835,"Ġnavigation":9836,"ceive":9837,"ĠWeight":9838,"Ġrelative":9839,"Ġphysically":9840,"clusive":9841,"Ġagricultural":9842,"Ġprotocols":9843,"Ġproduces":9844,"Ġchest":9845,"ĠAnalysis":9846,"ĠCompet":9847,"Ġgaining":9848,"rell":9849,"Ġcurious":9850,"erals":9851,"Ġpointed":9852,"Ġneutral":9853,"Ġrestoration":9854,"Ġsomebody":9855,"Ġworker":9856,"aters":9857,"Ġlocally":9858,"ĠMD":9859,"ĠPrivate":9860,"Ġopposition":9861,"Ġtex":9862,"paralleled":9863,"ĠMethod":9864,"onomic":9865,"overty":9866,"Ġwelcoming":9867,"LS":9868,"Ġgraphic":9869,"Ġcrown":9870,"aluable":9871,"Ġexists":9872,"CP":9873,"ĠTik":9874,"ĠRichard":9875,"ĠBa":9876,"ĠTogether":9877,"Ġplacement":9878,"Ġpup":9879,"Ġnights":9880,"ĠEastern":9881,"Ġ65":9882,"ml":9883,"Ġavoiding":9884,"ĠContract":9885,"ĠSelf":9886,"ĠSher":9887,"run":9888,"Ġinspiring":9889,"Ġwhereas":9890,"Ġtermin":9891,"ĠDNA":9892,"Ġshine":9893,"Ġresume":9894,"Ġmountains":9895,"WS":9896,"Ġcareers":9897,"Ġadopt":9898,"Ġportable":9899,"Ġinviting":9900,"Ġcrazy":9901,"Ġhospitals":9902,"Ġconstitut":9903,"Ġow":9904,"Ġprospects":9905,"Ġscores":9906,"Ġindicated":9907,"Ġtrem":9908,"Ġresponsive":9909,"Ġproport":9910,"erman":9911,"rat":9912,"Ġappliances":9913,"ĠCase":9914,"Ġphotographs":9915,"Ġexclusively":9916,"ĠLy":9917,"ĠCompl":9918,"Ġmic":9919,"Ġniche":9920,"Ġvoters":9921,"ĠBeh":9922,"Ġassembly":9923,"Ġtape":9924,"ĠAltern":9925,"AE":9926,"Ġfragr":9927,"Ġevolve":9928,"inyl":9929,"ila":9930,"ĠKim":9931,"efficient":9932,"iter":9933,"66":9934,"iatric":9935,"Ġcloth":9936,"ĠDiscover":9937,"Ġdivide":9938,"laim":9939,"ĠTrade":9940,"Ġparks":9941,"bridge":9942,"Ġentities":9943,"ĠBetter":9944,"Ġtrials":9945,"Ġsuite":9946,"Ġextends":9947,"Ġsecured":9948,"Ġharsh":9949,"Ġposting":9950,"Ġbeautifully":9951,"Ġrelaxing":9952,"ĠAndrew":9953,"Ġhits":9954,"01":9955,"ĠCovid":9956,"Ġcomposition":9957,"Having":9958,"ĠDivision":9959,"akh":9960,"ĠManufact":9961,"Ġrepeat":9962,"Ġhighlighting":9963,"Ġuncom":9964,"Ġdialogue":9965,"cut":9966,"oda":9967,"ilation":9968,"ĠRelations":9969,"ĠDue":9970,"Ġsecurely":9971,"Ġharmon":9972,"ĠLatin":9973,"Ġyesterday":9974,"ĠWorking":9975,"ĠWH":9976,"Ġjackpot":9977,"drop":9978,"semble":9979,"Ġlocks":9980,"Ġmindset":9981,"ĠAppro":9982,"pread":9983,"ĠRO":9984,"ĠFast":9985,"Ġmolec":9986,"UD":9987,"Ġdetermination":9988,"Ġvice":9989,"ĠCorporation":9990,"Ġtournament":9991,"Ġhandy":9992,"Ġaccordingly":9993,"rapeutic":9994,"Ġcuis":9995,"ping":9996,"unity":9997,"ĠSummer":9998,"MI":9999,"Ġreviewed":10000,"Ġprofitable":10001,"Ġ55":10002,"Ġdivided":10003,"Ġintimate":10004,"Ġburden":10005,"Ġgrounds":10006,"Ġopposed":10007,"Ġcontest":10008,"ĠPrior":10009,"Ġleaf":10010,"Ġletting":10011,"retion":10012,"Prof":10013,"hoot":10014,"Ġcaptured":10015,"ĠAvailable":10016,"Ġlowest":10017,"Ġleak":10018,"etheless":10019,"Ġinvestor":10020,"Ġantib":10021,"minute":10022,"Ġending":10023,"giving":10024,"war":10025,"Ġampl":10026,"ĠOx":10027,"Ġmoral":10028,"uten":10029,"amins":10030,"Ġsleeping":10031,"Ġtire":10032,"raq":10033,"Ġwondering":10034,"Ġburning":10035,"Ġaging":10036,"Ġcalc":10037,"ĠCand":10038,"Ġpione":10039,"Ġheading":10040,"hou":10041,"Ġnurs":10042,"ching":10043,"ĠDrag":10044,"Ġmeters":10045,"Ġargument":10046,"Ġterritory":10047,"ĠCivil":10048,"health":10049,"Ġvaried":10050,"ĠPoint":10051,"Ġobserve":10052,"foot":10053,"Ġcontributes":10054,"anning":10055,"Ġweakness":10056,"Ġaged":10057,"Ġinfluenced":10058,"Ġbio":10059,"fortable":10060,"after":10061,"Ġcenturies":10062,"CR":10063,"Ġhell":10064,"rimination":10065,"ĠDark":10066,"oper":10067,"Ġwager":10068,"orks":10069,"Ġje":10070,"ĠRh":10071,"oub":10072,"Ġsurvival":10073,"Ġlake":10074,"ĠFREE":10075,"ĠMostbet":10076,"ationally":10077,"Ġprest":10078,"Ġinnovations":10079,"requently":10080,"Ġbreathing":10081,"Ġcharity":10082,"hol":10083,"gress":10084,"ĠFocus":10085,"ĠES":10086,"Ġcontents":10087,"Ġdisaster":10088,"ĠOptim":10089,"Ġtoxic":10090,"ĠMA":10091,"85":10092,"Med":10093,"Ġrubber":10094,"Ġwireless":10095,"bury":10096,"ĠEX":10097,"ĠCollect":10098,"Ġstudied":10099,"orses":10100,"Ġcollections":10101,"Ġmutual":10102,"Ġelder":10103,"Ġspectrum":10104,"ĠiP":10105,"ĠCountry":10106,"ĠForest":10107,"giene":10108,"Next":10109,"robe":10110,"idespread":10111,"ĠWalk":10112,"ologists":10113,"Ġgently":10114,"awa":10115,"ĠGuard":10116,"ĠDaniel":10117,"ĠHou":10118,"Ġintake":10119,"ĠPennsylvania":10120,"wa":10121,"Ġreveals":10122,"bell":10123,"Ġretreat":10124,"door":10125,"eas":10126,"ibl":10127,"ĠAG":10128,"Ġunparalleled":10129,"Ġabsence":10130,"Ġconfiguration":10131,"Ġrecruitment":10132,"Ġbranch":10133,"Ġtechnicians":10134,"Ġspa":10135,"Ġtreating":10136,"Ġcheckout":10137,"aping":10138,"Ġrum":10139,"Ġokay":10140,"Ġpicking":10141,"Ġtravelers":10142,"Ġoperated":10143,"Ġmirror":10144,"pled":10145,"Ġearning":10146,"ĠStill":10147,"Ġscrew":10148,"Ġconfirmation":10149,"Ġscratch":10150,"His":10151,"ĠConditions":10152,"Ġunp":10153,"owned":10154,"Ġcust":10155,"ĠVers":10156,"Ġclinic":10157,"Ġindul":10158,"Ġwallet":10159,"Ġappointed":10160,"Ġbulk":10161,"Ġdiscipl":10162,"ĠHong":10163,"Tok":10164,"Ġcinem":10165,"boards":10166,"enced":10167,"Ġguided":10168,"Ġattorneys":10169,"Ġsne":10170,"ĠHa":10171,"rary":10172,"ĠAssess":10173,"Ġintend":10174,"ĠExpert":10175,"ĠCompanies":10176,"Ġrecon":10177,"ĠHarris":10178,"Ġaggressive":10179,"oric":10180,"was":10181,"Ġpriorities":10182,"Ġtatt":10183,"Ġdismiss":10184,"Out":10185,"Ġinvestigate":10186,"Ġinsulation":10187,"ĠDur":10188,"ĠHVAC":10189,"ĠOS":10190,"Ġinstances":10191,"iator":10192,"Ġmotivation":10193,"amil":10194,"Ġboss":10195,"Ġhide":10196,"Ġ1990":10197,"Ġlocate":10198,"PL":10199,"icide":10200,"Ġque":10201,"Ġconducting":10202,"Cur":10203,"chest":10204,"Ġfoam":10205,"ĠExcell":10206,"onut":10207,"ĠOnt":10208,"isa":10209,"aded":10210,"ĠNations":10211,"Ġanymore":10212,"Ġbreach":10213,"Ġedit":10214,"Ġcharming":10215,"ĠBob":10216,"Keep":10217,"ludes":10218,"Ġportal":10219,"ĠOptions":10220,"Red":10221,"Ġrender":10222,"winning":10223,"Ġloud":10224,"ivities":10225,"Ġseasonal":10226,"Ġprescription":10227,"Ġhosts":10228,"800":10229,"Ġgrants":10230,"ĠField":10231,"inery":10232,"Ġmessaging":10233,"opping":10234,"Ġpad":10235,"sized":10236,"ela":10237,"ĠDid":10238,"Ġflights":10239,"ĠMachine":10240,"NS":10241,"bourne":10242,"Ġcarpet":10243,"Ġunnecessary":10244,"Ġorange":10245,"Ġencryption":10246,"Ġinstrument":10247,"Ġimmense":10248,"Ġseller":10249,"ascular":10250,"Ġnail":10251,"breaking":10252,"Ġtutorial":10253,"ĠIss":10254,"udi":10255,"Ġreferr":10256,"ca":10257,"Ġsatisfy":10258,"ĠInnovation":10259,"Ġcreators":10260,"Ġfacial":10261,"ĠHollywood":10262,"Ġwholes":10263,"ocate":10264,"Ass":10265,"Ã¶":10266,"ousing":10267,"ĠAnalytics":10268,"pace":10269,"Ġsmoking":10270,"Ġhunting":10271,"Ġaesthetics":10272,"ĠRs":10273,"Ġweren":10274,"Ġmm":10275,"Ġpowered":10276,"Ġbrilliant":10277,"anting":10278,"ĠLib":10279,"Ġcollaborate":10280,"nat":10281,"Ġdiffer":10282,"arents":10283,"Ġchains":10284,"lete":10285,"Ġgreet":10286,"athan":10287,"Ġnu":10288,"ĠRoom":10289,"Ġalert":10290,"Ġhate":10291,"ĠMs":10292,"ĠStudy":10293,"ITY":10294,"olis":10295,"Choosing":10296,"ĠFre":10297,"ears":10298,"Ġmedic":10299,"Ġchecked":10300,"TR":10301,"otten":10302,"Ġstructured":10303,"Ġplugin":10304,"ĠSydney":10305,"Ġaligns":10306,"flu":10307,"ĠURL":10308,"Ġamend":10309,"ĠExchange":10310,"Ġsear":10311,"Ġsolo":10312,"Ġhesitate":10313,"Ġster":10314,"ĠAlp":10315,"ĠKent":10316,"Ġremed":10317,"Ġindependence":10318,"ĠEnvironmental":10319,"âĢĿ)":10320,"Ġevident":10321,"Ġdescribes":10322,"home":10323,"Ġintrig":10324,"Ġestimates":10325,"Ġgorgeous":10326,"TER":10327,"Ġobligation":10328,"igue":10329,"Ġdimensions":10330,"matic":10331,"Ġtrauma":10332,"ĠFox":10333,"Ġgathered":10334,"Ġmagical":10335,"osa":10336,"Ġoxygen":10337,"ĠToy":10338,"Ġanniversary":10339,"Ġstainless":10340,"Ġenorm":10341,"Ġeffortlessly":10342,"Ġpublicly":10343,"Ġsurrounded":10344,"ĠTurkey":10345,"Ġsouthern":10346,"Ġfunctioning":10347,"Ġwidespread":10348,"ĠMalays":10349,"Ġmurder":10350,"Ġgrocer":10351,"Ġholes":10352,"ĠPers":10353,"reach":10354,"uming":10355,"alo":10356,"holder":10357,"Ġdepartments":10358,"wer":10359,"Ġcomputing":10360,"Ġdistract":10361,"Ġcow":10362,"Ġstomach":10363,"Ġnerv":10364,"tering":10365,"even":10366,"Ġcompanion":10367,"Ġcombining":10368,"Ġanticipated":10369,"ĠStory":10370,"Ġreflection":10371,"Ġenabled":10372,"cur":10373,"Ġaccused":10374,"olds":10375,"Ġimpress":10376,"ĠSteve":10377,"ĠMedic":10378,"stract":10379,"Ġdose":10380,"oking":10381,"Ġpromotional":10382,"ĠPractice":10383,"ĠCro":10384,"Ġspecifications":10385,"Ġcrash":10386,"Ġbroke":10387,"Ġwalks":10388,"Ġdelightful":10389,"airy":10390,"ĠPrinc":10391,"Moreover":10392,"amsung":10393,"Back":10394,"ingo":10395,"rame":10396,"ĠBritain":10397,"vol":10398,"Ġstack":10399,"Ġdrops":10400,"Ġroyal":10401,"Ġtransformative":10402,"ĠNut":10403,"ĠBlock":10404,"oked":10405,"such":10406,"Ġassault":10407,"Ġintegral":10408,"ĠGive":10409,"Ġstartup":10410,"ĠIraq":10411,"Ġwithstand":10412,"ANT":10413,"Ġrolling":10414,"Os":10415,"Ġcarrier":10416,"Ġpassengers":10417,"Ġsemi":10418,"ĠMiami":10419,"acher":10420,"ishment":10421,"Ġministry":10422,"Furthermore":10423,"advant":10424,"ĠCollection":10425,"Ġbarrier":10426,"ami":10427,"ĠBody":10428,"ĠDelivery":10429,"ĠLinux":10430,"ĠCleaning":10431,"Ġ2004":10432,"Ġpollution":10433,"ĠBed":10434,"Ġkm":10435,"Ġinvas":10436,"Ġparad":10437,"ĠEconomic":10438,"ĠRom":10439,"Ġsubscrib":10440,"ĠLux":10441,"icating":10442,"ateral":10443,"graduate":10444,"ERE":10445,"Ġconvin":10446,"fa":10447,"Ġske":10448,"ohn":10449,"Ġbull":10450,"Ġsteady":10451,"Ġobstacles":10452,"gets":10453,"Ġfunny":10454,"Ġarrested":10455,"Ġaluminum":10456,"Ġrhyth":10457,"Ġadvocate":10458,"Ġliked":10459,"roduct":10460,"Ġtranslation":10461,"Ġtreats":10462,"ĠToronto":10463,"Ġ250":10464,"Ġeast":10465,"ĠFord":10466,"Ġassociate":10467,"igure":10468,"ĠSus":10469,"selling":10470,"Ġadj":10471,"Ġelected":10472,"Ġattractions":10473,"Down":10474,"__":10475,"Ġchampion":10476,"ĠDonald":10477,"asures":10478,"Ġnose":10479,"Ġwheels":10480,"Eng":10481,"Ġprevents":10482,"Ġproducer":10483,"Ġintegrating":10484,"ĠIce":10485,"Ġpreference":10486,"Ġinvaluable":10487,"ĠBarb":10488,"ropical":10489,"Ġscreening":10490,"arma":10491,"ĠModel":10492,"UM":10493,"Ġshirt":10494,"Ġworried":10495,"Ġbranding":10496,"Ġcolumn":10497,"Ġtied":10498,"Ġuncover":10499,"ĠObama":10500,"Ġembracing":10501,"Ġbuff":10502,"aska":10503,"Ġqueries":10504,"Ġpit":10505,"ĠAmb":10506,"ĠFall":10507,"ĠMonth":10508,"ĠConstruction":10509,"Ġarmy":10510,"ĠSafe":10511,"inet":10512,"Ġroutes":10513,"Ġthereby":10514,"Ġprincipal":10515,"kind":10516,"ĠPalestin":10517,"Ġlean":10518,"Ms":10519,"ĠScotland":10520,"Ġtons":10521,"Ġgaps":10522,"Ġunauthor":10523,"Ġbonds":10524,"ĠBad":10525,"ĠRub":10526,"Ġdestinations":10527,"Ġarbit":10528,"Ġmitigate":10529,"ĠCapt":10530,"ulent":10531,"||":10532,"oning":10533,"Set":10534,"owing":10535,"ĠRepair":10536,"Ġsunlight":10537,"Ġsimultaneously":10538,"arring":10539,"ĠLinkedIn":10540,"Ġagriculture":10541,"Ġsensors":10542,"Ġbeaches":10543,"ĠComb":10544,"Ġmotivated":10545,"Ġtablet":10546,"Ġexem":10547,"Ġplain":10548,"Ġrevolves":10549,"incare":10550,"ordination":10551,"Ġunderstands":10552,"Ġdentist":10553,"reating":10554,"bot":10555,"Ġcaring":10556,"Ġprecisely":10557,"ĠSir":10558,"Som":10559,"ifier":10560,"iki":10561,"Ġdifferently":10562,"Ġreadily":10563,"Ġapplicants":10564,"Ġincentive":10565,"Ġsurroundings":10566,"EF":10567,"Ġprizes":10568,"ilitation":10569,"Ġtempt":10570,"egin":10571,"?\"":10572,"uana":10573,"ref":10574,"connect":10575,"Ġtransformed":10576,"ĠVit":10577,"ĠCover":10578,"iously":10579,"ĠCut":10580,"stein":10581,"Rel":10582,"Ġcustomization":10583,"ĠDy":10584,"iffs":10585,"cho":10586,"inois":10587,"Ġhanging":10588,"Ġshaped":10589,"Ġbub":10590,"Ġhyp":10591,"rot":10592,"isp":10593,"ĠAge":10594,"Ġlifes":10595,"ĠStation":10596,"Ġcrystal":10597,"Ġtrails":10598,"Ġenrich":10599,"Ġviewed":10600,"sey":10601,"esty":10602,"Ġswift":10603,"ĠTaylor":10604,"ĠTools":10605,"ĠCer":10606,"Ġinsect":10607,"heim":10608,"ĠDate":10609,"ĠVPN":10610,"Ġreceives":10611,"ĠJac":10612,"Ġdemanding":10613,"Ne":10614,"Ġenemy":10615,"Ġtiming":10616,"Ġpregnant":10617,"hop":10618,"Play":10619,"anqu":10620,"ĠAst":10621,"Ġconcentration":10622,"Ġfundra":10623,"Ġcleaner":10624,"ifted":10625,"ensus":10626,"Ġtill":10627,"Ġtransfers":10628,"Ġautonom":10629,"Ġslee":10630,"Ġintim":10631,"Ġintelligent":10632,"forming":10633,"Ġoverlook":10634,"Ġpropri":10635,"Ġimmigration":10636,"Ġrounds":10637,"Ġquotes":10638,"Ġdesires":10639,"Fr":10640,"Ġdrama":10641,"ĠCirc":10642,"unate":10643,"ĠSize":10644,"ECT":10645,"Ġspouse":10646,"ulous":10647,"Ġbuilds":10648,"ioxid":10649,"ĠJoseph":10650,"PP":10651,"Ġlegally":10652,"ĠGh":10653,"ĠDemocratic":10654,"Ġconcert":10655,"Ġspokes":10656,"ĠâĢĻ":10657,"ordan":10658,"Ġpublishing":10659,"Ġannually":10660,"42":10661,"thew":10662,"ĠPy":10663,"Ġformats":10664,"iov":10665,"Ġ33":10666,"Ġfinances":10667,"Ġbelt":10668,"missions":10669,"ĠFL":10670,"arry":10671,"Ġsoap":10672,"ĠOd":10673,"Ġmyster":10674,"anches":10675,"inst":10676,"ĠStan":10677,"ĠKat":10678,"Ġpoverty":10679,"Ġgrows":10680,"Ġwatches":10681,"ĠPA":10682,"Ġcourage":10683,"Ġwatched":10684,"Ġforum":10685,"ĠAdvent":10686,"ropri":10687,"igrants":10688,"ĠSlot":10689,"Â·":10690,"Ġversus":10691,"elfare":10692,"isan":10693,"Ġdramatic":10694,"Ġhiking":10695,"ĠHub":10696,"Ġdiscretion":10697,"oT":10698,"Ġinvested":10699,"Ġfootprint":10700,"NG":10701,"Ġlabels":10702,"GBT":10703,"ĠInvestment":10704,"wal":10705,"apse":10706,"Ġuncle":10707,"Ġski":10708,"card":10709,"ĠStaff":10710,"Ġcompatibility":10711,"ĠDom":10712,"Ġachievement":10713,"itual":10714,"Ġfu":10715,"Ġreverse":10716,"Ġrac":10717,"ĠAh":10718,"Ġobtaining":10719,"ĠDelhi":10720,"pired":10721,"Oh":10722,"Ġroofing":10723,"400":10724,"Ġstem":10725,"ĠHor":10726,"inf":10727,"Ġagenda":10728,"ĠBroad":10729,"BO":10730,"ĠRay":10731,"Ġsentence":10732,"Ġglow":10733,"ĠET":10734,"Ġtransferred":10735,"Ġrarely":10736,"Ġconsiderable":10737,"otherapy":10738,"acter":10739,"Ġmarine":10740,"htt":10741,"ĠBased":10742,"Two":10743,"ĠEarly":10744,"Ġhung":10745,"Ġreserved":10746,"Ġreactions":10747,"ĠBol":10748,"Ġanytime":10749,"ĠNature":10750,"Ġoptimizing":10751,"View":10752,"ĠHun":10753,"Ġdisabilities":10754,"05":10755,"Ġparameters":10756,"ĠStrategy":10757,"Ġcircle":10758,"ĠHope":10759,"ĠCommercial":10760,"gain":10761,"Mod":10762,"Ġvoices":10763,"ĠAssistant":10764,"enth":10765,"EV":10766,"Ġcelebrating":10767,"notch":10768,"Ġcheaper":10769,"Ġbunch":10770,"ĠDental":10771,"Ġbite":10772,"Ġreplacing":10773,"Ġgardens":10774,"Ġsoldiers":10775,"Ġcorn":10776,"Ġtremend":10777,"Ġmultip":10778,"AND":10779,"elihood":10780,"ĠPick":10781,"Ġconsolid":10782,"fficiency":10783,"asting":10784,"Ġdeciding":10785,"ĠFilm":10786,"Ġliber":10787,"Ġcraftsmanship":10788,"Ġtender":10789,"ĠThings":10790,"Ġshorter":10791,"ĠNFL":10792,"ĠCreative":10793,"Ġwishes":10794,"Ġmodify":10795,"Ġpushed":10796,"marks":10797,"abeth":10798,"aple":10799,"ijuana":10800,"Ġdeaths":10801,"Ġsecuring":10802,"Ġassessments":10803,"action":10804,"HD":10805,"ĠAttorney":10806,"Fl":10807,"Ġhood":10808,"Ġliable":10809,"Ġlease":10810,"hesive":10811,"Ġjurisdiction":10812,"Ġcookie":10813,"Ġ1000":10814,"inson":10815,"Ġworship":10816,"Ġcontacts":10817,"Ġhitting":10818,"Ġbeans":10819,"Ġ2003":10820,"Ġarchitectural":10821,"ĠOcean":10822,"Ġnervous":10823,"Benefits":10824,"iler":10825,"Ġwrap":10826,"Ġconsume":10827,"Ġultra":10828,"Ġunt":10829,"Ġgenerating":10830,"Ġuncertainty":10831,"rene":10832,"Ġspell":10833,"Ġfinishing":10834,"unicipal":10835,"Ġmonetary":10836,"Ġcontainers":10837,"Ġplane":10838,"ĠPrim":10839,"Ġcrisp":10840,"Ġstir":10841,"Ġdirections":10842,"Ġanalyzing":10843,"Ġ38":10844,"ĠSD":10845,"Ġshield":10846,"Ġingredient":10847,"Ġ120":10848,"ĠVirtual":10849,"urdy":10850,"Ġmodule":10851,"Ġstorytelling":10852,"Ġchef":10853,"ĠOntario":10854,"rus":10855,"Ġcompliment":10856,"Ġvertical":10857,"Ġvig":10858,"ressing":10859,"Ġaccessing":10860,"Ġpic":10861,"aug":10862,"Ġimagination":10863,"Ġdies":10864,"Ġcollecting":10865,"Ġexplos":10866,"Ġgrip":10867,"ivation":10868,"axy":10869,"Ġswing":10870,"Ġbackgrounds":10871,"Ġhandled":10872,"Ġtransforming":10873,"Ġtactics":10874,"ĠHouston":10875,"Ġfault":10876,"Ġdelete":10877,"ilty":10878,"ĠVent":10879,"viously":10880,"iciency":10881,"Ġthermal":10882,"mates":10883,"2024":10884,"Ġbacked":10885,"Ġdeclared":10886,"Ġharb":10887,"Post":10888,"isted":10889,"lend":10890,"Ġadverse":10891,"Ġasks":10892,"oen":10893,"ĠPrin":10894,"Ġdilig":10895,"ĠMoon":10896,"Ġovernight":10897,"Ġlikelihood":10898,"ĠShort":10899,"ĠPo":10900,"LP":10901,"Ġadjustable":10902,"ĠFa":10903,"Ġvoting":10904,"Ġfifth":10905,"ĠLot":10906,"Ġmoon":10907,"ĠCore":10908,"GA":10909,"Ġshade":10910,"Ġadmit":10911,"Ġ37":10912,"ĠDu":10913,"Ġwinners":10914,"Ġprosper":10915,"Ġangle":10916,"Ġcomplaints":10917,"Ġhip":10918,"Ġrestricted":10919,"ĠSpot":10920,"Ġcolorful":10921,"Ġundersc":10922,"ĠDifferent":10923,"Ġspacious":10924,"Ġproducers":10925,"Ġdeleg":10926,"Ġrefreshing":10927,"Will":10928,"ivated":10929,"Ġorganize":10930,"Ġweapon":10931,"Ġevolved":10932,"Ġbass":10933,"Ġfeeding":10934,"emies":10935,"Ġmarg":10936,"Ġinch":10937,"ĠHair":10938,"Ġspeeds":10939,"Ġcute":10940,"ĠParticip":10941,"ĠPartner":10942,"olly":10943,"ATE":10944,"ostic":10945,"have":10946,"tw":10947,"Ġpose":10948,"Ġfarming":10949,"Ġrib":10950,"itched":10951,"ĠPremium":10952,"ockets":10953,"phia":10954,"oons":10955,"Ġarrangement":10956,"istical":10957,"Based":10958,"Ġmeasurement":10959,"Ġconcluded":10960,"ĠDiam":10961,"attle":10962,"Her":10963,"Ġaccompanied":10964,"Ġmerchand":10965,"Ġcomplications":10966,"Ġnorthern":10967,"pots":10968,"obb":10969,"Ġenjoys":10970,"ĠSM":10971,"Ġcalculated":10972,"Ġsubstances":10973,"Ġscar":10974,"ĠEffect":10975,"Ġdonation":10976,"Ġhumanity":10977,"ĠBC":10978,"Ġbene":10979,"plant":10980,"Ġsensor":10981,"ĠPrep":10982,"Ġdiscussing":10983,"Ġtherapeutic":10984,"Ġentertaining":10985,"ĠPast":10986,"ĠHig":10987,"Ġincur":10988,"Both":10989,"ĠArchitect":10990,"Ġpays":10991,"Ġpatience":10992,"ogs":10993,"Ġanyway":10994,"ĠSteel":10995,"Ġregulated":10996,"Ġrefriger":10997,"Ġtrucks":10998,"eding":10999,"ĠLA":11000,"Ġheaven":11001,"Ġallev":11002,"stop":11003,"ĠVIP":11004,"ĠIndones":11005,"Ġsellers":11006,"Ġsorts":11007,"anny":11008,"Ġelsewhere":11009,"Ġdietary":11010,"ĠSquare":11011,"exp":11012,"burgh":11013,"Ġdelighted":11014,"Ġdess":11015,"Ġprospective":11016,"ĠIllinois":11017,"iger":11018,"Ġloads":11019,"aped":11020,"arity":11021,"Ġaqu":11022,"ĠKorean":11023,"ĠUnivers":11024,"Ġprotects":11025,"reated":11026,"redict":11027,"Ġalgorithm":11028,"Ġbrew":11029,"ĠProtect":11030,"ĠBridge":11031,"ĠBase":11032,"Overall":11033,"ĠIntelligence":11034,"Ġvarieties":11035,"Ġ34":11036,"Ġmanifest":11037,"ĠAdam":11038,"Ġly":11039,"Ġvacuum":11040,"iro":11041,"rior":11042,"cor":11043,"ĠPerhaps":11044,"ĠLind":11045,"ĠMother":11046,"ĠInterest":11047,"ĠPhD":11048,"adelphia":11049,"Ġtoken":11050,"Ġbund":11051,"Ġrecipient":11052,"ĠAffairs":11053,"ko":11054,"thening":11055,"ĠMotor":11056,"Ġstops":11057,"Ġtie":11058,"cling":11059,"this":11060,"Ġpopulations":11061,"flix":11062,"Ġregards":11063,"Ġrobot":11064,"ĠIndepend":11065,"ĠNick":11066,"Ġcryptocurrencies":11067,"changing":11068,"Ġleisure":11069,"Good":11070,"Ġappetite":11071,"ĠCrypt":11072,"ĠBon":11073,"Ġspir":11074,"Ġaccred":11075,"ĠWhats":11076,"Ġenvironmentally":11077,"Ġrespectively":11078,"conf":11079,"Ġ1980":11080,"herent":11081,"Ġsteam":11082,"ribute":11083,"itzer":11084,"Ġphysician":11085,"ĠTikTok":11086,"rub":11087,"Health":11088,"Ġceiling":11089,"Ġtoilet":11090,"Ġsuited":11091,"Ġcuisine":11092,"Ġratings":11093,"ĠTai":11094,"Ġdependent":11095,"Consider":11096,"anchester":11097,"bound":11098,"Ġtar":11099,"Ġcarries":11100,"Ġuniversal":11101,"Ġbands":11102,"Ġexcel":11103,"Ġunlikely":11104,"ushes":11105,"Ġremem":11106,"tage":11107,"Ġproved":11108,"Ġlawsuit":11109,"Ġgum":11110,"iology":11111,"Ġheal":11112,"ĠLoss":11113,"Ġperception":11114,"ĠPoly":11115,"Ġattributes":11116,"ĠBB":11117,"iscal":11118,"odium":11119,"Ġkilling":11120,"Ġedges":11121,"iaries":11122,"Ġmigration":11123,"Ġpaths":11124,"Ġhygiene":11125,"Ġgem":11126,"Ġbottles":11127,"aved":11128,"IB":11129,"Ġwrites":11130,"Ġresistant":11131,"Ġconstructed":11132,"Ġattain":11133,"Ġyards":11134,"Ġmath":11135,"Ġadmitted":11136,"rous":11137,"aine":11138,"rix":11139,"Ġrecycling":11140,"ĠVillage":11141,"hesis":11142,"Ġpor":11143,"aron":11144,"Ġscored":11145,"Ġmystery":11146,"Ġhazard":11147,"].":11148,"best":11149,"ĠAk":11150,"Ġreserves":11151,"Ġpeer":11152,"ifer":11153,"Cle":11154,"ĠLu":11155,"ureau":11156,"Ġdeadline":11157,"ĠYOUR":11158,"Ġspeaks":11159,"break":11160,"DC":11161,"bro":11162,"ĠEveryone":11163,"Ġpeers":11164,"ceptions":11165,"Ġexplicit":11166,"Ġcatering":11167,"Ġbeginners":11168,"ĠPra":11169,"Ġvaries":11170,"ĠSciences":11171,"ĠTherapy":11172,"Ġmaps":11173,"plement":11174,"Ġpest":11175,"Ġseeks":11176,"Ġexplores":11177,"ĠMove":11178,"boy":11179,"ĠGolf":11180,"Ġconditioning":11181,"Ġenormous":11182,"Ġfabrics":11183,"Ġbuttons":11184,"Ġtomat":11185,"Ġenl":11186,"ĠGP":11187,"Ġframes":11188,"Ġye":11189,"Ġsecrets":11190,"Ġreinfor":11191,"pire":11192,"Ġties":11193,"Ġmeasurements":11194,"anth":11195,"Ġindicators":11196,"formed":11197,"elve":11198,"Ġaiming":11199,"Mon":11200,"Off":11201,"VC":11202,"egree":11203,"Ġvarying":11204,"ugged":11205,"Ġfluctu":11206,"Ġappointments":11207,"asted":11208,"Ġ95":11209,"Ġtourist":11210,"Ġpipe":11211,"ospel":11212,"Commerce":11213,"ĠAB":11214,"Ġinev":11215,"ĠOK":11216,"Ġwax":11217,"ĠCooper":11218,"illance":11219,"Ġmanufactured":11220,"Ġvitamins":11221,"urches":11222,"Ġample":11223,"Ġfunded":11224,"iva":11225,"Ġoffensive":11226,"ĠKit":11227,"Ġfulfilling":11228,"Ġsupporters":11229,"Ġcrimes":11230,"Ġincidents":11231,"Ġunlimited":11232,"Ġdiscipline":11233,"link":11234,"Ġreferences":11235,"Ġpainted":11236,"Ġresponded":11237,"ailand":11238,"Ġethnic":11239,"Ġprolong":11240,"Ġinfluences":11241,"Ġoverseas":11242,"Ġcomplexities":11243,"aval":11244,"Ġsurely":11245,"onder":11246,"Ġdowntown":11247,"Ġpasses":11248,"rong":11249,"ĠSC":11250,"Ġconj":11251,"Ġrecru":11252,"Ġdonations":11253,"ĠBudd":11254,"ĠCa":11255,"boarding":11256,"ĠHawai":11257,"Ġexit":11258,"ĠLGBT":11259,"kens":11260,"Ġcrafting":11261,"OK":11262,"ĠBand":11263,"Ġknife":11264,"Ġwage":11265,"ardless":11266,"case":11267,"Ġalleg":11268,"ĠDead":11269,"Ġdirectors":11270,"Ġdispute":11271,"ĠColumbia":11272,"pay":11273,"Hel":11274,"Ġappreciated":11275,"Ġmeasured":11276,"Ġsuspend":11277,"Ġargue":11278,"Ġexchanges":11279,"Ġwellbeing":11280,"Ġbabies":11281,"Ġshortly":11282,"ĠRyan":11283,"ĠThird":11284,"pically":11285,"Ġforefront":11286,"imum":11287,"allas":11288,"ĠRod":11289,"Ġerectile":11290,"Ġbeef":11291,"Ġminerals":11292,"check":11293,"Ġbrick":11294,"Ġsinger":11295,"QL":11296,"Net":11297,"isting":11298,"shore":11299,"orient":11300,"Ġantioxid":11301,"Ġax":11302,"ouring":11303,"ĠPromot":11304,"Ġsupplied":11305,"Ġgotten":11306,"rin":11307,"elle":11308,"ĠRaj":11309,"Ġruling":11310,"Ġsurgical":11311,"Ġdemo":11312,"ĠOak":11313,"izabeth":11314,"Tech":11315,"Ġempowering":11316,"only":11317,"bra":11318,"Ġcopies":11319,"ĠCL":11320,"Ġliver":11321,"Ġhorses":11322,"Ġalignment":11323,"ĠPortug":11324,"41":11325,"FS":11326,"Ret":11327,"build":11328,"Ġcalories":11329,"ĠGrowth":11330,"78":11331,"ĠGlass":11332,"Ġroughly":11333,"ĠCommunication":11334,"oubted":11335,"IVE":11336,"Ġreflecting":11337,"Ġreception":11338,"GE":11339,"Ġfemin":11340,"ĠMix":11341,"Ġconfront":11342,"Ġcircuit":11343,"ĠGovernor":11344,"Ġbiod":11345,"Ġslip":11346,"Ġflags":11347,"Ġstruggles":11348,"regon":11349,"ĠPrivacy":11350,"iah":11351,"Ġhospitality":11352,"ĠFlex":11353,"Ġengineer":11354,"called":11355,"oween":11356,"Ġurgent":11357,"ĠDocu":11358,"Ġsynd":11359,"ĠKids":11360,"rowing":11361,"Ġboot":11362,"iosity":11363,"Ġmeasuring":11364,"Does":11365,"Ġanalys":11366,"ĠWales":11367,"ĠCourse":11368,"opt":11369,"Ġintensity":11370,"Ã¤":11371,"Ġspecialize":11372,"Ġglasses":11373,"ĠTreatment":11374,"ĠSamsung":11375,"ĠVery":11376,"atable":11377,"Ġneeding":11378,"Ġwarehouse":11379,"Ġwestern":11380,"ĠRegional":11381,"ĠDiego":11382,"Ġinters":11383,"Ġdevast":11384,"Ġschedules":11385,"Ġgrain":11386,"Ġorganizational":11387,"Ġseating":11388,"ĠStone":11389,"Ġrecall":11390,"Ġpayroll":11391,"ĠHost":11392,"bec":11393,"Ġtennis":11394,"days":11395,"week":11396,"ĠRon":11397,"Ġcleans":11398,"Ġraces":11399,"Ġprints":11400,"American":11401,"ĠSA":11402,"ito":11403,"Ġindependently":11404,"Ġheadqu":11405,"WH":11406,"lining":11407,"ĠDar":11408,"Ġ2002":11409,"ĠKar":11410,"ĠCRM":11411,"store":11412,"ilson":11413,"Ġtablets":11414,"pool":11415,"Ġtastes":11416,"fish":11417,"Ġfastest":11418,"Ġbrowse":11419,"wich":11420,"Ġmultipl":11421,"bean":11422,"Ġauction":11423,"amination":11424,"Data":11425,"ĠAsked":11426,"ĠAnnual":11427,"leading":11428,"Ġphrase":11429,"oubtedly":11430,"Ġadmission":11431,"Ġdeployment":11432,"ĠDJ":11433,"Ġauthenticity":11434,"ĠNur":11435,"arts":11436,"CB":11437,"sis":11438,"ĠâĢĿ":11439,"Ġprestigious":11440,"rying":11441,"Ġneglect":11442,"Ġboots":11443,"ĠEverything":11444,"Ġwardrobe":11445,"Ġtourists":11446,"ĠFollowing":11447,"ĠMaking":11448,"tains":11449,"greg":11450,"itations":11451,"arer":11452,"Ġcoaches":11453,"ĠPayment":11454,"Ġfinishes":11455,"Ġfence":11456,"ĠNiger":11457,"nesota":11458,"Ġcredibility":11459,"ĠKy":11460,"Ġthinks":11461,"season":11462,"Ġaids":11463,"ITH":11464,"Ġrecommendation":11465,"Ġfingers":11466,"Ġpresenting":11467,"Ġveteran":11468,"ĠText":11469,"Ġspectacular":11470,"Ġgallery":11471,"Ġfed":11472,"Ġintroducing":11473,"ĠSolar":11474,"Ġdiscrimination":11475,"Ġtags":11476,"Ġcush":11477,"ĠSem":11478,"Ġskincare":11479,"usal":11480,"ĠChen":11481,"ĠVeter":11482,"ĠNO":11483,"Ġsurveys":11484,"ĠIndividual":11485,"Ġtrailer":11486,"Ġcoronavirus":11487,"Ġships":11488,"Ġdemocracy":11489,"ĠOpportun":11490,"ĠEnc":11491,"Ġlung":11492,"raints":11493,"43":11494,"etch":11495,"ĠEric":11496,"Ġbeds":11497,"Ġlandl":11498,"Ġsturdy":11499,"Ġknock":11500,"Ġvenues":11501,"ĠCancer":11502,"atoes":11503,"ĠTR":11504,"ĠNFT":11505,"Ġdenied":11506,"ĠNic":11507,"ĠYouth":11508,"Ġfrozen":11509,"Ġpremier":11510,"Ġcompromise":11511,"ĠSab":11512,"Ġepisodes":11513,"ĠCT":11514,"Ġcanvas":11515,"Act":11516,"Ġconflicts":11517,"Ġpursuing":11518,"ĠClear":11519,"ĠSport":11520,"Ġritual":11521,"Ġoptimized":11522,"DI":11523,"Ġleaks":11524,"Ġchip":11525,"Ġsinging":11526,"Ġstones":11527,"Invest":11528,"ĠReviews":11529,"Ġdisposal":11530,"âĢ¦.":11531,"Ġincorrect":11532,"ĠBell":11533,"Ġheaded":11534,"Ġshelter":11535,"ĠMedicare":11536,"Pay":11537,"Ġcompos":11538,"Ġtranqu":11539,"Ġinternationally":11540,"Ġ99":11541,"Ġdisadvant":11542,"Ġclip":11543,"Ġdesper":11544,"Ġbreakdown":11545,"ori":11546,"Ġgamble":11547,"Ġloop":11548,"udd":11549,"oa":11550,"Ġfatigue":11551,"Ġsatell":11552,"ĠOs":11553,"Ġconsultant":11554,"Ġsatisfying":11555,"Ġexplanation":11556,"game":11557,"Ġscheduling":11558,"Ġreflected":11559,"Ġeuro":11560,"igs":11561,"ĠMail":11562,"ĠAustin":11563,"Ġears":11564,"Ġunauthorized":11565,"Ġcurve":11566,"Ġaccountability":11567,"Ġcustoms":11568,"ĠNAS":11569,"Ġgenre":11570,"ĠVictoria":11571,"Day":11572,"ildren":11573,"Ġimpacted":11574,"Call":11575,"ĠPrince":11576,"Which":11577,"ĠCarl":11578,"IGH":11579,"ĠDeep":11580,"ĠMagn":11581,"Ġrankings":11582,"amine":11583,"ĠDefense":11584,"Ġunpre":11585,"indu":11586,"ĠRadio":11587,"oli":11588,"Ġlemon":11589,"Ġdeemed":11590,"Ġpenet":11591,"Ġfertil":11592,"Ġbones":11593,"conscious":11594,"Ġbasics":11595,"Ġmodified":11596,"Ġbranches":11597,"umbers":11598,"Ġpepper":11599,"Ġmoderate":11600,"ĠAy":11601,"ika":11602,"Ġmature":11603,"Ġparalle":11604,"ĠPhiladelphia":11605,"aud":11606,"Ġreim":11607,"Ġvegan":11608,"Ġneglig":11609,"Ġtransit":11610,"Ġtowns":11611,"ĠCertified":11612,"ĠHappy":11613,"Ġgad":11614,"Ġsheets":11615,"Ġsporting":11616,"enders":11617,"ĠSound":11618,"ilton":11619,"ĠValue":11620,"ryst":11621,"Ġreven":11622,"paced":11623,"zens":11624,"Ġknee":11625,"Ġoldest":11626,"Ġportray":11627,"plex":11628,"elebr":11629,"range":11630,"amily":11631,"ĠMoh":11632,"ĠWithin":11633,"ĠCollabor":11634,"pur":11635,"Ġtiles":11636,"Ġinhib":11637,"ucks":11638,"ĠHas":11639,"SW":11640,"oz":11641,"ĠPayPal":11642,"Ġcaution":11643,"ĠAssembly":11644,"irable":11645,"thod":11646,"ĠPH":11647,"Ġbreathtaking":11648,"Ġreset":11649,"Ġcharacterized":11650,"Comp":11651,"ĠOrganization":11652,"ĠChem":11653,"amel":11654,"ĠJer":11655,"Ġtheft":11656,"Ġanswered":11657,"ĠDemocrats":11658,"olen":11659,"Ġ2001":11660,"Ġgel":11661,"owed":11662,"mith":11663,"Ġchairs":11664,"Ġbrothers":11665,"Ġtoy":11666,"Ġbell":11667,"ĠNation":11668,"ĠRisk":11669,"Ġrenov":11670,"ĠIslam":11671,"high":11672,"Ġcorporations":11673,"Ġoccasionally":11674,"Ġaggreg":11675,"Ġassignment":11676,"ricts":11677,"Ġcreatures":11678,"Ġendeav":11679,"ĠAnth":11680,"omatic":11681,"Ġaspir":11682,"Ġpursuit":11683,"ĠMaintenance":11684,"ĠAlliance":11685,"Ġcooked":11686,"service":11687,"Ġworlds":11688,"Ġvendor":11689,"!\"":11690,"Ġstreams":11691,"Ġrefine":11692,"ĠForeign":11693,"Ġpreced":11694,"ounding":11695,"ĠAlong":11696,"ĠWinter":11697,"Ġnurse":11698,"inction":11699,"undry":11700,"utes":11701,"Ġpublications":11702,"aire":11703,"ĠBE":11704,"Ġsimplicity":11705,"Ġendorse":11706,"Ġidentical":11707,"ORE":11708,"ĠMelbourne":11709,"unes":11710,"Ġranges":11711,"Ġphotographer":11712,"Ġgratitude":11713,"Ġcups":11714,"Ġtalents":11715,"Ġqualifications":11716,"ĠTan":11717,"ĠCorn":11718,"ĠJordan":11719,"Ġtwe":11720,"ĠGro":11721,"ĠFab":11722,"ĠPremier":11723,"ĠPerson":11724,"Ġreinforce":11725,"John":11726,"Ġattendees":11727,"Ġportra":11728,"Ps":11729,"Ġstruck":11730,"Ġaligned":11731,"ĠBelow":11732,"Ġrescue":11733,"67":11734,"Ġrings":11735,"Ġ1970":11736,"ĠRespons":11737,"Ġcombinations":11738,"Ġrecycled":11739,"Ġpainful":11740,"ained":11741,"Ġradical":11742,"Ġsophistication":11743,"ĠUkrain":11744,"Ġescal":11745,"Ġdump":11746,"interest":11747,"Ġanch":11748,"Ġmandatory":11749,"ĠTree":11750,"Ġstartups":11751,"ounge":11752,"Ġdiamond":11753,"Ġlearners":11754,"Ġreaches":11755,"Ġadhere":11756,"ĠStorage":11757,"Ġmusicians":11758,"ĠCulture":11759,"ĠClassic":11760,"ĠBeyond":11761,"Ġnationwide":11762,"Ġpresidential":11763,"ĠAtlanta":11764,"Ġoutlined":11765,"ĠVisa":11766,"Ġcoastal":11767,"ĠJr":11768,"Bel":11769,"ĠLew":11770,"ĠCF":11771,"Ġassemb":11772,"Ġguilty":11773,"ĠEvents":11774,"asty":11775,"ĠTurk":11776,"ĠAvenue":11777,"onia":11778,"elta":11779,"Ġgay":11780,"Ġfreel":11781,"Ġcirculation":11782,"ĠEditor":11783,"rup":11784,"ĠThailand":11785,"ĠArticle":11786,"ablish":11787,"Did":11788,"cal":11789,"ĠDrug":11790,"ĠLeadership":11791,"ulates":11792,"ĠManchester":11793,"Ġbree":11794,"verages":11795,"Ġtricks":11796,"bered":11797,"Ġbeneath":11798,"150":11799,"Ġmomentum":11800,"Äģ":11801,"writing":11802,"fin":11803,"Ġdealers":11804,"Ġpositioning":11805,"Ġlicenses":11806,"ĠTrack":11807,"ĠDutch":11808,"PD":11809,"Ġmaj":11810,"ĠEsc":11811,"Ġcontinually":11812,"Ġelectro":11813,"Ġshifts":11814,"Ġcrop":11815,"Ġfantasy":11816,"Ġdestroyed":11817,"hell":11818,"Ġmerchandise":11819,"ailed":11820,"Ġdemocr":11821,"ĠBreak":11822,"Ġsubscribe":11823,"Ġaccomplished":11824,"Ġshades":11825,"agraph":11826,"Ġwines":11827,"Ġcoating":11828,"ĠApply":11829,"ĠANY":11830,"ĠSubs":11831,"ĠOregon":11832,"ĠSER":11833,"ĠUAE":11834,"Ġvolatility":11835,"Ġthrilled":11836,"hend":11837,"Ġcord":11838,"Ġbaseball":11839,"ĠUpd":11840,"Ġenjoyment":11841,"Ġcorresponding":11842,"Ġregime":11843,"ĠJess":11844,"ĠSarah":11845,"Main":11846,"Ġherbs":11847,"Ġmarijuana":11848,"600":11849,"Ġhandles":11850,"Ġcruise":11851,"Ġnest":11852,"ĠGummies":11853,"resistant":11854,"Ġadvisor":11855,"Ġtreasure":11856,"ĠBot":11857,"Ġnotify":11858,"ĠFront":11859,"Ġbiological":11860,"Ġstabil":11861,"closure":11862,"Ġinquiries":11863,"Ġolive":11864,"rine":11865,"ĠInspect":11866,"Ġpizza":11867,"Ġpreserving":11868,"ĠEnvironment":11869,"Ġcamping":11870,"Ġwidth":11871,"Ġthoughtful":11872,"Ġvinyl":11873,"Ġrecur":11874,"Ġvolumes":11875,"Ġtu":11876,"Ġpayout":11877,"Ġcosmetic":11878,"minded":11879,"ĠSide":11880,"Ġtort":11881,"ĠMinnesota":11882,"abs":11883,"Ġincom":11884,"Ġordering":11885,"Ġspare":11886,"Ġaffairs":11887,"Ġelectronics":11888,"Ġviolation":11889,"Ġsubmission":11890,"ĠClient":11891,"Ġsequence":11892,"ĠBern":11893,"Ġpaintings":11894,"Ġic":11895,"Ġbrace":11896,"Ac":11897,"Ġdigit":11898,"Ref":11899,"rors":11900,"first":11901,"Ġench":11902,"ĠSaint":11903,"ige":11904,"Ġcurated":11905,"Explore":11906,"ĠLess":11907,"Ġinterpretation":11908,"Ġunve":11909,"Ġexped":11910,"Ġpacking":11911,"Ġsnacks":11912,"Ġpenalties":11913,"Ġcapturing":11914,"car":11915,"ĠNether":11916,"Following":11917,"Ġfootage":11918,"Ġabsorb":11919,"stic":11920,"Ġ42":11921,"Ġlistings":11922,"ĠHu":11923,"Ġtempor":11924,"ĠBrother":11925,"trans":11926,"ĠDepending":11927,"Ġvisitor":11928,"Ġsnap":11929,"Ġmeticulously":11930,"ĠClimate":11931,"Ġpreval":11932,"Ġstayed":11933,"Ġsettled":11934,"Ġcig":11935,"aret":11936,"Ġparticles":11937,"Ġexecute":11938,"ĠBrook":11939,"Ġlaboratory":11940,"ĠLanguage":11941,"MM":11942,"Ġrect":11943,"ĠGree":11944,"Ġnotification":11945,"Ġpipes":11946,"erted":11947,"tered":11948,"Ġrede":11949,"ĠRepresent":11950,"Ġlibr":11951,"ĠVision":11952,"Ġsoccer":11953,"Ġdos":11954,"ima":11955,"ĠIndustrial":11956,"Ġpenalty":11957,"enter":11958,"Ġminimizing":11959,"DR":11960,"ĠStyle":11961,"Ġpossession":11962,"Pres":11963,"ĠBlog":11964,"ĠAfghan":11965,"Ġnit":11966,"ĠFred":11967,"ĠHyd":11968,"isers":11969,"Ġfut":11970,"ĠSave":11971,"Ġdevoted":11972,"Ġdestruction":11973,"Ġundergo":11974,"pson":11975,"Ġgarlic":11976,"ugar":11977,"ĠParliament":11978,"ividually":11979,"Ġimpressed":11980,"68":11981,"Ġharmony":11982,"Ġ600":11983,"Ġdemonstrates":11984,"Ġlaunching":11985,"ĠCreek":11986,"Download":11987,"mod":11988,"Ġtrustworthy":11989,"Ġpracticing":11990,"ĠALL":11991,"Ġlighter":11992,"Ġspecialty":11993,"Ġincorporated":11994,"Ġinsure":11995,"Ġgenerator":11996,"gov":11997,"ĠMust":11998,"Ġaccompany":11999,"ĠArm":12000,"FF":12001,"Ġbug":12002,"Ġdraws":12003,"orious":12004,"enery":12005,"ĠIV":12006,"Frequently":12007,"Ġindirect":12008,"ĠIslamic":12009,"Ġ(@":12010,"Ġdeliber":12011,"ĠHarry":12012,"atar":12013,"Ġ39":12014,"Ġnewspaper":12015,"ĠStream":12016,"iscons":12017,"Ġapple":12018,"Ġmodules":12019,"etts":12020,"ĠVR":12021,"heart":12022,"ĠTechnologies":12023,"Ġupgrades":12024,"ĠPL":12025,"Ġattempting":12026,"arest":12027,"ĠHealthcare":12028,"ourcing":12029,"Pub":12030,"ĠCustomers":12031,"isconsin":12032,"xy":12033,"ĠReserve":12034,"Ġhence":12035,"ĠBesides":12036,"Ġadvocacy":12037,"Ġheights":12038,"Ġpresentations":12039,"Ġcopper":12040,"Ġcoordination":12041,"ĠPaper":12042,"Ġlifespan":12043,"arding":12044,"owa":12045,"ĠMom":12046,"Ġproceedings":12047,"Ġthriving":12048,"Ġfestive":12049,"Ġnotifications":12050,"Ġ360":12051,"Ġconnects":12052,"Ġink":12053,"Ġstraw":12054,"cedented":12055,"ĠSex":12056,"Ġstrip":12057,"Ġdefensive":12058,"ĠSale":12059,"Ġmathemat":12060,"ĠNetflix":12061,"achus":12062,"ĠTechnical":12063,"Emb":12064,"64":12065,"ĠHalloween":12066,"ĠTrail":12067,"Ġeligibility":12068,"esy":12069,"Ġspecializes":12070,"Ġgrasp":12071,"ĠHills":12072,"ĠChapter":12073,"ĠSym":12074,"Ġderived":12075,"ĠEve":12076,"Ġcaps":12077,"ĠSE":12078,"etooth":12079,"ĠDallas":12080,"Ġmechanics":12081,"Car":12082,"focus":12083,"pres":12084,"Ġinher":12085,"Ġarmed":12086,"ĠPolit":12087,"ĠDeb":12088,"Ġdisputes":12089,"Ġtexts":12090,"ĠEN":12091,"Ġsustained":12092,"Ġsubstitute":12093,"unnels":12094,"Ġpressing":12095,"Ġmanually":12096,"Ġtestimon":12097,"ĠComplete":12098,"Ġguiding":12099,"Ġhal":12100,"Ġsingles":12101,"Ġzones":12102,"ĠYeah":12103,"Ġevaluating":12104,"Ġgene":12105,"Ġsubscribers":12106,"comed":12107,"Ġconfusion":12108,"dam":12109,"prof":12110,"Ġpromised":12111,"Ġcargo":12112,"Ġcricket":12113,"ĠPurch":12114,"Ġprogrammes":12115,"Ġnuts":12116,"Ġdiving":12117,"Ġgal":12118,"Ġoffline":12119,"Ġsynthetic":12120,"ĠRoof":12121,"Ġinterventions":12122,"ĠPlant":12123,"Ġundoubtedly":12124,"ĠAtlantic":12125,"Ġdamp":12126,"Ġuncomfortable":12127,"umph":12128,"aways":12129,"Ġapparently":12130,"Ġmetabol":12131,"Ġwelfare":12132,"Ġgest":12133,"Ġorganizing":12134,"Ġtube":12135,"tainment":12136,"Ġrespected":12137,"Home":12138,"Ġlicensing":12139,"Ġlin":12140,"Ġparamount":12141,"Ġsaves":12142,"Ġmarking":12143,"Ġshowcases":12144,"ĠAqu":12145,"Ġconce":12146,"Ġseparately":12147,"Ġsemin":12148,"ĠProvide":12149,"Create":12150,"El":12151,"Ġnonprofit":12152,"Ġdivine":12153,"Ġorg":12154,"accarat":12155,"Ġlenders":12156,"ĠBah":12157,"ĠChairman":12158,"Ġsituated":12159,"ICE":12160,"ALL":12161,"offs":12162,"Ġlegendary":12163,"Ġfreely":12164,"olk":12165,"Ġsuspension":12166,"Ġloading":12167,"ĠPit":12168,"ĠCell":12169,"ĠSlots":12170,"ĠForum":12171,"Ġsensitivity":12172,"Ġtherapist":12173,"ĠImprove":12174,"Ġrelate":12175,"ĠDays":12176,"Ġmakers":12177,"Ġcomedy":12178,"ĠLif":12179,"ixtures":12180,"Ġpharmaceutical":12181,"opes":12182,"Ġdisag":12183,"ĠWil":12184,"Ġdistribute":12185,"Ġspoken":12186,"Ġcuriosity":12187,"ĠFAQ":12188,"ĠMalaysia":12189,"Ġgri":12190,"Ġmaintains":12191,"Ġcontamin":12192,"Ġexhibit":12193,"Being":12194,"ĠNear":12195,"ĠDouble":12196,"ĠEnhance":12197,"Ġadvancement":12198,"ĠPhilippines":12199,"atches":12200,"ĠEver":12201,"aph":12202,"Ġenduring":12203,"ista":12204,"Ġbett":12205,"Ġnegotiations":12206,"ĠDetails":12207,"Ġnutritional":12208,"otes":12209,"Ġanger":12210,"Ġballs":12211,"Ġoutlets":12212,"ĠRos":12213,"ĠWhatsApp":12214,"Del":12215,"ĠCome":12216,"Ġinformative":12217,"elect":12218,"Ġproposals":12219,"Ġhouseholds":12220,"Cal":12221,"sur":12222,"Ġtremendous":12223,"Ġperpet":12224,"Ġneighbors":12225,"rett":12226,"Ġvessels":12227,"afood":12228,"Ġsmartphones":12229,"Ġouter":12230,"ĠSpeed":12231,"Ġtong":12232,"Ġfiction":12233,"ĠHenry":12234,"Ġunwanted":12235,"Ġjacket":12236,"Ġreply":12237,"Ġrefined":12238,"Ġpayouts":12239,"ĠSkin":12240,"achusetts":12241,"Ġreass":12242,"Ġvotes":12243,"aki":12244,"Ġreplica":12245,"Care":12246,"Ġveterans":12247,"quire":12248,"Ġcreator":12249,"oenix":12250,"ĠKind":12251,"Ġcoding":12252,"Ġaccepting":12253,"Ġmainstream":12254,"Ġhired":12255,"98":12256,"Ġtemple":12257,"Ġparticipated":12258,"Ġinspections":12259,"Ġdried":12260,"ĠChristians":12261,"ĠMuch":12262,"ĠJam":12263,"Ġ800":12264,"Ġmachinery":12265,"intend":12266,"ĠSaudi":12267,"Ġlocked":12268,"ims":12269,"uru":12270,"Ġdisclosure":12271,"Ġaccelerate":12272,"bled":12273,"ĠTa":12274,"sex":12275,"ĠMission":12276,"ĠBan":12277,"atter":12278,"angle":12279,"Ġpatch":12280,"ĠCoffee":12281,"Ġslide":12282,"aux":12283,"Personal":12284,"ĠUnit":12285,"à¥":12286,"ĠTheatre":12287,"Ġfitting":12288,"lades":12289,"hu":12290,"Ġpremises":12291,"ĠPath":12292,"places":12293,"Ġenemies":12294,"MO":12295,"Ġeducate":12296,"ĠGrant":12297,"Ġvel":12298,"Ġinstitutional":12299,"ĠStrong":12300,"ĠPrint":12301,"Ġexquis":12302,"angel":12303,"Ġnoting":12304,"Ġforming":12305,"Ġrhythm":12306,"ĠCommunications":12307,"Ġscholarship":12308,"Want":12309,"ĠLarge":12310,"Ġmetals":12311,"Ġshoe":12312,"pin":12313,"Christ":12314,"iches":12315,"Ġdescriptions":12316,"vard":12317,"Ġmodes":12318,"imm":12319,"Ġstamp":12320,"Ġcompeting":12321,"Ġproteins":12322,"Ġtokens":12323,"Ġaccessed":12324,"ĠGift":12325,"Ġcomposed":12326,"ĠOffer":12327,"Ġkingdom":12328,"ĠNetherlands":12329,"Ġpositioned":12330,"Ġpipeline":12331,"aired":12332,"ĠJenn":12333,"lay":12334,"eted":12335,"ĠMajor":12336,"Ġrated":12337,"will":12338,"ĠRand":12339,"Ġattracting":12340,"Ġseemingly":12341,"Ġpetition":12342,"Ġflows":12343,"Ġdozens":12344,"keeping":12345,"ĠFDA":12346,"iley":12347,"Ġinstallations":12348,"Ġblogs":12349,"ĠRome":12350,"08":12351,"Ġgonna":12352,"Ġcredentials":12353,"Ġgroom":12354,"ĠIII":12355,"ĠMatthew":12356,"Black":12357,"ĠKevin":12358,"aS":12359,"imens":12360,"ĠSant":12361,"ĠScient":12362,"Ġclimb":12363,"hot":12364,"Ġdashboard":12365,"icked":12366,"enger":12367,"ĠEc":12368,"they":12369,"ĠRog":12370,"ĠDV":12371,"Social":12372,"Ġrefused":12373,"ĠWilson":12374,"UI":12375,"ishers":12376,"Ġviolent":12377,"Ġbrowsing":12378,"ĠFresh":12379,"Ġtent":12380,"ĠDun":12381,"Ġembedded":12382,"ĠCraft":12383,"Ġtournaments":12384,"Ġom":12385,"Min":12386,"HL":12387,"Ġindividually":12388,"ĠOverall":12389,"Ġeliminating":12390,"Ġrevers":12391,"Ġelite":12392,"Ġfails":12393,"Ġnour":12394,"Ġmixing":12395,"Ġrigorous":12396,"250":12397,"IES":12398,"ðĿĲ":12399,"assment":12400,"ĠTes":12401,"ockey":12402,"Ġsurveillance":12403,"asses":12404,"Ġunprecedented":12405,"ĠMov":12406,"addle":12407,"ĠMand":12408,"Ġverified":12409,"ĠTrib":12410,"ĠTemple":12411,"97":12412,"Sub":12413,"lee":12414,"ĠDavis":12415,"Experience":12416,"La":12417,"Ġsolving":12418,"Ġepic":12419,"shire":12420,"Ġwhis":12421,"Ġlender":12422,"Ġignore":12423,"ĠMagazine":12424,"don":12425,"Ġdefeat":12426,"ĠiPad":12427,"Ġclaiming":12428,"employment":12429,"urable":12430,"ĠGaza":12431,"Ġromance":12432,"Ġtropical":12433,"ĠEnterprise":12434,"ĠGallery":12435,"ï¸":12436,"ĠCub":12437,"Ġperceived":12438,"%)":12439,"ishop":12440,"Ġfears":12441,"around":12442,"Ġvolunt":12443,"Ġprovince":12444,"ĠMini":12445,"ĠCrit":12446,"ĠBru":12447,"Ġlabour":12448,"Ġmineral":12449,"Ġpatent":12450,"ĠMarc":12451,"ĠPharm":12452,"Ġsomehow":12453,"ometric":12454,"Ġtends":12455,"Ġacceptable":12456,"Ġbackl":12457,"Ġanticipate":12458,"ridge":12459,"Ġburst":12460,"Ġdict":12461,"Ġintr":12462,"Ġchurches":12463,"ez":12464,"ĠIC":12465,"ĠBrian":12466,"ĠRout":12467,"inge":12468,"ĠFashion":12469,"Ġoffense":12470,"oids":12471,"vance":12472,"ĠMaryland":12473,"Ġcompromising":12474,"Ġweird":12475,"aga":12476,"iratory":12477,"visor":12478,"WE":12479,"Ġbeings":12480,"Ġcustomizable":12481,"ĠHeritage":12482,"ĠNC":12483,"Ġscoring":12484,"rows":12485,"Ġgross":12486,"ILL":12487,"speed":12488,"ĠCou":12489,"ĠDise":12490,"Ġacids":12491,"Ġresilient":12492,"ificates":12493,"Ġcycling":12494,"Ġlocals":12495,"ĠFootball":12496,"Ġregarded":12497,"Ġcabinet":12498,"ĠNavy":12499,"Ġsteal":12500,"Ġsegments":12501,"ellery":12502,"liest":12503,"athon":12504,"ĠEmergency":12505,"abad":12506,"Ġpatio":12507,"vo":12508,"Ġfolder":12509,"Those":12510,"Ġpractitioners":12511,"ĠFurther":12512,"Ġhunt":12513,"ili":12514,"ierce":12515,"Ġ($":12516,"ĠIB":12517,"Ġbegun":12518,"Ġseniors":12519,"ĠWisconsin":12520,"oriented":12521,"phy":12522,"ulator":12523,"ĠSource":12524,"ĠAdjust":12525,"ova":12526,"Ġretrie":12527,"Ã¨":12528,"Ġblocked":12529,"ĠBaby":12530,"ĠFinal":12531,"Ġattendance":12532,"Ġinfring":12533,".'":12534,"Ġannoy":12535,"Ġsits":12536,"Ġanybody":12537,"ĠSix":12538,"Ġancest":12539,"Ġcoconut":12540,"ĠCool":12541,"Ġdecorative":12542,"Ġfosters":12543,"Ñģ":12544,"Ġbinding":12545,"Ġparticipant":12546,"Ġcustody":12547,"ĠZoom":12548,"ĠAgricult":12549,"ĠTalk":12550,"ĠRV":12551,"Ġcure":12552,"Ġpassage":12553,"Ġwelcomed":12554,"Ġbankrupt":12555,"ĠAch":12556,"essional":12557,"Ġvocal":12558,"Ġforums":12559,"Ġ85":12560,"ĠChampionship":12561,"idth":12562,"Ġtimeline":12563,"Business":12564,"rock":12565,"Ġcarb":12566,"Ġnecessity":12567,"Ġseparation":12568,"ĠComputer":12569,"Ġelevated":12570,"??":12571,"Ġambit":12572,"itzerland":12573,"Ġfailing":12574,"Ġrenovation":12575,"Ġpaired":12576,"Ġodd":12577,"wind":12578,"ĠJosh":12579,"Ġlitigation":12580,"Ġtroops":12581,"Ġacadem":12582,"Ġabortion":12583,"Ġcaf":12584,"Ġbarrel":12585,"Ġeducators":12586,"ĠVeh":12587,"dd":12588,"Ġtones":12589,"Ġgrocery":12590,"Ġboosting":12591,"bes":12592,"Ġwaterproof":12593,"ĠPhone":12594,"vable":12595,"Ġarising":12596,"ographical":12597,"Ġtune":12598,"Ġhorror":12599,"ĠMiller":12600,"Ġdecentral":12601,"Ġfriendship":12602,"ĠHarb":12603,"Ġshelf":12604,"Ġcolleges":12605,"azed":12606,"juven":12607,"Ġwages":12608,"ifice":12609,"ĠSkills":12610,"Ġdrum":12611,"MT":12612,"agan":12613,"Ġvet":12614,"02":12615,"ioned":12616,"ĠBuff":12617,"Ġadvances":12618,"Ġawa":12619,"gered":12620,"ĠGuid":12621,"Ġdancing":12622,"Ġelderly":12623,"dale":12624,"ietal":12625,"Ġranked":12626,"apor":12627,"Ġkeyboard":12628,"Ġicons":12629,"ifiable":12630,"ighth":12631,"Ġremod":12632,"GPT":12633,"ĠBureau":12634,"auge":12635,"ĠRoll":12636,"itudes":12637,"iplinary":12638,"Select":12639,"ĠBirth":12640,"Ġdisclose":12641,"curement":12642,"Ġrab":12643,"ĠManaging":12644,"fly":12645,"Ġenthusiasm":12646,"ĠRevolution":12647,"Ġfool":12648,"Ġoptional":12649,"ĠSchools":12650,"ĠDynam":12651,"ribution":12652,"Ġconstraints":12653,"Ġclimbing":12654,"Ġconsuming":12655,"Ġscroll":12656,"Ġprofessionalism":12657,"Ġsurviv":12658,"Ġshadow":12659,"Choose":12660,"Ġstroll":12661,"Ġprescribed":12662,"ptic":12663,"ĠPeace":12664,"open":12665,"Ġtextures":12666,"arbon":12667,"ĠTony":12668,"ĠWE":12669,"ĠKa":12670,"ĠOrange":12671,"Ġdaunting":12672,"07":12673,"Ġgrey":12674,"ĠAV":12675,"Ġrack":12676,"Ġprecaut":12677,"ropriate":12678,"Sl":12679,"ho":12680,"Dec":12681,"ĠRail":12682,"ked":12683,"rative":12684,"Ġadapted":12685,"Ġconservative":12686,"Ġarranged":12687,"ĠDeposit":12688,"Ġtrademark":12689,"Ġjaw":12690,"PG":12691,"erb":12692,"ĠWas":12693,"Ġpriced":12694,"Ġorientation":12695,"Ġphenomenon":12696,"mo":12697,"Ġspecially":12698,"ĠMassachusetts":12699,"ĠTHC":12700,"Ġaug":12701,"Ġstrengthening":12702,"Ġloaded":12703,"Ġauthentication":12704,"ĠMeanwhile":12705,"ĠApart":12706,"Ġforests":12707,"Ġmig":12708,"Ġmush":12709,"Ġcounseling":12710,"Ġeasiest":12711,"Ġgraduated":12712,"Ġdough":12713,"Ġattracted":12714,"Ġtires":12715,"ĠCV":12716,"ĠISO":12717,"Ġconferences":12718,"Ġterrible":12719,"ĠWars":12720,"acco":12721,"Ġcompanions":12722,"Ġborders":12723,"pton":12724,"oore":12725,"Ġcitizen":12726,"ĠMaterials":12727,"enges":12728,"Ġcorners":12729,"Ġinterpre":12730,"Ġconcentrate":12731,"Ġtattoo":12732,"LO":12733,"Ġreviewing":12734,"ĠCape":12735,"Ġexpend":12736,"ĠAnton":12737,"Ġnails":12738,"Ġ1999":12739,"Ġtrace":12740,"ĠRepublicans":12741,"ulin":12742,"Ġgran":12743,"rimin":12744,"ĠKansas":12745,"enz":12746,"Ġcoup":12747,"ĠElizabeth":12748,"Ġsacrific":12749,"Ġfiscal":12750,"Access":12751,"TO":12752,"ĠWelcome":12753,"ĠGas":12754,"Ġbilling":12755,"ĠOften":12756,"Ġstolen":12757,"Ġinbox":12758,"quest":12759,"cam":12760,"Ġdeserves":12761,"Ġcompounds":12762,"Ste":12763,"Ġsevent":12764,"Ġstroke":12765,"ĠRather":12766,"ĠUkrainian":12767,"Ġtheatre":12768,"Ġquicker":12769,"built":12770,"ancers":12771,"mediate":12772,"yes":12773,"Ġdozen":12774,"Table":12775,"Ġranks":12776,"Ġreserv":12777,"Ġstains":12778,"oca":12779,"Ġpassenger":12780,"poke":12781,"ĠNBA":12782,"getic":12783,"Ġschemes":12784,"Ġhydro":12785,"Ġaccountable":12786,"Ġfitted":12787,"emade":12788,"ĠED":12789,"Ġmarketers":12790,"Ġtries":12791,"ĠBerlin":12792,"ĠRain":12793,"Ġups":12794,"ĠDiet":12795,"Ġdesert":12796,"Ġbuzz":12797,"Ð¿":12798,"ĠEag":12799,"Ġpron":12800,"Ġcriticism":12801,"ĠBanglades":12802,"Ġimaging":12803,"ĠBlood":12804,"ĠConn":12805,"ĠCoin":12806,"irop":12807,"Ġoutline":12808,"Intern":12809,"Ġpulling":12810,"avering":12811,"Direct":12812,"ĠKu":12813,"Life":12814,"Ġscent":12815,"irds":12816,"ĠCyber":12817,"ĠSMS":12818,"irming":12819,"Ġtitled":12820,"Ġcontrolling":12821,"96":12822,"pling":12823,"Ġsalad":12824,"Ġlifting":12825,"Ġmg":12826,"ï¸ı":12827,"thereum":12828,"Ġabstract":12829,"Ġdensity":12830,"Ġretired":12831,"Ġambitious":12832,"Ġactress":12833,"Ġfinancially":12834,"Ġprone":12835,"Techn":12836,"Ġpockets":12837,"thon":12838,"Ġjoints":12839,"ĠOperations":12840,"FOR":12841,"berries":12842,"Ġirre":12843,"ĠMeg":12844,"reedom":12845,"ĠBelg":12846,"ĠRole":12847,"Ġcompound":12848,"Ġracial":12849,"ĠIoT":12850,"ĠÂ©":12851,"Ġsink":12852,"Ġhadn":12853,"ĠLady":12854,"main":12855,"reation":12856,"Ġcounterpart":12857,"sea":12858,"Ġcarp":12859,"Ġemphasizes":12860,"Ġcontroller":12861,"iovascular":12862,"Att":12863,"Ġsimpler":12864,"Ġjury":12865,"ĠXia":12866,"Watch":12867,"Ġcleaned":12868,"icular":12869,"Ġkits":12870,"Ġhopefully":12871,"ickets":12872,"ĠWire":12873,"Ġkilomet":12874,"Ġthy":12875,"onda":12876,"Ġcompetitions":12877,"Ġsteep":12878,"rupted":12879,"ĠReading":12880,"ĠSeattle":12881,"uity":12882,"Ġnod":12883,"ĠKenya":12884,"DPR":12885,"ĠBab":12886,"Ġrug":12887,"Ġsweat":12888,"Ġbicy":12889,"Ġvisuals":12890,"LD":12891,"Ġtale":12892,"Ġregulate":12893,"Ġbugs":12894,"placement":12895,"Ġdeduct":12896,"Ġwithdrawals":12897,"ĠMort":12898,"âĢ¦]":12899,"Ġvoted":12900,"06":12901,"Ġfeas":12902,"Ġmotorcycle":12903,"Ġhazards":12904,"quer":12905,"Ġactivate":12906,"Ġfundament":12907,"Great":12908,"Ġmindful":12909,"ĠCarib":12910,"olitan":12911,"ĠSeveral":12912,"Ġstandout":12913,"Ġsubmitting":12914,"ĠSure":12915,"Ġhandful":12916,"Ġenthusiast":12917,"har":12918,"ĠKitchen":12919,"Ġmouse":12920,"ĠPed":12921,"ĠAdditional":12922,"ĠEdition":12923,"ĠHay":12924,"VP":12925,"code":12926,"ĠSud":12927,"03":12928,"Ġbenefic":12929,"ected":12930,"alm":12931,"Stay":12932,"Meet":12933,"Ġprohibited":12934,"Ġsilent":12935,"ixel":12936,"Ġdownloading":12937,"ĠCorporate":12938,"nut":12939,"Ġattempted":12940,"ĠJay":12941,"ĠIniti":12942,"Ġresonate":12943,"sl":12944,"anean":12945,"Ġexquisite":12946,"Ġ1960":12947,"Ġpositively":12948,"Ġlenses":12949,"ï¼":12950,"Ġfoss":12951,"Ġwonders":12952,"Ġfallen":12953,"Ġmodifications":12954,"Ġopponents":12955,"ĠNob":12956,"ĠOcc":12957,"Ġresolved":12958,"ĠFive":12959,"ntil":12960,"acent":12961,"ritis":12962,"ĠCC":12963,"ĠWITH":12964,"position":12965,"ĠResults":12966,"Source":12967,"Ġdirty":12968,"ĠFit":12969,"ĠUtil":12970,"Ġhumidity":12971,"Opt":12972,"Ġcycles":12973,"World":12974,"Ġcabinets":12975,"Form":12976,"ĠIron":12977,"Ġexh":12978,"Ġsuperb":12979,"Ġtroubleshoot":12980,"eu":12981,"Ġpromo":12982,"ĠTarget":12983,"Ġlively":12984,"liant":12985,"ubscribe":12986,"ĠBluetooth":12987,"size":12988,"rehend":12989,"affe":12990,"ertility":12991,"Ġstopping":12992,"Sometimes":12993,"Ġmasks":12994,"ĠMexican":12995,"ĠSens":12996,"Ġconsciousness":12997,"Ġdeparture":12998,"df":12999,"Ġteaches":13000,"ĠTel":13001,"Ġstoring":13002,"opher":13003,"plate":13004,"Ġlaundry":13005,"ĠPil":13006,"Ġbelonging":13007,"ĠSnow":13008,"ĠPhoto":13009,"ĠHP":13010,"Ġexams":13011,"Ġdownloaded":13012,"Ġviral":13013,"Ġstrictly":13014,"iropract":13015,"Ġbackyard":13016,"Ġdiagnosed":13017,"ĠSri":13018,"your":13019,"ĠIndex":13020,"Ġupdating":13021,"Ġrend":13022,"UC":13023,"Ġpolished":13024,"Ġindicating":13025,"Ġpsychology":13026,"ĠDragon":13027,"mate":13028,"Ġprototy":13029,"held":13030,"otte":13031,"ĠEssential":13032,"TE":13033,"Ġbackdrop":13034,"Ġdramatically":13035,"ĠNa":13036,"ĠBath":13037,"Ġchol":13038,"ĠDelta":13039,"Their":13040,"pers":13041,"post":13042,"assador":13043,"ĠConc":13044,"bn":13045,"Ġinhab":13046,"owner":13047,"Ġmagnetic":13048,"ĠEdge":13049,"Ġparallel":13050,"ĠIslands":13051,"ĠSay":13052,"Ġreasonably":13053,"Ġpickup":13054,"ĠRecovery":13055,"nessee":13056,"Ġlending":13057,"lah":13058,"Ġargued":13059,"Ġcaptures":13060,"Ġcatalog":13061,"Ġabundance":13062,"ĠDoor":13063,"Ġtransmit":13064,"Ġrecept":13065,"Ġvariation":13066,"Ġshifting":13067,"ĠPros":13068,"ĠPrograms":13069,"Ġindicator":13070,"ĠPear":13071,"ĠBooks":13072,"Ġsnack":13073,"ĠNative":13074,"Ġshoulders":13075,"ĠDoctor":13076,"normal":13077,"Work":13078,"Ġtheore":13079,"ustral":13080,"ĠChallenge":13081,"Ġpension":13082,"ĠDra":13083,"alling":13084,"chron":13085,"Ġspreading":13086,"Ġfestivals":13087,"ĠPrincip":13088,"Ġtheater":13089,"Ġrevel":13090,"Ġdebit":13091,"Ġmagnific":13092,"ĠCart":13093,"ĠSustainable":13094,"Ġneat":13095,"Ġstressful":13096,"ancies":13097,"urate":13098,"Ġdairy":13099,"Ġjail":13100,"Ġhydrogen":13101,"Ġanalysts":13102,"impse":13103,"Ġassists":13104,"Ġexplored":13105,"owship":13106,"Ġsponsored":13107,"liness":13108,"ĠEmpire":13109,"Ġ49":13110,"Ġadjusted":13111,"Ġvalve":13112,"Ġautomate":13113,"Getting":13114,"ontal":13115,"Ġdecreased":13116,"ĠPict":13117,"Ġvariable":13118,"Ġangry":13119,"Ġdefendant":13120,"Ġplaint":13121,"natural":13122,"oard":13123,"Ġcounts":13124,"falls":13125,"Ġpel":13126,"Ġalerts":13127,"Ġextensions":13128,"ĠBrad":13129,"Ġnurses":13130,"Real":13131,"Ġassurance":13132,"Ġbuilder":13133,"stock":13134,"Ġstressed":13135,"Only":13136,"Ġunwavering":13137,"ctic":13138,"eland":13139,"Ġsportsbook":13140,"ĠFix":13141,"Ġterrain":13142,"Ġmaker":13143,"Ġclosure":13144,"ĠEye":13145,"Ġplates":13146,"ĠThai":13147,"Ġcrops":13148,"ĠDeal":13149,"Support":13150,"papers":13151,"Ġbout":13152,"Ġrepet":13153,"Ġparagraph":13154,"ĠConsumer":13155,"Ġrepeatedly":13156,"ĠBag":13157,"ĠMeeting":13158,"Ġmargin":13159,"Ġcomparable":13160,"Ġgloves":13161,"ĠServer":13162,"ouver":13163,"ablished":13164,"Ġrival":13165,"Ġhardly":13166,"keep":13167,"Design":13168,"plus":13169,"Ġcircular":13170,"Ġhumor":13171,"Ġarguments":13172,"ĠWould":13173,"ĠMagic":13174,"adays":13175,"vals":13176,"Ġfloral":13177,"Ġjournalists":13178,"Ġproprietary":13179,"Ġpants":13180,"ĠBudget":13181,"Ġthresh":13182,"ĠMichel":13183,"Ġdimin":13184,"ĠChrome":13185,"ĠJews":13186,"Ġpraise":13187,"rons":13188,"inance":13189,"esis":13190,"Ġassociations":13191,"Â©":13192,"Ġheater":13193,"ĠHERE":13194,"ushing":13195,"incol":13196,"Ġdrying":13197,"Ġriders":13198,"Ġempowers":13199,"MW":13200,"ĠBY":13201,"Ġdimension":13202,"ĠEquipment":13203,"ĠBeauty":13204,"Ġcommod":13205,"who":13206,"Ġrolled":13207,"Ġisolation":13208,"Ġacknowledged":13209,"Ġcheer":13210,"ĠGreg":13211,"ASE":13212,"ĠML":13213,"ĠWy":13214,"Ġmiscon":13215,"ĠBurn":13216,"Ġupset":13217,"rylic":13218,"ĠAssociate":13219,"ĠSecure":13220,"Ġforgotten":13221,"ĠHur":13222,"Ġaccessory":13223,"oval":13224,"Ġsecurities":13225,"Ð¸":13226,"chair":13227,"Ġfavorable":13228,"ĠCann":13229,"ĠBegin":13230,"Ġdiscovering":13231,"Ġproportion":13232,"text":13233,"Ġcorporation":13234,"Ġlips":13235,"ĠWriting":13236,"Ġdiameter":13237,"Ġmunicipal":13238,"ĠNeg":13239,"Ġrelying":13240,"Ġstere":13241,"Ġdisabled":13242,"UST":13243,"09":13244,"map":13245,"Ġsorry":13246,"Ġshr":13247,"Ġthirty":13248,"Ġexecuted":13249,"Ġ44":13250,"feed":13251,"Ġprofessionally":13252,"flamm":13253,"Ġwrapped":13254,"Ġviolations":13255,"gged":13256,"Ġprinter":13257,"sers":13258,"ĠSwitzerland":13259,"----":13260,"ĠFriends":13261,"Ġpairs":13262,"Ġmira":13263,"hyd":13264,"Ġvibe":13265,"ĠNep":13266,"Ġexecutives":13267,"Ġperforms":13268,"jud":13269,"Ġmas":13270,"ĠSong":13271,"ĠSO":13272,"ĠVisual":13273,"bul":13274,"Ġjournalist":13275,"Ġsmoother":13276,"focused":13277,"Ġemerge":13278,"irk":13279,"ĠFat":13280,"Ġrejected":13281,"ÑĢ":13282,"Ġmes":13283,"Ġstrikes":13284,"Ġempathy":13285,"Ġsocietal":13286,"Ġresonates":13287,"ĠCareer":13288,"Ġadopting":13289,"ĠChannel":13290,"Ġremedy":13291,"Ġcareg":13292,"Ġdocumentary":13293,"crafted":13294,"Ġpotatoes":13295,"!!!":13296,"points":13297,"Ġcharts":13298,"dings":13299,"Ġghost":13300,"Ġentries":13301,"oria":13302,"Product":13303,"Ġdigestive":13304,"ĠGate":13305,"Ġbarely":13306,"gence":13307,"ĠLooking":13308,"ĠNG":13309,"ĠHan":13310,"Ġlover":13311,"Ġtraits":13312,"Ġattraction":13313,"ĠZero":13314,"ĠSimple":13315,"ĠSettings":13316,"ĠFram":13317,"Creating":13318,"mg":13319,"iterr":13320,"ancouver":13321,"Ġtenants":13322,"Ġfarms":13323,"ĠImage":13324,"ĠCasinos":13325,"ÃĤ":13326,"ouri":13327,"Ġradiation":13328,"mouth":13329,"outheast":13330,"Ġretro":13331,"Det":13332,"Meanwhile":13333,"Ġeducated":13334,"Ġles":13335,"Ġgang":13336,"Enh":13337,"ĠBright":13338,"ACT":13339,"Ġpools":13340,"ĠNevertheless":13341,"ĠLicense":13342,"Ġchaos":13343,"ĠJason":13344,"Ġgovernor":13345,"Ġrides":13346,"Ġnevertheless":13347,"Ġmilestone":13348,"Ġassessing":13349,"jo":13350,"ĠIndigenous":13351,"ĠScreen":13352,"ĠPow":13353,"Ġrefuse":13354,"Ġpersu":13355,"Ġcomplimentary":13356,"ĠBarn":13357,"Ġraises":13358,"omic":13359,"ĠRoss":13360,"Ġalleviate":13361,"Ġgig":13362,"Ġ~":13363,"Ġclicks":13364,"Ġhomeless":13365,"Ġfancy":13366,"Ġhike":13367,"ĠDomin":13368,"ĠHence":13369,"Ġconsultants":13370,"Ġwitnessed":13371,"Tips":13372,"ĠRTP":13373,"Ġmax":13374,"Ġinnoc":13375,"aneous":13376,"Ġreportedly":13377,"Ġtrades":13378,"Ġconsisting":13379,"Ġnobody":13380,"Ġphrases":13381,"ĠLiver":13382,"Ġtherapies":13383,"ĠActive":13384,"ĠIndonesia":13385,"Ġbedrooms":13386,"ĠRestaur":13387,"ĠHom":13388,"Ã§":13389,"umble":13390,"Ġunfortunately":13391,"ĠSwiss":13392,"ĠMemorial":13393,"Ġsourced":13394,"04":13395,"ĠAth":13396,"ĠPad":13397,"ĠRecogn":13398,"Ġbehavioral":13399,"ĠCaribbean":13400,"ĠHousing":13401,"astics":13402,"Ġsooner":13403,"Ġthro":13404,"emn":13405,"ĠResort":13406,"fare":13407,"Ġblade":13408,"Ġremotely":13409,"elong":13410,"Ġinsert":13411,"Ġathletic":13412,"Ġsimplify":13413,"ĠBio":13414,"Ġbeginner":13415,"uits":13416,"Ġtile":13417,"ĠOthers":13418,"ĠGetting":13419,"Ġfolk":13420,"ĠVA":13421,"Know":13422,"Ġislands":13423,"about":13424,"Ġcancellation":13425,"ĠDave":13426,"Ġbitcoin":13427,"Ġcalculate":13428,"Ġprofitability":13429,"ollar":13430,"ergy":13431,"Ġblame":13432,"ĠScholars":13433,"Ġjet":13434,"Sw":13435,"ĠRequire":13436,"Ġstreamlined":13437,"Ġapplicant":13438,"ĠBush":13439,"Ġlush":13440,"Ġholders":13441,"ĠMarine":13442,"Ġmothers":13443,"Ġoutlet":13444,"izers":13445,"ĠQual":13446,"Ġdatabases":13447,"Ġequality":13448,"Ġoz":13449,"Ġrecognizing":13450,"Ġbikes":13451,"ĠEC":13452,"Ġclassified":13453,"ĠShel":13454,"via":13455,"ĠFile":13456,"Ġlogic":13457,"abama":13458,"erie":13459,"ĠGPS":13460,"ĠWolf":13461,"vation":13462,"ĠCastle":13463,"Ġwrink":13464,"rosion":13465,"Ġglory":13466,"ĠCurrently":13467,"ĠBrow":13468,"ĠLocation":13469,"Ready":13470,"lu":13471,"Ġbom":13472,"Ġcommitments":13473,"Ġrevolutionary":13474,"Ġtears":13475,"Copyright":13476,"ĠTaking":13477,"Ġsacred":13478,"Ġmart":13479,"burn":13480,"Ġstating":13481,"Ġcomparing":13482,"oker":13483,"ĠBus":13484,"Ġfundraising":13485,"Ġopponent":13486,"Def":13487,"Ġresponding":13488,"ensed":13489,"ĠEntertainment":13490,"Ġworkflows":13491,"Ġhandmade":13492,"ĠConstitution":13493,"Ġpuzzle":13494,"Ġholder":13495,"ĠYears":13496,"ĠCold":13497,"Ġhormone":13498,"connected":13499,"houses":13500,"Ġfavorites":13501,"Ġfabulous":13502,"Ġwebinar":13503,"Pat":13504,"ĠPin":13505,"Dav":13506,"ĠBBC":13507,"ĠGiven":13508,"Ġholy":13509,"storm":13510,"ĠCream":13511,"ĠRap":13512,"ĠClaim":13513,"Ġcertifications":13514,"Ġintensive":13515,"Ġapartments":13516,"Ġmedicines":13517,"Ġexpecting":13518,"ĠSummit":13519,"coin":13520,"ĠIowa":13521,"Ġwaist":13522,"Ġsuggesting":13523,"ĠUtah":13524,"59":13525,"Ġfailures":13526,"ped":13527,"Ġ[âĢ¦]":13528,"Ġgray":13529,"Ġinfluential":13530,"arrings":13531,"Bey":13532,"ivest":13533,"ĠLiber":13534,"Ġbride":13535,"Ġconfused":13536,"appro":13537,"ĠFloor":13538,"ĠGraph":13539,"ĠKnowledge":13540,"Funnels":13541,"Ġbullet":13542,"umni":13543,"ĠTesting":13544,"ĠTennessee":13545,"ĠBangladesh":13546,"obs":13547,"artz":13548,"Ġcompliant":13549,"Ġcoupled":13550,"IST":13551,"Ġfirmly":13552,"bone":13553,"Ġrejuven":13554,"ĠStra":13555,"ĠKelly":13556,"Ġacres":13557,"base":13558,"neath":13559,"Ġvegetable":13560,"iterranean":13561,"Ġgast":13562,"Ġutmost":13563,"Ġconversions":13564,"ĠFish":13565,"ĠUC":13566,"inspired":13567,"Ġca":13568,"ĠDry":13569,"Ġprobability":13570,"Ġpiano":13571,"Ġblo":13572,"esterol":13573,"Market":13574,"ĠPlayer":13575,"Ġsoup":13576,"ĠLock":13577,"Ġvulnerabilities":13578,"69":13579,"Ġdistricts":13580,"fund":13581,"Ġadvisable":13582,"Ġdupl":13583,"ĠInstallation":13584,"Ġglimpse":13585,"Ġfragrance":13586,"Gen":13587,"Ġtravelling":13588,"Ġworthy":13589,"Ġframeworks":13590,"ĠMental":13591,"Ġbreeze":13592,"Ġfacilitating":13593,"Ġmethodology":13594,"Ġstrategically":13595,"Ġillumin":13596,"PE":13597,"ĠHIV":13598,"Cas":13599,"oft":13600,"Ġaccent":13601,"Ġbudgets":13602,"ĠSchedule":13603,"Ġwarned":13604,"ĠRegistration":13605,"Ġdelayed":13606,"ĠTitle":13607,"hist":13608,"Ġsam":13609,"ĠTransfer":13610,"Ġinfluencers":13611,"Ġpaste":13612,"ĠJane":13613,"INE":13614,"Ġprivilege":13615,"Ġviable":13616,"Ġcables":13617,"ĠEthereum":13618,"Ġdevelops":13619,"attered":13620,"mann":13621,"ĠTurkish":13622,"ĠBrew":13623,"Ġlecture":13624,"Ġjudges":13625,"Ġserene":13626,"Ġunl":13627,"eem":13628,"Ġadaptation":13629,"Ġdeployed":13630,"Ġfortune":13631,"Ġ47":13632,"Ġreprodu":13633,"Ġtoll":13634,"Ġnurturing":13635,"Regular":13636,"Ġ64":13637,"Ġlimitation":13638,"BL":13639,"Ġenergetic":13640,"Ġfrustration":13641,"Ġlou":13642,"Ġplayful":13643,"Ġsail":13644,"shot":13645,"Ġallegations":13646,"ĠPhoenix":13647,"shine":13648,"Ġbin":13649,"ĠOlympic":13650,"Ġrecreational":13651,"Ġceramic":13652,"ĠFeed":13653,"ĠIndeed":13654,"ctuary":13655,"bye":13656,"Ġsearches":13657,"ĠFle":13658,"Develop":13659,"ĠAdvert":13660,"KE":13661,"Though":13662,"aha":13663,"ĠPatrick":13664,"hr":13665,"abi":13666,"ĠInv":13667,"Ġperfection":13668,"Ġcategor":13669,"Ġnutrient":13670,"ifiers":13671,"ĠHarvard":13672,"Ġtangible":13673,"ointing":13674,"mers":13675,"Ġlobby":13676,"Ġimpactful":13677,"ĠRegion":13678,"Ġpoliticians":13679,"stan":13680,"igma":13681,"Ġprovin":13682,"Ġjackpots":13683,"seen":13684,"vi":13685,"ĠBull":13686,"Ġpassport":13687,"ĠMatch":13688,"ĠAds":13689,"Ġplanting":13690,"Ġsilence":13691,"Hz":13692,"inth":13693,"ĠCommerce":13694,"ĠMulti":13695,"ĠWorth":13696,"performance":13697,"olding":13698,"ĠSac":13699,"Ġshame":13700,"Ġrh":13701,"Ġcataly":13702,"ĠJourney":13703,"cert":13704,"Ġine":13705,"asis":13706,"antry":13707,"Ġimplants":13708,"ĠPodcast":13709,"vens":13710,"Ġpear":13711,"Look":13712,"Ul":13713,"onal":13714,"Ġdirectory":13715,"Ġlockdown":13716,"Ġinvitation":13717,"ĠSimon":13718,"Ġroutines":13719,"Ġmanages":13720,"product":13721,"burse":13722,"Ins":13723,"Ġsummar":13724,"ĠSingle":13725,"ĠSpecific":13726,"gate":13727,"Inter":13728,"mart":13729,"Ġkiss":13730,"commun":13731,"ĠHigher":13732,"Ġluc":13733,"umatic":13734,"Ġdiagnostic":13735,"ĠGreece":13736,"omed":13737,"Ġrespiratory":13738,"ÑĤ":13739,"mad":13740,"Ġfixtures":13741,"Ġorchest":13742,"arking":13743,"uns":13744,"ĠBachelor":13745,"Ġpine":13746,"Ġadjustment":13747,"Ġsponsors":13748,"Ġlibraries":13749,"SH":13750,"ximity":13751,"Ġmad":13752,"shaped":13753,"roit":13754,"Ġexamined":13755,"ĠSEC":13756,"Ġblends":13757,"ĠStephen":13758,"Open":13759,"ĠHomes":13760,"Ġterminal":13761,"Ġspirits":13762,"Ġquery":13763,"bsolute":13764,"ĠIndiana":13765,"ĠDiamond":13766,"Ġdign":13767,"Ġadjusting":13768,"ĠPalestinian":13769,"Ġsentiment":13770,"Ġfract":13771,"Ġarc":13772,"Ġduct":13773,"ĠImagine":13774,"Ġnerve":13775,"Ġunderground":13776,"Ġpotent":13777,"Ġoutreach":13778,"Ġbomb":13779,"Ġescap":13780,"Level":13781,"ĠChoosing":13782,"Ġhanded":13783,"ITE":13784,"Ġ1998":13785,"ĠRange":13786,"Ġskip":13787,"Ġsupervision":13788,"ĠLewis":13789,"ĠIRS":13790,"ipes":13791,"Ġrevealing":13792,"Ġencountered":13793,"Ġenlarge":13794,"Ġtongue":13795,"Ġprocessor":13796,"ĠCompliance":13797,"icts":13798,"ĠGB":13799,"ĠTaiwan":13800,"kyo":13801,"Ġdefects":13802,"etics":13803,"Ġunpredict":13804,"Ġfired":13805,"ondition":13806,"Ġseparated":13807,"Ġextending":13808,"Ġinvestigations":13809,"mother":13810,"Ġcontacted":13811,"Ġbalancing":13812,"Ġvariables":13813,"Ġhabitat":13814,"Ġcomfortably":13815,"ĠSi":13816,"gends":13817,"ĠLands":13818,"Ġdemonstrating":13819,"Ġhonored":13820,"core":13821,"ĠDad":13822,"Ġspam":13823,"acht":13824,"ĠUpon":13825,"good":13826,"ĠBalt":13827,"ĠGalaxy":13828,"Max":13829,"Ġwool":13830,"Ġresur":13831,"dis":13832,"km":13833,"Ġoverwhelmed":13834,"Ġessentials":13835,"Ġtweet":13836,"Ġwing":13837,"aria":13838,"Ġindu":13839,"https":13840,"Ġoutlook":13841,"Ġscream":13842,"Ġbeverage":13843,"Ġbatch":13844,"Ġinstinct":13845,"Ġcraw":13846,"ni":13847,"Ġcorruption":13848,"ĠObs":13849,"ĠThanksgiving":13850,"Ġelabor":13851,"Ġexplaining":13852,"Ġconverted":13853,"writer":13854,"Ġrod":13855,"Ġpersistent":13856,"Ġpredictions":13857,"Ġmodeling":13858,"father":13859,"iencies":13860,"89":13861,"ĠTotal":13862,"Ġallure":13863,"Ġcelebrations":13864,"Ġcreamy":13865,"mentia":13866,"Ġscrap":13867,"Ġreferring":13868,"Ġinvites":13869,"ĠClinic":13870,"Ge":13871,"Ġclassical":13872,"Ġmultif":13873,"Ġredef":13874,"matched":13875,"Ġsatellite":13876,"immer":13877,"Contin":13878,"Ã±":13879,"Ġsponsor":13880,"Ġseafood":13881,"Prov":13882,"ĠBetween":13883,"stage":13884,"Ġmos":13885,"ĠSimilarly":13886,"lahoma":13887,"Ġft":13888,"Ġ46":13889,"rolled":13890,"gie":13891,"ĠDig":13892,"Ġpunch":13893,"igrant":13894,"Ġadvancing":13895,"Ġisolated":13896,"2023":13897,"ĠPalace":13898,"Ġgatherings":13899,"Ġfunnel":13900,"Ġsprink":13901,"Ġcentres":13902,"Ġpaperwork":13903,"ipper":13904,"Ġrally":13905,"ĠSpins":13906,"amboo":13907,"Ġpurple":13908,"Ġcub":13909,"Ġcandle":13910,"Sat":13911,"Ġsurgeon":13912,"inite":13913,"Ġclever":13914,"Ġfridge":13915,"Ent":13916,"Ġmud":13917,"ĠSnap":13918,"Ġconstitute":13919,"Ġdealt":13920,"ĠFeel":13921,"UK":13922,"ĠCertificate":13923,"Ġtuned":13924,"Ġdece":13925,"Ġenvelop":13926,"ĠRegister":13927,"zan":13928,"ĠCultural":13929,"Ġvessel":13930,"ĠUrban":13931,"Ġnomin":13932,"Ġconvinced":13933,"Ġpy":13934,"Ġsquad":13935,"aro":13936,"ĠBring":13937,"ĠKhan":13938,"Ġmysterious":13939,"jan":13940,"ĠCoach":13941,"Ġfounding":13942,"Ġanimation":13943,"Ġbreathe":13944,"Ġbettors":13945,"ĠStri":13946,"ĠKam":13947,"track":13948,"Ġscrut":13949,"Ġlying":13950,"ĠMas":13951,"Ġshout":13952,"Ġcurrencies":13953,"Ġannoun":13954,"Beyond":13955,"ĠRecords":13956,"ulatory":13957,"odd":13958,"Ġswitching":13959,"ols":13960,"ostal":13961,"Ġgraduates":13962,"ĠTesla":13963,"Ġ43":13964,"Ġbend":13965,"Ġboats":13966,"Building":13967,"Ġepid":13968,"ĠSprings":13969,"Ġunity":13970,"ĠLaure":13971,"Ġarrives":13972,"ĠUpdate":13973,"Ġemphasized":13974,"Ġcolored":13975,"start":13976,"aints":13977,"ĠEaster":13978,"Ġrehabilitation":13979,"olph":13980,"Ġlegislative":13981,"Ġvulnerability":13982,"ĠJudge":13983,"Ġmissions":13984,"Ġlengthy":13985,"Hy":13986,"walk":13987,"Ġsuicide":13988,"Ġheadquarters":13989,"iants":13990,"Ġembarr":13991,"Ġbasement":13992,"Ġethics":13993,"ĠAssessment":13994,"ĠTraditional":13995,"ĠMediterranean":13996,"ĠShopify":13997,"Ġexperiments":13998,"ĠLincol":13999,"oded":14000,"ĠProp":14001,"Ġabandoned":14002,"Ġvaccines":14003,"ĠPhysical":14004,"Ġmesh":14005,"ĠDesigned":14006,"Ġthickness":14007,"vet":14008,"ottom":14009,"Ġgarn":14010,"Ġquantities":14011,"ĠBattle":14012,"Ġwings":14013,"Ġspat":14014,"Ġrocks":14015,"ĠFu":14016,"Est":14017,"ĠVancouver":14018,"Ġpoetry":14019,"ean":14020,"ĠMale":14021,"ĠMarsh":14022,"Ġbeverages":14023,"Ġembro":14024,"itime":14025,"ĠHeat":14026,"ĠHung":14027,"Ġfires":14028,"Ġbacking":14029,
[...]
